#version: 0.2
Ã °
Ġ Ã
Ġ s
a r
i n
a Ã°
e r
Ġ h
a n
Ġ v
Ġ f
u m
Ġ .
u r
i Ã°
Ã ³
Ã ¡
ĠÃ ¾
s t
i r
Ġ o
Ã ¦
Ġ m
ĠÃ ¡
Ġ aÃ°
Ġ e
Ã Ń
Ġo g
Ã ¶
ĠÃ Ń
i l
u n
Ġ ,
Ġ t
Ġ l
e g
t t
Ġ er
a l
in n
a f
e m
e n
Ġ b
a m
Ġ g
Ġ k
Ã º
in g
Ã ©
a g
e i
Ġ n
Ġs em
k k
y r
an n
Ġs t
an d
s k
o r
j Ã³
Ġt il
s s
e f
Ġ S
Ġ um
r i
Ġf r
r a
e Ã°
Ġs k
Ġv iÃ°
Ã ½
s l
Ġv er
ĠÃ¾ e
Ġ r
n a
Ã° i
Ã° a
Ġf yr
e l
n d
l a
Ġ H
i g
Ġ 1
t a
Ġm eÃ°
ĠÃ ŀ
n ar
j a
n i
v ÃŃ
in s
Ã¡ l
Ġe n
e y
Ġfyr ir
Ġ d
un d
Ġ 2
v er
Ġv ar
Ġ af
p p
l eg
l u
a u
Ġs am
Ã¶ g
t i
Ġ E
Ġ M
Ã¶ r
kk i
o n
Ã© r
i s
Ã° ur
â Ģ
n ing
Ġ al
ĠÃ¾e ss
ĠÃ º
Ġ B
Ġh af
Ġ âĢ
Ġe kki
l i
Ġ A
Ġ F
and i
Ġe f
Ã¦ r
r e
ar f
en d
ĠÃ į
k a
Ġ u
Ġh ef
e t
Ġs v
Ġ V
ĠÃ¾ vÃŃ
j Ã¡
a t
ĠÃ¾ aÃ°
Ġ -
Ã¶ l
ei m
o m
l ag
in u
t ir
Ã° u
Ġ G
n um
Ġu pp
Ġfr am
Ġer u
st a
Ġs ÃŃ
i k
al d
u g
Ã³ l
Ġ L
Ã ¾
n u
ÃŃ k
Ġfr Ã¡
r Ã¦
Ã° ar
k v
0 0
Ġ K
en n
e iÃ°
Ġ R
ei k
j ar
s ins
l l
an g
tt a
inn i
en g
ĠÃ ¶
Ġhef ur
e k
ĠÃ¡ r
ing ar
e st
leg a
r Ã¡
g g
Ġe in
Ġe Ã°a
e ir
Ã¦ k
Ã³ k
jÃ³ r
Ġ N
Ġ p
Ġk om
ĠÃ¾ Ã¡
Ġef tir
i p
y nd
o f
Ã© lag
Ġs Ã©r
u Ã°
i st
r Ã³
Ġ :
er Ã°
ĠÃ¾ ar
Ãº n
eg ar
ĠÃº t
Ġ T
ann a
ĠÃ ³
Ġh ann
Ġ )
ÃŃ m
Ã¶ f
Ġhaf a
st u
y gg
ĠÃ¾e ir
l d
s m
il d
Ã¶ n
Ġver iÃ°
i t
Ã¦ m
a st
aÃ° ur
f ir
Ġal l
ĠÃ ģ
n ir
y n
Ã¦ g
Ã© tt
Ã³ tt
Ġ J
Ġs Ã©
ar a
Ã³ r
Ġ2 0
Ã° um
Ġ (
in d
j Ã¡l
Ġh v
ĠÃº r
Ãº s
ss on
Ġ y
sl u
un ar
Ġg er
Ġsv o
Ġf l
Ġb r
ĠÃį sl
o kk
a k
Ġf or
Ġn Ã¡
Ġ inn
ĠÃ ©
ei t
Ġd ag
aÃ° i
Ġl ÃŃ
ĠÃ© g
an s
Ġ j
Ġ au
j Ã¶l
Ġg r
Ã¦ Ã°i
Ġh eim
Ġh ver
t ur
in a
v ar
Ġn Ã½
Ġm ik
e s
j Ã¶r
Ġ 3
j u
Ã¦ tt
Ġv eg
and s
or g
Ġy fir
un um
f i
ĠS t
o t
Ġ D
Ġe ig
Ġst arf
af n
el d
Ã¡ Ã°
b er
jÃ³ Ã°
Ã¶ k
Ġs eg
al l
Ġ P
Ġv or
ĠÃŀ aÃ°
Ġ und
il eg
ĠâĢ ľ
Ġm Ã¡
Ġ20 1
Ġ1 9
a s
o Ã°
ar k
Ġs p
ing u
Ã¦ Ã°
b r
Ġm Ã¡l
il l
jÃ³r n
un g
ĠâĢ ŀ
ĠÃ¾ egar
ri f
jÃ¡l f
eir a
ĠÃ ¦
Ġver Ã°ur
end ur
Ġst aÃ°
Ã³ t
kv Ã¦m
Ã½ s
Ġ at
un ni
ĠÃ¡ h
Ġvor u
o l
ar s
r am
t u
Ġ U
i tt
d Ã³tt
d d
Ã½ r
d ag
un a
Ġn Ãº
Ġhaf i
y l
e in
Ġh e
Ġg re
ĠÃ¾ eim
Ġ /
inn ar
inn a
jÃ¡ r
Ã³l k
Ġh lu
Ġ ann
Ġ I
u l
Ã³ n
Ġl Ã¶g
Ġe nd
Ġt ÃŃm
et ur
j um
Ġo kk
Ġv el
Ġm ynd
Ã³ m
Ġs ig
Ġl eik
Ġo f
Ġ 4
vÃŃ k
r ar
Ã³ la
Ġver a
s Ã³k
st Ã¶
ar i
Ġsk ip
ÃŃ Ã°
ar g
sk a
Ġ2 00
ef nd
Ġh Ãºn
. .
of n
j Ãº
un n
Ġver k
Ġh Ã¡
Ġk r
Ġe inn
Ġt ek
ag n
t Ã¦k
o k
Ġo r
ĠÃŀ e
u ll
Ġe ins
sk ip
Ġh jÃ¡
ing a
Ġ 5
b Ãº
Ġl and
ĠÃ¾e tta
h ver
ĠÃ¾eir ra
u st
Ġveg na
Ġl ag
Ġk v
Ã¦ ri
ei g
dÃ³tt ir
ĠS k
Ã¶n g
Ġs l
Ġh ug
Ġseg ir
l Ã½s
Ġk o
Ã³ Ã°
Ġf jÃ¶l
ĠÃ¡ kv
Ġ ?
iÃ° ur
Ġh Ã©r
Ġall t
Ġund ir
e tt
g i
k ja
an a
Ġl eiÃ°
in um
ef ni
r Ãº
t ar
ur inn
Ġ O
s am
ning ar
and a
Ġ C
ĠR ey
ÃŃ n
Ġs Ã½
r um
s v
Ġf Ã©lag
Ġf Ã¡
ÃŃ s
un nar
or t
r iÃ°
ĠV iÃ°
Ã¶l d
Ġg e
Ã¦g t
a ka
Ġm un
Ġr Ã¡Ã°
ī g
ey t
sta k
Ġt v
ir k
g ja
em ur
Ġk l
i m
Ġh ald
Ġf er
Ġh l
h er
aÃ° a
t l
ĠÃ īg
f a
Ġb ar
end a
rÃ¦ Ã°
Ġb l
ĠÃŃ sl
s f
Ġsk il
r u
sk u
Ġl Ã¡
Ġst jÃ³rn
Ġs jÃ¡lf
rÃ¡ Ã°
aÃ° ar
m enn
m iÃ°
ĠâĢ ĵ
Ġr ÃŃk
r ygg
n t
Ġ "
Ġh en
Ġk yn
ĠtÃŃm a
m i
Ġf Ã³lk
Ġ 6
l um
p a
Ġf jÃ¡r
k om
ĠS am
ĠÃ¡ ra
ĠÃŃsl en
ĠM eira
e pp
ĠÃįsl ands
f ram
ing um
Ġj afn
s h
ĠÃ¾ au
Ġh Ã¶f
l Ã¶g
Ġr Ã©tt
ĠE n
j Ã¶g
m Ã¡
v inn
b l
o tt
Ġs ag
Ã¶ nd
ĠÃ¾ ann
ĠS ig
or Ã°
Ã¦ ti
lu g
Ġn okk
Ġm iÃ°
Ġ. ..
Ġm ann
ĠG uÃ°
Ã¦ Ã°a
ĠA Ã°
er k
li t
ĠRey kja
ning u
Ġs jÃ¡
ver k
m ynd
Ġg eg
Ġsam an
Ġeinn ig
e yr
jÃ³ nu
m a
Ġh ans
ĠReykja vÃŃk
Ġ 8
an um
Ġkom a
t um
r ÃŃ
Ġb Ãº
Ġt aka
f ar
Ġr ey
Ġv inn
ĠE f
ĠÃ ĵ
il li
s p
ĠÃ¶ Ã°
re iÃ°
Ġh r
Ġn em
ĠÃ¶ ll
Ã¡ tt
leg t
jÃº k
f erÃ°
m Ã¡l
Ġ 7
Ġb ygg
g a
Ġhe il
Ġf und
t al
v eg
l ÃŃ
Ġn iÃ°ur
sk Ã³la
Ġb Ã¦
h Ãºs
Ġ a
ĠlÃŃ f
Ġf ull
ĠÃŀe tta
Ġver Ã°i
ĠÃ¾ess u
st jÃ³
g ar
Ġ1 0
r eg
ĠH ann
Ġo p
Ġor Ã°
st ur
u s
j ald
ĠÃ¾Ã¡ tt
Ã³ p
Ġver Ã°a
Ġn Ã¦
ĠÃ¾ Ã³
Ġl ÃŃk
e ild
rÃ¦ Ã°i
Ġg etur
st i
Ġau k
Ġupp lÃ½s
Ġs n
i ss
u t
Ġn ot
f Ã©lag
Ġh el
Ġger a
Ġv Ã¦ri
Ġk emur
Ġm jÃ¶g
Ġsk al
jÃ³ n
Ġgre in
ann sÃ³k
Ġl iÃ°
s a
eld ur
Ġm Ã¦
Ġf yl
Ġt al
Ġl jÃ³
l eik
Ġf ar
ĠÃ¡r iÃ°
Ġg ef
Ġokk ur
ei tt
s dÃ³ttir
g r
ĠÃ¾ Ã¦r
jÃ³r nar
s i
Ġal d
Ġh Ã¦
i f
Ġend ur
lu t
Ã° an
Ġl ok
h ald
Ġm arg
Ġe itt
Ġ ;
t an
m aÃ°ur
Ġ ra
ri t
sl a
ef n
ĠÃ¡ tt
el l
kvÃ¦m t
Ġb er
Ã¶ Ã°
Ġt eng
st arf
ĠA l
eir i
ĠÃ¾ arf
Ġf Ã³r
Ġokk ar
Ġh Ã¦gt
y ld
Ã¦tt i
Ġm Ã©r
Ġm illi
Ġf ara
Ã¡ r
Ġ 9
Ġge ta
k ur
en t
ĠÃ¾ Ãº
em ber
l eiÃ°
Ġm ark
k t
ĠÃ¾ r
Ġmik il
ĠÃ¾ ur
Ġl ey
m s
ĠS v
Ġh Ãºs
Ġ Â
ta k
g ang
er t
ĠÃ¾ess um
Ġ1 2
t Ã¶k
sk Ã³l
e ins
on um
ri st
Ġhv ort
Ġs e
Ã¶ m
f l
kvÃ¦m d
Ġvar Ã°
ileg a
Ã į
Ġfyrir tÃ¦k
Ġr eg
Ġm enn
ĠÃ¡ Ã°ur
Ġver Ã°
v el
ĠmeÃ° al
Ġv ik
sk rÃ¡
t iÃ°
n ig
u lag
r ei
Ġ1 8
st ar
Ġs Ã¶g
Ġhv aÃ°
r Ã©tt
yr ir
Ġl eg
n n
ei ta
ĠÃ ½
f is
Ġs um
Ġhlu t
l iÃ°
Ġh eldur
dag inn
Ġs inni
o s
Ġst Ã³r
Ã¶r f
Ġv il
Ġt Ã³k
n un
au p
Ġl au
Ġ1 5
Ġm at
Ġm inn
ĠU m
ĠÃŀ Ã¡
Ġv ir
al la
em m
ei ka
jÃ³nu stu
Ġsk u
Ġg l
b and
Ġein hver
ĠÃŃslen sk
Ġ 0
h ug
b oÃ°
p u
il a
Ġm eira
Ã° ir
ÃŃ u
sl eg
Ġsv eit
s u
Ġ !
her ra
an ir
ĠJ Ã³n
Ã¾ ing
v aÃ°
Ġen n
ĠÃ¡ n
Ã¶ lu
ri g
l ar
Ġsag Ã°i
b Ã¦
ĠÃ¾ jÃ³Ã°
l end
Ġs inn
Ġt el
re in
Ġl ang
ĠsÃŃ num
Ã°a st
g j
Ġund an
y kk
jÃ³ l
Ġmik iÃ°
f iÃ°
Ġm ill
j all
stÃ¶ Ã°
Ġst ofn
g u
st of
ĠrÃŃk is
m ann
Ã¶r n
au Ã°
Ġr annsÃ³k
Ġfram kvÃ¦md
en na
h af
t rÃº
il i
k u
ĠSig ur
im m
r ey
und ur
Ġt Ã¦k
m Ã¦
Ġb ara
Ġsk rif
var p
Ġg Ã³
ĠÃ¾ess a
Ġb ir
Ġhaf Ã°i
Ġf Ã©
Ġh onum
Ġkom iÃ°
t ÃŃÃ°
ĠaÃ° st
ĠsÃŃ Ã°an
Ġf Ã¦r
Ġinn an
n aÃ°
ĠÃŀ ar
ĠÃįsl andi
Ġein stak
Ãº r
Ġf eng
Ġbr eyt
b org
i ta
ĠÃ¶ll um
Ġ1 6
Ġe ld
Ġl eng
ĠÃ ĸ
s Ã½
f rÃ¦Ã°
Ġr ek
f er
Ġgre iÃ°
Ġb ÃŃ
i sk
Ġfor s
s n
ĠH Ã¡
Ġsam a
o nar
ĠÃ¾ ing
Ġg ild
Ġf erÃ°
Ġ1 1
c h
Ġs ett
Ġhver nig
at n
jar Ã°ar
e d
ĠnÃ¡ m
b rig
Ġ ung
o ta
Ġb Ã³k
Ã¶r Ã°
Ġst Ã¶
ĠÃŀ Ã³r
Ãº ar
a b
g ur
v rÃ³
ĠÃ¡h rif
Ġaf tur
ĠsÃ© u
an k
ĠN or
Ġ W
b ur
Ġseg ja
Ġs Ã¡
ĠÃ¾ann ig
ĠÃ¶Ã° rum
Ġgeg n
Ġeig a
s em
Ġg Ã¦r
ĠM eÃ°
Ġhen nar
Ġ [
org un
Ġt Ã³n
stjÃ³ ri
ĠK rist
Ġ1 7
Ġv ÃŃs
ing ur
Ġs Ãº
Ġk Ã¦r
Ġb org
a p
h eim
Ġh ag
Ġ19 9
st jÃ³rn
ĠT il
ef na
Ġv egar
Ġger t
ÃŃ f
Ġat vinn
Ġh ins
Ġann ars
ĠÃ¡kv eÃ°
ĠÃŀe ss
arf Ã©lag
Ġfl okk
ar Ã°
Ġfyr sta
Ġ1 3
ĠlÃŃ ka
Ġau Ã°
Ġm a
Ġ and
Ġhef Ã°i
d Ã³m
ĠmÃ¡ nu
Ġann aÃ°
j an
Ġ1 4
Ġg ang
b ygg
Ġsam kvÃ¦mt
Ã¾ rÃ³
ĠÃģ r
ĠJ Ã³
Ã¦ tl
yr Ã°i
t ÃŃm
g l
Ġf imm
ĠV est
ĠÃ¾ess i
e x
d eild
Ġfyr r
Ġv ef
ĠsÃ©r stak
sk yld
ĠsÃŃ Ã°u
Ġk on
kk ert
a x
Ġsl ÃŃk
ÃŃ Ã°ar
Ġd r
Ġsk emm
Ġd Ã¦m
Ġs et
k en
m en
Ġb Ã¦Ã°i
kk a
g erÃ°
Ġ _
Ġeig in
yr k
ĠaÃ° eins
Ġl it
ĠG r
Ġn r
Ġm Ã³
Ġsam Ã¾
Ġp rÃ³
Ã¶n num
ĠÃ¡ st
s af
k yn
Ġst und
Ġk rÃ³
Ġhald a
h ag
Ġb yr
Ġal la
Ġf Ã¦
ĠI n
ar l
ĠsÃŃ na
Ġm Ã¶r
Ġm aÃ°ur
ĠÃ¶ r
tt i
ja st
v ik
ind i
ĠE vrÃ³
e ss
m anna
la st
na st
00 0
h e
eg i
Ġbr ey
Ġs jÃºk
p t
sam t
Ġtek iÃ°
Ġg eng
Ġfar iÃ°
Ġsk Ã½r
Ãº m
Ġb e
Ġef ni
o g
Ġm Ã³t
Ġfr um
ĠH Ãºn
ĠÃ¾e kk
ĠupplÃ½s ingar
stÃ¶ Ã°u
Ãº t
brig Ã°i
Ġr Ã¦Ã°a
Ġend a
ĠÃŀ egar
ĠÃ¡ fram
Ġen g
s Ã¶g
Ġst Ã¦r
b Ã¦r
ar innar
r ÃŃk
jÃ¶r n
ĠE in
Ġmikil v
ĠÃŃ bÃº
Ġg agn
Ġh Ã³p
and ar
ag a
ur nar
ĠE r
a tt
Ã°i st
sk eiÃ°
Ġg Ã³Ã°
Ġe kkert
am enn
ĠÃ¡ samt
Ġf inna
Ġu tan
ĠaÃ° al
ĠÃ¡ g
Ġsk Ã³l
Ġsam ning
s et
Ã© l
Ġstarf sm
Ġum hver
f ur
Ġ |
Ã¡ n
Ġst jÃ³rnar
k un
mÃ¡ la
Ġl y
f ang
Ġv inna
Ġ2 1
ĠsÃŃÃ°u stu
Ġd Ã³m
Ġb Ã¶rn
Ġv ÃŃ
Ã¶ng u
Ġm is
Ġk epp
n efnd
Ġvinn u
ĠÃ¡ ri
Ġn efnd
Ġeinstak l
Ġsp ur
ĠÃ¡h er
f t
jÃ³ Ã°a
l af
Ġhen ni
end um
Ã¦ Ã°um
ĠA r
ĠviÃ° skip
d i
Ã¡ m
er s
Ġg am
aÃ° ir
Ġf Ã¶
Ġn Ã³
Ã¶n nun
v iÃ°
Ġann ar
Ġsk Ã³la
Ġsv ar
ĠA ll
b yr
v i
am Ã¡l
ĠhÃ¡ tt
ofn un
Ġlag a
ĠÃ ļ
ileg t
Ġm ÃŃn
f est
ĠB r
Ġh Ã¡l
Ġl andi
Ã¶f n
u p
o Ã°a
Ġv Ã¶r
l okk
g eng
ĠÃ¡h ug
Ġt rygg
Ġt Ã¶l
Ġm ig
d al
t ek
o st
f u
vÃŃ s
Ġs jÃ³
b b
Ġl es
Ġst ig
g um
ĠH el
ver Ã°
ĠH af
Ġhlu ta
u Ã°ur
Ġfyr st
k er
sl um
ĠÃ¡r um
sem i
h vaÃ°
ĠorÃ° iÃ°
Ġ unn
l ur
d a
li st
sk i
g er
Ġf lug
f rÃ¦Ã°i
al eg
Ġg erÃ°
Ã½ Ã°
Ġ &
Ġh ana
Ġm est
ĠGuÃ° m
ĠN Ãº
k um
Ġl i
f Ã¦r
Ġbar na
ind a
j Ã¶
m ark
Ġl Ã¦
ĠstÃ¶ Ã°u
ĠE inn
ĠsamÃ¾ ykk
Ġko st
l andi
ĠâĢ ¦
Ġg et
ĠH Ã©r
Ġl of
Ġ rit
Ġh er
Ġbar n
ĠF ram
sk rif
Ġsam starf
Ġverk efni
und i
ar nir
Ġra un
o ss
Ġall ir
Ġsam fÃ©lag
h Ã¦
Ġ c
Ġn Ã¦r
ti st
ĠsÃŃ Ã°ar
ta st
Ġf al
Ġst uÃ°
ĠH ver
Ġr af
sk ur
Ġleg gja
Ġn ota
s on
Ġsv iÃ°
v al
Ã© f
b o
a c
Ġeitt hvaÃ°
Ġko s
ĠÃ¾ jÃ³nustu
r Ã½
Ġsum ar
Ġk en
Ġheim il
Ġallt af
rÃ¡ tt
ĠÃ¾ rÃ³
Ġf jall
s st
Ġs mÃ¡
Ġv it
s g
Ġfl eiri
ĠA f
Ġ >
leg um
v ald
Ã³ ber
v it
Ãº l
Ġkv Ã¶ld
Ġsk oÃ°
Ġ ]
Ġh or
Ġheil brigÃ°i
ĠnÃ¡ tt
Ġof t
byr g
Ġl Ã©
ĠB jar
Ġm gr
ĠS p
r Ã©
leg u
v Ã¶r
o ll
Ġsk rÃ¡
Ġf inn
ĠÃĵ laf
nd ar
ir Ã°i
bl aÃ°
o p
ĠEvrÃ³ pu
Ġs end
Ãº st
Ġ3 0
Ġo kt
stjÃ³ ra
Ġl a
st ri
Ġs m
ĠÃ¦ tl
jÃ¶r g
ĠÃŀ or
ar Ã¡Ã°
Ġe y
Ġop in
Ã¾ jÃ³Ã°
Ġs itt
ar t
b und
Ġt rÃº
n aÃ°ar
Ġfor eld
Ġf el
ei dd
ĠÃŀ eir
v Ã¶ld
Ġum rÃ¦
lut ning
rÃ¦ n
Ġg ott
af Ã©lag
ĠÃ¾ Ã©r
j ur
Ġtek ur
Ġfyl g
Ġgr unn
3 0
v in
Ġb or
est ur
kom andi
v a
Ġnem a
Ãº ss
ĠÃįsl and
ĠReykjavÃŃk ur
Ġm eiri
Ġl ist
Ġfr ek
Ã¦tt u
ĠsÃŃ n
h lut
l Ã¡
nar i
Ġb ein
ĠE y
Ã¦ Ã°ur
ef num
f yl
Ġm erk
nn ur
Ġm Ã¶g
k i
Ã¶nd um
ni s
ĠmÃ¡l i
Ġb est
Ġer lend
eyr i
ĠM agn
ĠO g
ĠÃį saf
y ni
leg ar
b Ãºn
k r
ĠF or
Ġl ig
yrir tÃ¦k
ĠlÃ¶g reg
Ġv irk
Ġokt Ã³ber
Ġk af
u Ã°u
ĠÃ³ sk
au st
Ġv Ã¦
Ġ201 7
Ġm ÃŃ
Ġald rei
Ġeig i
Ġ <
Ġgeg num
u tt
Ġh and
Ã¶rÃ° un
Ġh Ã³
Ġfl est
h l
Ġ2 5
um Ã¡l
Ġb oÃ°
und ar
ĠEinn ig
ĠÃ½ ms
ĠÃ¾ riÃ°
Ġg jald
Ġnokk ur
Ġskemm t
Ã ŀ
Ġv ald
Ġhug mynd
Ġtil kyn
la us
j al
ss onar
un nu
Ġt ak
Ġst r
dÃ³tt ur
ĠsÃ©rstak lega
u k
Ġfr Ã©tt
ĠF Ã©lag
jar Ã°
ĠÃ¾ess ari
Ġk enn
ĠE kki
Ġat h
Ġst endur
Ã¦Ã° inu
Ġv eit
Ġm orgun
Ġhe ild
h Ã¡
r ir
ĠF l
Ã½ st
ĠJÃ³ h
v irk
Ġk aup
Ġhlu ti
ĠÃ¾ess ar
ĠÃ¶Ã° ru
Ġ Y
Ġm et
ver andi
ĠfjÃ¶l skyld
Ġsveit arfÃ©lag
Ġv in
Ġf jÃ³r
Ã¶ kk
Ã¶g um
ĠâĢ Ŀ
Ġvik u
ĠlÃ¶g um
Ġf e
ĠEf tir
Ġb ak
ĠmÃ³ ti
und a
Ġkr Ã¶f
Ġe inu
Ġsam rÃ¦
Ġk ann
ĠG unnar
Ġhald iÃ°
Ġm eg
g Ã¶ng
2 0
Ġma ÃŃ
as am
ra ut
ĠfÃ© kk
Ġal men
Ġge ti
v Ã¦
Ġau g
Ġf isk
Ġj an
Ġn auÃ°
ĠB andar
Ġm en
Ġ201 6
ÃŃ l
ning i
ĠsÃ¶g u
Ġ inni
Ã¶l l
Ġset ja
Ġs Ã¦ti
t ug
Ġau ka
l ÃŃk
e kk
lu kk
Ġg Ã¦
e ti
l ands
sm Ã¡l
Ġbyr j
Ġr Ãºm
ĠsÃŃ nu
ĠÃ¡ byrg
an ka
Ġer um
ver t
ĠlÃŃk am
g reiÃ°
Ġv atn
nd i
ef nu
ning a
ĠH r
Ġb etur
Ãºn ÃŃ
Ġst yrk
Ġfyr stu
Ġal veg
Ġdag a
l lu
e il
ĠtÃ¶l v
Ġhug s
ĠÃŃ Ã¾rÃ³
s yn
Ġv al
Ġe Ã°
Ġhver ju
Ġn et
ĠfÃ©lag sins
Ġmill jÃ³
m Ã¶r
st Ã¦Ã°i
Ã© lÃ¶g
Ġall s
sÃ³k n
Ġh Ã¦tti
Ġf ag
a kk
Ġa p
i c
ei tir
ĠL ands
Ġhaf t
Ġopin ber
ĠsÃŃ Ã°a
Ġs ann
Ãº ru
ĠAl Ã¾ing
ĠÃ¾eir ri
Ġd eild
Ġef na
Ġsvo na
Ġse pt
un in
Ġ2 2
Ġst anda
l ing
Ġf ast
Ġv eiÃ°
Ġb Ã¡
ĠNor Ã°ur
ĠljÃ³ s
ĠÃ¾ Ã³tt
sm enn
ĠÃ¡her slu
Ġj ÃºnÃŃ
Ġal menn
Ġn or
h lu
Ġst Ã¶rf
sk il
Ġjan Ãºar
fram t
e ta
ĠbÃ¦ jar
ning um
ĠÃįsl end
Ġv ill
rÃŃ l
f um
Ġvil ja
Ġl Ã¦k
li star
m un
ĠU pp
Ġv an
j i
a d
Ġk jÃ¶r
Ġf lu
Ġfeng iÃ°
f all
ĠBandar ÃŃk
Ġv and
Ġumhver fis
Ġhv aÃ°a
m ar
ĠhÃ¶f uÃ°
Ġl eit
Ġmikilv Ã¦g
eÃ° ur
am anna
Ġm ars
Ġat hug
ĠÃ¦ t
ta ka
ĠÃ¡r ang
Ġs Ã¦
2 00
j andi
Ġh la
b Ã³k
g Ã¡
Ġskip ulag
aÃ° s
u lega
fer Ã°ar
yn g
ofn unar
t il
t un
jÃ¡ n
ĠnÃ³ v
o ka
Ġgef a
ĠN Ã½
Ġk lukk
Ġupp haf
Ġgang a
n aÃ°i
t ÃŃÃ°ar
ĠÃ¾ur fa
Ã¦m i
Ġrey n
jÃ¶l d
ĠÃ¡kv Ã¶rÃ°un
und ir
ĠmeÃ° an
ĠnÃ¦ stu
ĠS uÃ°ur
st jÃ³rnar
ÃŃ Ã°u
ĠÃ¡hug a
Ġb Ã³
h or
r un
Ġr Ã¡
Ġ jÃ³
leg ur
Ãº lÃŃ
Ġsk or
ĠlÃ¡ ta
Ã¾ jÃ³nustu
ĠÃ¾ Ãºs
ĠF yrir
ĠnÃ¦ st
ĠÃ¾ jÃ³
ĠÃ¡tt i
Ã¶k um
Ġs Ã¶m
Ġ iÃ°
Ġd es
riÃ° i
y Ã°
ÃŃ sk
Ã¦tl un
Ġland sins
re k
r Ãºn
stof u
ĠÃŀess i
Ġsag t
sl ur
y k
l eika
ey m
Ġsku ld
Ġsept ember
k epp
ĠfÃ¶ stu
Ġ19 8
var t
ĠÃ¶ nnur
ĠS jÃ¡lf
Ġfram leiÃ°
y g
Ã½ ra
Ġ yrÃ°i
Ġ i
ey tt
na s
Ġnem endur
Ġh jÃ¡l
Ġf jar
Ġsam band
Ġb et
Ġsk yld
ĠnÃ¡m skeiÃ°
ning s
Ġap rÃŃl
rÃ¡Ã° herra
ĠnÃ½ tt
br Ãºar
Ġ jarÃ°
ĠP Ã¡l
Ġtil lÃ¶g
ĠsÃŃÃ°a sta
Ġ2 7
Ġunn iÃ°
Ġall ar
ĠnauÃ° syn
y t
Ġein f
Ġfyl gja
en s
tÃ¶k u
Ġr eik
ĠnÃ¦ sta
ĠJÃ³h ann
ĠHÃ¡ skÃ³la
Ġl ands
sv eit
n Ã¦Ã°i
ild i
ĠnÃ³v ember
af a
Ġg Ã¦ti
uÃ° um
Ġhl jÃ³
Ġm inni
âĢ ¦
Ġs Ã³l
ĠÃ¶ llu
Ġ201 5
e inn
al a
ey ti
Ġkom u
ĠÃįsl en
ĠÃº ti
sÃ³k nar
Ġfe brÃºar
Ã¶g n
o pp
ĠaÃ° ra
ĠÃ¡r inu
Ġ2 4
Ġjafn vel
ra un
n Ã½
ĠviÃ°skip ta
Ġb ank
b il
Ã¶ t
ĠÃ¡g Ãºst
e sta
ĠSam kvÃ¦mt
ĠL and
Ġgild i
al t
Ġly f
ĠkrÃ³ na
Ġger ir
kk ur
leg ri
Ġb orÃ°
ĠA n
Ġmark miÃ°
y ll
Ãº Ã°
ĠnÃ½ ju
s Ã¡
Ġn eÃ°
ĠM ynd
a v
Ã¶n n
ning ur
Ġgr und
Ġall ra
Ġmik lu
Ġlau gar
Ġv eitt
f or
vinn u
Ġfinn st
Ġstarf semi
ĠÃ¡r s
Ġk er
Ã¶k u
v eit
Ġbreyt ingar
ĠviÃ° komandi
irk ju
Ã¶ p
ĠS n
Ġein a
l an
Ġh vÃŃ
ĠA t
ĠviÃ° ur
d eg
br eyt
Ġtv eim
ei st
sk oÃ°
ĠnÃ½ ja
am m
Ġhl iÃ°
ĠA kur
Ã¦r u
Ġfor maÃ°ur
ĠhÃ¶f Ã°u
ĠnÃ½ r
Ġk Ã¶nnun
ĠmÃ¡nu Ã°i
ĠÃ¦ tt
sm iÃ°
Ã¡ la
la ug
Ġ2 3
vÃŃs ind
Ġv on
ir nar
el s
stÃ¶ Ã°um
ĠprÃ³ f
ĠM arg
Ġum s
Ġn afn
ust ur
re pp
Ġfull trÃº
is ins
Ġm anna
eg gja
Ġheim ild
l un
an lega
ĠB jÃ¶rn
Ġdes ember
p ar
b Ã³t
ĠBandarÃŃk j
Ġl Ã½s
Ġ w
ĠsÃ¶m u
ol t
ĠB org
ĠnÃ¡tt Ãºru
Ġ ur
ann s
Ġn Ã¡l
Ġver sl
Ġv ak
jÃ³ s
Ġsku lu
Ġr Ã¦
Ġh in
o na
ing in
ĠÃŀ ann
h r
ĠtÃ¦k if
Ġd Ã½r
Ġs Ã¦k
jar Ã°a
il la
Ġof an
ĠhÃ³ f
vel li
ĠÃŃslen sku
Ġkv ik
Ã³ st
Ġsk Ã³
Ġb o
sm ynd
Ã³ ta
l and
an efnd
Ġ200 8
ĠL au
Ġfr em
Ġmarg ir
Ã³l f
ĠÃ¾ ig
Ġmun u
ĠfÃ³lk s
Ġannar ra
f ingar
Ġe l
Ġfram hald
Ġsk v
Ġley ti
re ind
Ġlag t
ull trÃº
Ġ1 00
v o
Ġ201 3
ĠL es
Ġs ak
Ġ201 4
Ġs Ã¶lu
l is
ĠM ar
f r
ĠsÃ½ na
n in
Ġk ar
t rygg
ĠbÃŃ l
Ġtil f
ĠÃ¶ rygg
Ġhlut verk
Ġtveim ur
sf Ã³lk
br Ã©f
o d
b ank
Ġ *
st aÃ°a
ĠfÃ³lk i
Ġfrek ar
Ġ =
Ġs br
st aÃ°
fl okk
ĠÃ¾ Ã½
ul eik
Ġkv enna
Ġheim a
Ġv eita
Ġmann s
ĠÃ¡byrg Ã°
Ġein k
n es
Ġhver t
Ġsv Ã¦Ã°i
f lug
Ġs el
ĠKrist jÃ¡n
Ġlof t
ĠM ik
Ã ģ
Ġ5 0
Ġvir Ã°ist
1 0
ti on
st r
kv Ã¦Ã°i
ĠF yr
ÃŃ Ã°a
ĠD an
ĠO r
ĠfyrirtÃ¦k i
re ss
ĠM ark
la un
Ġnokk uÃ°
ĠframkvÃ¦md ast
far andi
Ġhe yr
Ġhver s
br eytt
v eld
Ġkon ur
Ġ jÃ¡
ber g
ĠGuÃ°m und
skÃ³l ans
ĠF jÃ¶l
nd ur
ĠstaÃ° ar
lag a
Ġv ax
h Ã¦Ã°
ĠÃ³ h
Ġl eita
ĠhÃ¶f um
Ġl eig
ĠL Ã¶g
Ġla un
ĠrÃ¡Ã° st
Ġtv Ã¶
all ar
ÃŃ a
ĠÃ¾Ãºs und
Ġmik la
aÃ°ur inn
Ġefna hag
Ġtel ur
tal i
ĠsamrÃ¦ mi
ĠlÃ¡ n
l ey
Ġsk oÃ°a
jÃ³ t
Ġv iss
Ġp r
enn an
ĠV al
Ġse x
ber gi
Ã¶r num
s ett
ĠB er
ĠH al
Ġfr Ã¦Ã°
ra u
st jÃ³r
Ġreg lug
Ġbir t
am Ã³t
ĠSt ef
ĠhÃ¦ kk
Ġ201 1
ĠÃ¾ jÃ¡lf
h Ã³p
Ã³t el
Ã¡ k
Ġp ers
sleg a
Ġst Ã¶Ã°
ĠH eim
Ġs jÃ³n
Ġteng d
ÃŃ na
au pa
Ġt Ã¶lu
Ã³ nu
ĠsÃŃ Ã°ast
ĠV er
eig in
jÃ³ ta
ĠmÃ¦ l
Ġk jar
st Ã¦Ã°
Ġhv or
Ġj ÃºlÃŃ
ĠÃŀ vÃŃ
ĠsjÃ¡ var
Ã¶ tu
Ġst utt
ĠÃ¦ tti
ĠmilljÃ³ nir
Ġs jÃ³Ã°
ĠgreiÃ° a
t or
sk Ã³
l y
ag nar
Ġh aust
Ġ201 2
ĠH ar
ing ast
o w
Ġst ra
Ġland inu
Ġtek in
af l
Ġer fiÃ°
ey p
Ġfyr ra
Ġjafn framt
ĠrannsÃ³k nar
en ju
f ell
Ġheim s
Ġkr af
e c
Ġ201 0
Ġger Ã°i
Ġeftir lit
h f
sf lokk
il ar
f inu
Ġfyr ri
Ġhr ey
Ġst of
as em
ĠbÃº iÃ°
ĠÃ¡kv Ã¦Ã°i
j af
ĠmÃ¡l iÃ°
Ġv et
ĠH v
ĠÃŃslen ska
Ġbr ot
kv Ã¦Ã°
ĠstaÃ° fest
Ġnot kun
ir nir
ĠlÃŃ tiÃ°
ĠM orgun
Ġ2 8
ĠLes a
Ġfer Ã°a
Ġstarf a
a ss
Ġsk ap
ĠB ar
ĠVest f
e sk
Ġal Ã¾jÃ³Ã°
ĠC h
ĠaÃ° ila
nar a
Ġ4 0
âĢ¦ ]
Ġsam gÃ¶ng
Ġ[ âĢ¦]
yg li
an t
Ġh inn
g rein
o kki
ÃŃm a
h n
l Ã¦g
ĠbÃº a
Ġall an
Ġb jÃ³Ã°a
aÃ° ila
Ã°ar innar
Ġsam t
Ġs Ã³tt
Ġmen ningar
ĠSjÃ¡lf stÃ¦Ã°i
nd a
ĠaÃ° ild
ĠG ÃŃ
nu Ã°
Ġsam skip
or n
ĠSv o
Ġmis mun
ĠÃ¡r sins
sv iÃ°
ĠÃ Ĩ
ĠSt jÃ³rn
Ġv ita
Ġkom ast
ef tir
eiÃ° i
fir Ã°i
efn iÃ°
m b
Ġtrygg ja
stÃ¶ Ã°ur
na tt
ĠtÃ¦kif Ã¦ri
Ġlang t
ĠRey k
p ur
Ġstarf i
Ġe hf
ĠÃ¾ Ã¶rf
ĠH vaÃ°
ĠÃ¾ ennan
ĠÃ¶ ld
Ã³ ra
al i
Ġs afn
j alla
s afn
eng i
ĠHal ld
ÃŃ r
Ġ200 7
Ġatvinn ul
Ġmynd ir
al ag
Ġ2 6
ĠB re
Ġmikilv Ã¦gt
ĠkrÃ³ n
ĠheilbrigÃ°i s
ĠtÃ³k u
Ġ19 7
Ġkvik mynd
Ġs inna
fi tt
Ġf ann
Ġbrey tt
Ġd reg
ĠD a
ĠL eik
m agn
vÃŃk ur
r o
Ġd e
ĠdÃ¦m is
ĠM iÃ°
ag na
ĠV erk
Ġv Ã¦ru
Ġo dd
bÃ¦ jar
Ġmynd i
ĠhÃ¡l f
ĠB ir
ĠbÃ¦ ta
ĠgÃ³ Ã°a
Ġtv eggja
ung is
f jÃ¶l
s b
ĠB l
Ġhef st
vit aÃ°
Ġlag i
Ġmeg in
eld i
Ġborg ar
Ġfund i
Ġ200 9
g jÃ¶r
ĠhÃºs nÃ¦Ã°i
Ġg est
Ã© tta
v ang
sl iÃ°
Ġt eg
ĠfjÃ¡r mÃ¡l
ĠlÃ¶g Ã°
Ġaf h
ning in
ei ti
ĠsviÃ° i
asem d
Ġkyn na
Ġt ÃŃÃ°
ĠÃ¦t la
ĠN Ã¡
ĠÃ¡kveÃ° iÃ°
Ġsk att
Ġhver su
ĠÃ¡ra tug
ĠE l
s dÃ³ttur
n aÃ°ur
ĠaÃ° rir
ĠF rÃ¡
Ġst yr
ĠÃŀ jÃ³Ã°
ĠfrÃ¡ bÃ¦r
ind um
ĠD ag
sl it
Ġsv ip
s um
Ġsam eigin
ĠmeÃ° ferÃ°
ĠÃ¾rÃ³ un
ÃŃ nu
Ġbl aÃ°
5 0
Ġhver jum
sk ar
ĠÃ¾ess ara
ei f
Ġhag sm
ĠMorgun blaÃ°
Ġnokk rum
ĠE ins
Ã¦ p
Ġber a
Ġhr ing
Ġko nar
un eyt
sl i
Ġgeng iÃ°
ĠrÃŃkis ins
Ã¦ l
Ġdr aga
vÃŃsind ast
Ġkann ski
ĠB en
Ġs enda
irk j
Ġn ey
ĠL i
ĠvarÃ° andi
ĠÃ¡ f
Ġkv eÃ°
Ġmik ill
Ġmark aÃ°
Ġath ygli
ĠmÃŃn Ãº
Ã¦Ã° iÃ°
Ġkenn slu
Ġdag s
ĠnÃº na
arg erÃ°
ĠV ar
ei star
ĠÃŀ au
Ġaug lÃ½s
fyl k
Ġundan far
Ġv ins
la ust
Ġk jÃ¶l
ĠfjÃ¶l miÃ°
Ġhel stu
Ġt r
ul eika
Ġfast eig
Ġflu tt
kepp ni
ĠÃºt gÃ¡
Ġer fitt
ĠsamÃ¾ykk t
Ġundir bÃº
ss yni
d ÃŃs
gj Ã¶f
ĠljÃ³ st
ĠA nd
o gg
ĠSt arf
ĠÃŀann ig
ĠS el
Ġ in
ĠlÃ¡ g
Ġfor m
sam band
Ġs jÃ¶
ars v
ĠstjÃ³rn mÃ¡l
h Ã¶f
ĠÃŃÃ¾rÃ³ tt
Ġtv Ã¦r
tÃŃm a
Ġleng i
Ġs y
ĠEin ar
c e
ĠÃ¾ iÃ°
un eyti
mÃ¦ li
Ġeng in
ĠF r
jÃ³Ã° s
ĠT he
Ġeld ri
jÃ³ ri
ĠAÃ° al
Ġfrem st
Ġhug a
Ġreg lu
Ġgef ur
Ġveg um
Ġ2 9
Ġg rÃ³
Ġbein t
af ar
ĠSjÃ¡lfstÃ¦Ã°i sflokk
Ġfyrr verandi
sÃ¶g n
a kka
ĠÃįsaf jarÃ°ar
vik u
Ġreyn slu
Ã¡l d
k jÃ¶r
ĠP Ã©
b ein
Ã Ĳ
Ã³ s
ĠÃŃslensk ra
ĠaÃ° gang
j un
ĠÃļ t
Ġfund ar
Ġs it
l inga
eftir lit
f ing
ĠdÃ¦m i
Ġkom in
Ã¦ ra
Ġp l
li ti
e w
Ġein ungis
Ġd rei
ĠaÃ° gerÃ°
af na
Ġh und
Ã¦ti s
end i
ĠnÃ¡ ms
j Ã¶f
ĠkjÃ¶l far
ĠHalld Ã³r
jÃ³nu st
a pp
ĠeÃ° l
Ġaf ar
f undi
st ig
Ġh Ã¦Ã°
ĠAkur eyri
Ġh jar
ĠN Ã¦
ĠÃ³ lÃŃk
br Ã¶g
m er
ĠMagn Ãºs
Ã³ pa
ĠV eg
Ġs unnu
Ġsn Ãº
k l
Ġk aupa
ĠÃ½ m
ug g
ĠfjÃ¶l da
hlu ta
Ġrey na
Ġst erk
Ġeftir farandi
ĠgreiÃ° slu
ÃŃÃ° an
ĠsÃ¦k ja
ĠaÃ° ferÃ°
Ġeng inn
ri k
Ġlig gur
Ġm ar
ĠHaf nar
u b
ĠE g
greiÃ° slu
ĠÃ¡ v
ĠmÃ¶r gum
Ã¡ s
aleg a
Ġy kkur
kom ulag
Ġmun i
Ġtal a
o b
as on
f ti
Ġeinf ald
Ġtil efni
ĠvÃ¦ nt
set ningu
ĠvÃŃ Ã°a
u pp
f lutning
Ġs Ã¶ng
Ġm inna
Ġstund um
Ġdag inn
Ġk ra
Ġstarf sfÃ³lk
Ġpers Ã³nu
Ġskil a
Ġtel ja
aÃ° ist
Ġfyl gi
bÃº Ã°
ĠA ustur
al iÃ°
Ġheimil t
Ġf ang
Ġfrum varp
Ġsku li
ĠÃ¾ ri
Ġst Ã³Ã°
ĠPÃ© tur
ĠsÃŃ ma
ĠÃ¾ or
skip ulag
ĠB Ã¦
Ã¶ x
S B
ung ar
ĠH Ãºs
ĠJÃ³n sson
ĠÃ¡rang ur
Ġp en
Ġh iÃ°
i a
ĠrÃ¡Ã° herra
Ġhel g
Ġklukk an
af lokk
ĠjÃ³ la
sm anna
Ã¶ld um
stÃ¶Ã° var
t Ã¶l
ĠsjÃºk ra
ĠG ar
ĠSigur Ã°ur
Ãº sson
ĠtÃ³n listar
Ġsk a
Ġh n
Ġhef Ã°u
d Ã¦mi
ĠÃ¡n Ã¦g
Ġ ri
kom u
gg ja
frÃ¦Ã° ingur
am aÃ°ur
p i
Ġfjall aÃ°
ĠneÃ° an
kk ar
ett vang
ĠÃŀ Ãº
ĠnÃ¡ Ã°
ĠIn gi
1 1
ĠfÃ©lag s
ĠR ÃŃk
ĠK r
Ġstarf s
Ġgef iÃ°
Ġbe kk
ĠN orÃ°
Ġbet ri
ĠaÃ°st Ã¦Ã°ur
ĠlÃŃ fi
Ġdag skrÃ¡
sp yr
n an
Ġtal iÃ°
deg is
s en
Ġhl jÃ³Ã°
ĠboÃ° iÃ°
Ġ6 0
u leg
Ġathug asemd
c el
am ann
ni st
Ġles a
Ġmismun andi
Ġfr ÃŃ
ĠÂ Ħ
arf Ã©lÃ¶g
Ġfimm tu
ĠR Ã¡Ã°
n Ã¡m
ing s
tal s
ĠmÃ¶r g
ĠStef Ã¡n
Ġk all
Ġh Ã¦g
ĠÃ¡ tta
ĠF jÃ¡r
ĠaÃ° rar
ĠM o
Ġv etur
ĠfÃ³r u
e p
ĠÃįsaf irÃ°i
au s
ĠhÃ¶fuÃ° borg
Ġ3 1
ĠH er
Ġl oka
sp ur
Ġl Ã½
ĠupplÃ½s ingum
il t
dd i
ar ar
sl an
Ġhl Ã½
Ġgam an
ĠÃ¾ rÃŃ
Ġalmenn t
Ġvar Ã°ar
rÃ³ f
Ġhef Ã°
b Ã½
ĠIn g
ĠkÃ¦r anda
Ġt he
ingar innar
jÃ¶r Ã°um
ĠsÃŃ Ã°
al eik
ĠSk ip
ĠleiÃ° ir
Ġt ung
ĠÃºr skur
Ġli sta
Ġupphaf i
ĠsjÃ³n varp
ĠI nn
Ġein um
Ġstarfsm enn
Ġv eik
rÃŃk is
Ġl if
ĠÃ¡ k
Ġal var
ĠmiÃ° aÃ°
ĠfjÃ¡r hag
Ġkom i
ĠlÃ¶greg lu
r eik
b andi
Ġbe sta
eÃ° la
sk er
Ġh am
v ak
ing i
ĠlÃŃf eyr
ĠL o
Ġ19 6
ĠsjÃºk dÃ³m
Ġtil tek
ĠA uk
Ġ x
ald ur
Ġs iÃ°
Ġr Ã¶k
sl ag
Ġ200 6
Ã¶m m
Ġstra x
n iÃ°
ĠfyrirtÃ¦k ja
Ġfram tÃŃÃ°
und um
Ġhald inn
f jÃ¡r
sk um
Ã°u st
Ã¡tt u
Ġsp il
ĠtÃŃma bil
Ġh inum
ar is
1 5
Ġr Ã¦k
ar d
ar inn
ĠviÃ°ur ken
sk Ã½r
ĠK aup
ĠstÃ¦r Ã°
ĠÃ¾ar na
ker fi
ĠFÃ©lag s
ĠsÃ© Ã°
ĠAlÃ¾ing i
Ġkos ningar
g Ã¦
Ġeinstakl inga
Ġupp bygg
st ein
ĠfjÃ¡r fest
Ġge kk
t in
Ġreglug erÃ°
jÃ³ st
Ġupp li
Ġb Ã½
n g
ĠV il
ĠnÃ¡l g
Ġsveit ar
ĠrannsÃ³k n
Ġm Ã¦tti
ĠsÃŃ nar
Ġkr ingum
Ġtv o
l aÃ°
Ġk arl
Ġreg lur
Ġb anka
ÃŃ ra
ĠÃ¾riÃ° ja
hÃºs inu
ra ust
b orÃ°
Ġheil su
y kki
Ġv est
Ġvet rar
Ġe mb
Ã¶g num
Ġlok iÃ°
Ġskemmt ileg
Ġskip ti
v ist
f ingu
Ġbygg ja
ĠH ug
Ġupp Ã¡
ĠtÃ³n list
Ġgagn rÃ½
Ġb jar
Ġ yng
ĠâĢ ¢
l eitt
ĠÃŀ ing
jÃ¶g ur
Ġh re
ĠsamgÃ¶ng umÃ¡l
Ġf Ã³t
Ġn Ã©
Ġt on
ĠumrÃ¦ Ã°u
ĠH Ã¦gt
Ġsvar enda
ĠÃ¾ rÃ¡tt
Ã©l t
ĠnÃ½ ta
Ġh Ã¦ttu
Ġfl yt
ĠfÃ¶stu daginn
Ġh Ã¶nd
Ġn efna
t ingu
Ġt ex
ska p
Ġs Ã¡l
Ġforeld ra
b raut
ĠauÃ° vitaÃ°
ĠGuÃ°m undur
ĠÃ¾Ã¡tt tak
st rar
ĠmÃ¦ ta
Ġl Ã¦g
Ġnem enda
sk Ã¶p
nd u
ĠaÃ°st oÃ°
Ġleng ur
p ÃŃ
ĠstaÃ° iÃ°
el si
ĠE SB
s Ã¦
k aup
ĠÃ¾riÃ° ju
k ar
Ġsk r
Ġstarfsm anna
ĠB jÃ¶rg
Ġsam h
Ġbrey ta
Ã³Ã° ir
Ġh jÃ³
Ã¦ s
r aÃ°
dag ur
Ġfr iÃ°
Ã¦ Ã°u
an leg
at riÃ°i
ag er
Ġv enju
1 2
Ġheim as
Ġbo Ã°i
ss am
.. ..
ĠVest ur
y s
Ã¦tt ir
Ġb il
Ġh f
k on
ĠÃ³ v
Ġsamstarf i
Ġk alla
f undur
b ÃŃ
ĠÃ¾ri ggja
Ġs al
v eiÃ°
gang ur
ĠÃ½ms um
ek t
br ot
ĠS um
eng d
Ġg Ã¶m
Ġhald in
ra um
arÃ¡Ã° herra
ska tt
h el
ĠSigur Ã°
dd ur
Ġn Ã³tt
Ġ3 3
Ġein kum
ĠMagn Ãºsson
g ef
Ġfram tÃŃÃ°ar
Ġh Ã©
ĠM enn
or k
Ġg rÃ¦n
Ã¾ jÃ¡lf
Ġgagn vart
vÃŃ Ã°
ac e
Ã ļ
Ġkar la
Ġl Ã½Ã°
hÃ¡ tÃŃÃ°
af ni
o Ã°ar
Ã¶g u
A R
c k
ĠÃŀ Ã³
ĠaÃ° geng
es i
ĠÃŃslensk um
rÃ¦ kt
Ġb iÃ°
ĠD r
Ġn Ã¦g
Ġf lutning
ĠÃ³ Ã¾
ĠsÃŃ Ã°ur
Ġst efnu
end ingar
ning unni
Ġbr Ã©f
Ġbl Ã³Ã°
lu Ã°
Ġbygg ingar
Ġtv eir
veg i
ĠsveitarfÃ©lag a
Ġh Ã©lt
Ġupp i
natt spyr
ol f
ĠÃ¾r emur
Ġfyrir l
Ġb Ãºn
Ã°ur inn
ĠAlÃ¾ing is
e ina
ĠÃ¡ Ã¦tl
Ġley fi
u f
Ġk m
ĠL Ã¡
Ġleg gur
Ã¾ Ã¡
Ġfr jÃ¡l
ĠB ol
ĠS Ãº
ĠM Ã¡l
Ġteng slum
Ġgre ina
Ġkyn n
ĠM Ã©r
i d
jÃ³nu sta
ĠH Ã¦
ĠF riÃ°
Ã¶k ul
Ġsig ur
Ġma ti
jÃ³ Ã°i
dag a
Ġ X
lÃ½s ingar
Ġh eiÃ°
ĠtÃ¦k ni
Ġnot aÃ°
ĠMark miÃ°
m at
Ġgeng ur
Ġald ur
ĠS jÃ¡
l Ã¦k
ĠÃĸ r
k ost
ĠhÃ¦ f
ĠS Ã³l
Ġur Ã°u
ĠH Ã³l
Ġ illa
if reiÃ°
Ġ jÃ³l
Ġann an
ĠviÃ° bÃ³t
g jald
end ir
ĠH l
u stu
brÃ¶g Ã°
ĠkrÃ³n ur
o ld
ĠJ afn
at ni
Ġko sti
l e
ĠV erÃ°
Ġkom inn
ĠsÃ½ nir
Ġskip ta
Ġfann st
ĠP ÃŃra
Ġb Ã¶rnum
Ġmarg t
t h
hÃºs iÃ°
verk efni
hÃºs i
Ġv eÃ°
kv Ã¶ld
Ġskil yrÃ°i
d Ã½r
Ġau gl
Ġt vÃŃ
ĠÂ Ĺ
Ġf jÃ¶gur
ĠrannsÃ³k nir
ag t
ef nt
ĠJ o
skrif t
Ġ, ,
ĠAll ir
Ã¶n nu
ĠskÃ³l ans
sm aÃ°ur
ĠmiÃ° viku
Ã¦k ur
d r
Ġv ann
Ġlig gja
Ġnor Ã°ur
sta ka
Ã°i s
ĠbÃº in
af rÃ¦Ã°i
ĠauÃ° veld
Ġum ferÃ°
bb am
Ġhv ar
Ġger Ã°ar
v Ã¶l
Ġheim ili
sv Ã¦Ã°i
t s
il s
Ġsp enn
ĠM at
t ing
ĠstjÃ³rn vÃ¶ld
mann s
Ġh eit
Ġn jÃ³ta
ĠÃ¾ur fi
ur Ã°
Ġor ku
en ni
rÃ¦ Ã°um
g ild
Ġ200 5
vald a
Ġflokk sins
ĠslÃŃk t
ĠlÃŃk lega
m ur
Ġatvinn u
sleg t
ĠR i
ĠskÃ½r slu
Ġsvo k
Ġg af
bo ok
v il
v estur
al li
Ã¡ Ã¦tlun
Ġlau s
ĠS vÃŃ
Ġum fjÃ¶l
ed ik
d egi
Ġsk rÃ¡Ã°
b anka
liÃ° a
Ġumhver fi
il egar
ĠfjÃ¶l breytt
m Ã¶nnum
lÃŃ f
t ra
b jÃ¶rg
S Ãį
gj andi
her bergi
Ġ200 3
Ġv eÃ°ur
ang aÃ°
ĠrÃŃkis stjÃ³rn
ĠljÃ³ si
nd ir
Ġst Ãºl
unar innar
v atn
Ġl Ã©tt
ĠÃĵlaf ur
ĠBorg ar
ĠvÃŃs ind
ĠÃ¡ l
en ti
af or
Ġh rein
ĠV ÃŃs
Ġh ita
ĠstuÃ° ning
Ġkr ef
i ti
ĠÃŃÃ¾rÃ³ tta
Ġb re
Ġmynd a
au g
Ġstofn un
Ġendur skoÃ°
b ar
Ġ7 0
af Ã³lk
ĠframkvÃ¦mdast jÃ³ri
ĠsÃŃÃ°ast liÃ°
Ġm egi
sn efnd
Ġv ettvang
Ġv Ã©l
Ġsam vinnu
Ġtilf inn
ĠÃģ riÃ°
st einn
ĠBandarÃŃkj unum
Ġf ari
f Ã¦ri
ĠhÃ¡ tÃŃÃ°
ĠnÃ¡ nar
ĠhÃ¦ tta
ĠEn g
Ġ '
ĠS Ã©r
Ġeig nar
ĠT rygg
Ã¾ Ã¡tt
Ġst y
ĠÃ¾ yr
Ġ200 4
ĠgÃ³ Ã°u
Ġsv Ã¦Ã°inu
lÃ¶g um
yrirtÃ¦k i
el li
Ġfeng u
Ġp Ã³
ace book
ĠviÃ° bur
ĠJ arÃ°
ĠBen edik
Ġm iss
Ã¾ eg
j aÃ°
Ġg Ã¶gn
ĠsÃ©r st
ĠDa vÃŃÃ°
ĠK jar
ĠR annsÃ³k
v egar
ĠÃ¾ ung
Ġbir tist
n inni
Ġsk amm
t er
a sta
Ġ201 8
ĠEy jÃ³l
f Ã¶r
Ġ19 4
Ġgrund velli
gang i
ĠÃŀ Ã¦r
Ġland iÃ°
ĠsÃ½ nt
sÃ½ slu
er a
ĠfrÃ¦Ã° slu
Ġget um
Ġv ek
m an
ĠAll t
ĠÃ¦tl aÃ°
Ġ200 0
ĠGuÃ°mund sson
ĠÃ¾r jÃº
Ġly k
Ġerlend is
Ġr eiÃ°
y fir
Ġal geng
ag erÃ°
ĠBjar na
k enn
Ġhla up
ĠsjÃ¡lf ur
Ġvins Ã¦
h v
Ġt o
Ġh Ã¦r
Ġfylg ir
ild ur
Ġf Ã¦Ã°
b jÃ¶rn
ĠAr nar
g t
ar lega
Ġl Ã¦r
ĠH all
ĠO p
Ġb aÃ°
la s
Ġhelg ina
ĠS Ã½
Ã¶ng um
mÃ¦ l
ĠsÃ¶g n
b ands
Ġvik ur
Ġ19 5
Ġsp yr
Ġt Ã¦p
ĠliÃ° iÃ°
ĠF inn
g reind
ĠN iÃ°ur
ĠhÃ¶fuÃ°borg arsv
ĠK on
ĠstÃ¶rf um
ĠH au
Ġef la
E S
Ġd Ã¶gum
Ġmarg ar
il um
m erk
ĠvÃ¶r u
v Ã©l
ĠÃ³ trÃº
Ġn orÃ°
ag Ã°
Ġsp r
Ġb Ã¦tt
am iÃ°
ĠkrÃ¶f ur
skÃ³l anum
ken ni
Ġh itt
ĠI cel
Ġh Ã³tel
m sveit
Ġf Ã¶r
ĠmÃ¦ li
Ġk irkj
kk un
Ġflyt ja
ĠrÃ¡ Ã°a
Ġlau k
ĠÃ¾ yk
Ġhel st
stof a
Ġof b
ĠsjÃ¡var Ãºt
ĠG l
ĠK Ã³pa
fylk ingarinnar
ĠLau gar
h repp
ĠnÃ¡ gr
p um
un na
g Ã¶ngu
h Ãºss
ĠÃ¶ flug
eÃ° ferÃ°
ĠÃ¾Ã¡tt tÃ¶ku
jÃ³ nar
Ġ200 2
Ġmest u
Ġh eld
Ġleik ur
Ġsk ot
el la
Ġf ell
ĠfÃ©lag iÃ°
ĠBenedik t
Ġk ort
bÃºn aÃ°ar
ĠÃ¾ angaÃ°
skrÃ¡ r
ĠsÃŃ st
Ġvand amÃ¡l
ĠÃįslend ingar
Ġg eym
Ã½ ri
Ġr Ã³
ĠH eil
e inu
or f
Ġsinn um
Ã©tt ar
bygg Ã°
Ġfors Ã¦tis
ver nd
Ġf all
Ġvar nar
Ã¶g g
Ġer t
h jÃ¡l
skip ti
ĠÃļ r
Ġs Ã³k
ĠniÃ°ur stÃ¶Ã°ur
Ġg Ã¡
Ġe ing
Ġv eitir
Ġs und
Ġg eÃ°
m enna
Ġh endi
Ġfrek ari
ĠmÃ¡ la
Ġein ka
Ġh Ã¦tt
ĠN em
Ġlag Ã°i
Ġk nattspyr
Ġmenn t
Ġh jÃºk
ĠmÃ¡l inu
Ġ ar
or ku
ĠK arl
Ġfr emur
Ġg at
h Ã¶fn
ĠbÃ½ Ã°ur
rÃ© tta
l unar
ĠÃºr slit
ĠÃįslend inga
Ġlaugar dag
Ġh endur
Ġbyrj un
ĠÃŃbÃº Ã°
Ġh eitir
ĠE ig
Ġbest u
Ġv ildi
ey fi
leg an
ĠÃ¶r ugg
Ġgr ÃŃÃ°ar
ang a
Ġr e
Ġsn jÃ³
Ġs yn
est i
Ġf alla
ag i
ĠSigur Ã°ar
ĠnÃ½ jum
ing aÃ°
leg ra
ĠR agnar
ĠÃ¶rygg is
1 7
ĠhefÃ° bund
ĠsjÃ³ nar
ag reiÃ°
ĠtÃ¶lv up
la t
g ir
Ġd ug
Ġt ÃŃ
ĠbÃ³ ka
Ġforeld rar
Ġfylgja st
Ġgl eÃ°
ĠgÃ³ Ã°um
d Ã¦m
a ta
jÃ³ ra
ĠMorgunblaÃ° iÃ°
Ġvinn ur
st und
Ġat riÃ°i
ĠÃ¡r in
ĠHÃ¡ skÃ³lans
ĠhÃ³f st
ĠnÃ¡lg ast
ĠÃ½ mi
t inn
rÃ¦ Ã°ur
Ġhel gi
Ġflest ir
ĠnÃ¡tt Ãºr
Ã¶nn unar
Ġvel ja
ĠbÃ¶rn in
Ġsv Ã¶r
Ġskip tir
I N
j ir
ĠSv ein
ĠR o
Ġum sÃ³kn
ĠÂ »
Ġrek strar
ĠHel ga
ĠMik il
Ġb ur
ĠframleiÃ° slu
ĠmÃ¡l sins
ĠleiÃ° a
m bl
Ġer indi
ĠlÃŃk t
ĠSt r
ĠÃ¾yk ir
v en
Ġst yÃ°
ĠPÃ¡l l
ĠEvrÃ³pu samband
ileg um
Ġsk yn
Ġnokk rar
Ġm itt
Ġt ÃŃu
ĠlÃŃ til
ld u
ĠH Ãį
ĠkrÃ¶f u
ĠfÃ¡ i
Ġv ÃŃÃ°
st ir
Ġrey ndar
ĠviÃ° hald
ĠrÃŃk i
Ġkon ung
st Ã³l
Ġs enn
Ã¾ Ã³r
vin t
Ġbyr ja
rÃ¦ na
h eyr
ĠÃģr na
Ġdag ana
deild ar
v allar
Ã¾ jÃ³Ã°a
Ġald ri
Ġr Ã½
ĠS eÃ°la
ger Ã°ar
ĠÃ¾ akk
er i
Ġkaf la
ÃŃ ska
ĠupplÃ½s inga
ĠÃ¾jÃ³ Ã°ar
eig andi
Ġsend i
vÃ¶r u
Ġleik skÃ³la
rÃ¡ s
ĠfjÃ¶lskyld u
borg ar
ĠnauÃ°syn legt
ĠrÃºm lega
vik um
sk or
Ġk anna
ĠH Ã¶f
rÃŃ Ã°ur
ĠhÃ¡ degis
hver fis
Ġm eta
lu gg
aÃ° an
ĠljÃ³ smynd
Ġ +
Ġjafn t
bÃ¦ tur
ĠlÃ¡ tiÃ°
Ġb Ãºs
jÃ¶r Ã°
Ġd egi
Ġfram an
ĠS ÃŃÃ°an
ĠmÃŃ num
ĠmÃ¶g uleika
m itt
ĠskoÃ° un
Ġl jÃº
ĠupplÃ½s ing
Ġhv et
ĠÃºt hlut
jÃº p
ĠfÃ¦ ra
Ġeinhver n
vÃŃsindast ofnun
Ġh Ã¶ndum
Ã³ ka
Ġf jalla
Ġstyr kja
Ġlok um
ĠK at
un efnd
am Ã¶nnum
Ġt ald
Ġheild ar
Ġs uÃ°ur
ĠT Ã³n
Ã¡m skeiÃ°
am Ã¡la
Ġeing Ã¶ngu
ÃŃ g
ĠaÃ°st oÃ°ar
ĠÃ¡kv ar
a y
am ma
ĠHver nig
ĠmÃŃnÃº tur
Ġmik lum
b Ã³l
Ġminn sta
Ġs etur
ka st
Ġgang i
Ġkaf fi
ĠK l
uneyt iÃ°
ĠBol ungar
ĠI I
af irÃ°i
ur um
Ġr Ã¦tt
Ġh ÃºÃ°
Ġr ef
ĠmÃ¡l um
d u
ĠÃ¡ fang
ĠhjÃ¡l p
Ġr anns
Ġaf la
ĠmÃ¡l efni
Ġrek stur
Ġtil boÃ°
Ġd Ã¡
am b
Ġaf leiÃ°
ĠÃ¾ekk ingu
ĠnÃ¡ nast
af rÃ¦Ã°
skip ta
Ã¡ ra
l ingar
ĠorÃ° in
v ara
v Ã©
Ġverk efna
Ġ3 6
c o
ef la
ĠV in
ĠnÃº verandi
ĠÃºt boÃ°
0 5
ĠnÃ¡ kvÃ¦m
ri p
v Ã¦g
Ġr Ã¶Ã°
ĠsjÃ¡lf s
Ġl os
Ġg arÃ°
ĠfjÃ¡r mÃ¡la
Ġfors eti
un k
n et
Ġm agn
fir Ã°
Ġ Z
h ol
Ġsk Ã¡ld
ĠVestf jarÃ°a
ĠÃ¡h ygg
Ġsel ja
Ġsp ila
Ġ3 5
Ġkepp ni
ĠÃŀ Ã½
j anna
n e
Ġraun ver
Ġvel kom
Ġt jÃ¡
Ġv ist
Ġhug sa
ĠtÃ³n leik
ĠS Ã¦
Ġfull orÃ°
ĠÃ¡her sla
of t
sl unni
Ġf ug
mÃ¶r k
Ġvinn um
Ġfjall ar
y f
ĠSt ein
Ġt ap
Ġver nd
ĠlÃŃ ta
v e
Ġg rÃ¡
Ġo lÃŃ
ĠÃ¡rang ri
au Ã°a
ver ndar
ĠF und
Ġgr eidd
ĠsÃ©r frÃ¦Ã°
r unar
Ġger ist
Ġs Ã¡tt
Ġ ak
ynd i
ĠJ es
ark aÃ°i
ra kk
Ġbreyt ingum
ol ta
Ġn ei
af Ã©
re stur
g re
Ġhugmynd ir
ĠB reiÃ°
ĠL it
4 0
Ġe g
Ġsk o
eist ara
menn t
ĠSjÃ¡lfstÃ¦Ã°isflokk sins
Ġsk Ã¡
ĠsÃ½ ningar
ĠMeÃ° al
Ġatvinnul ÃŃf
Ġsam ein
Ġd re
ĠH orn
nefnd ar
Ġken nara
Ġh ingaÃ°
rÃ¦ k
ĠpÃ³ lit
m et
mÃ¡l um
skÃ³l ann
r ÃŃm
Ġb andar
ĠSt e
ĠSigurÃ° sson
Ġ200 1
Ġgam la
Ġs ent
Ġg ist
ĠG unn
ĠN ew
ĠfyrirtÃ¦k isins
au t
Ãº d
sÃ½ n
sk al
ĠfjÃ¡r m
af i
kjÃ¶r dÃ¦mi
Ġrey nd
ĠâĢ Ķ
Ġyng ri
ĠFram sÃ³knar
Ġyfir leitt
ld a
ÃŃ ka
ĠEyjÃ³l fur
ra tt
Ġendur nÃ½
Ġvor um
Ġgild a
Ġ8 0
Ġupp f
Ġskrif a
ĠÃºtgÃ¡ fu
l ir
ĠlÃ¦ ra
Ġfl okki
ĠmÃ¡l s
ĠÃįslen sku
ars am
set ning
ĠÃ¦tt u
Ãº bb
ĠT h
ĠT v
Ġlag anna
Ġein mitt
au ka
Ġgrunn skÃ³la
ĠEn n
ĠleiÃ° bein
ĠgÃ³ Ã°ur
Ã ĵ
Ġfjar lÃ¦g
ĠÃŃ s
a h
Ġum boÃ°
jÃ³ Ã°ur
ĠÃ¾ Ã©tt
Ġsv efn
n Ã¡
Ġmann i
Ġgrein ar
lag i
Ġbygg Ã°
en Ã¦r
vinn slu
w w
Ġb enda
bo Ã°i
ra s
Ġr Ãº
in e
ĠÃ¡tt u
Ã³ Ã°ur
ĠE ld
ĠrÃŃk iss
ĠverÃ° laun
ĠBjar ni
n aÃ°a
Ġheim inum
ing una
Ġframhald s
Ġkyn nt
Ġg uÃ°
Ġl eika
Ġsam bandi
Ġs ek
Ġland sliÃ°
ĠSn Ã¦
Ġt eik
Ġmat ar
Ġt Ã³m
jar nan
Ġskr ef
Ġh est
Ġheil s
Ġen gu
Ġton n
ĠlÃŃfeyr iss
ĠtÃŃm i
and inn
jÃºk dÃ³m
Ġheimas ÃŃÃ°u
ĠK Ã¦r
ĠF acebook
Ġlaugar daginn
Ġfull kom
br Ã©
Ã³ ti
Ã¶ Ã°um
Ġb aka
Ġl Ã³Ã°
ĠÃ¾ Ã½Ã°
Ġd Ã³tt
ĠE ir
Ġsveit arfÃ©lÃ¶g
ĠÃįsland sm
m Ã³t
ĠnÃ½ jar
Ġska pa
Ġkost naÃ°
ĠH ins
ĠmÃ³ Ã°ur
dd u
Ġreg lum
Ġlit iÃ°
ĠnÃ¡ nari
Ġhlut fall
Ã¶l um
ĠmÃ¶r k
ĠÃ¾r jÃ¡
Ġf at
la up
Ġf Ã¦ri
vi ti
Ġp Ã³st
eig n
ri s
Ġb jÃ³
ĠsÃ³l ar
ĠJ Ã¡
Ġf ul
m l
ileg u
Ġj Ã¶rÃ°
skÃ³ li
ĠÃ¶rygg i
est ir
ĠKrist ÃŃn
mann i
Ġb eÃ°
Ġknattspyr nu
o la
Ġgild ir
ĠM Ã¡
Ġbr eg
Ġfors eta
ĠhÃ¡ skÃ³la
ĠÃģ g
ĠhÃ¡ r
Ã³ Ã°a
Ġvef s
ut e
Ġbr ott
ĠtillÃ¶g u
ĠÃĸ ll
sk onar
Ġhla ut
ĠG eir
Ġ9 0
ĠS mÃ¡
ĠnÃ³ g
Ġb eiÃ°
Ġtil bÃº
Ġb ifreiÃ°
d Ã¶gum
ĠNÃ¦ st
ĠGuÃ° jÃ³n
ĠÃ³ s
Ġrek stri
Ġums Ã¦k
Ġ4 5
b or
ĠUm hverfis
ĠH ef
ĠgÃ¦ tu
ĠÃ¡kv aÃ°
n ot
Ã¦ t
ey s
ĠÃ¡ b
ĠsÃŃÃ°ar i
1 6
ver sl
sk vÃ¶ld
Ġsp aris
v og
tÃ¶k um
Ġhor fa
ĠniÃ°ur stÃ¶Ã°u
ĠSv eit
ĠÃ³ g
em a
ann i
ĠmÃŃ nu
dd a
Ġhvor ki
ĠforsÃ¦tis rÃ¡Ã°herra
Ġgl Ã¦s
sh Ã³p
Ġb Ã½r
ĠÃ¾ur fti
h rif
s al
ey ma
Ġsam keppni
ĠReyk jan
ing urinn
Ġtak i
Ġal gjÃ¶r
Ġsv ara
Ġbet ra
ĠÃ¾r o
Ġg Ã¶ng
Ġd ans
h am
ĠnÃ¡ Ã°i
o u
t ill
gr ÃŃm
Ġk ol
ĠH Ã¶r
ĠlÃ© t
ĠS Ã¡
ĠGuÃ° rÃºn
Ġles endur
Ġl Ã½st
ĠY fir
Ã³ g
Ġb endir
ĠbÃº inn
Ġfl eira
f oss
Ġhver n
Ġen sku
ĠsÃ½ n
Ġundanfar in
ĠsjÃ¡lf sÃ¶g
yl t
Ġm jÃ³l
on t
lÃŃ tiÃ°
sl unnar
sp ek
m ik
Ġseg ist
mÃ¶r ku
ĠRÃŃk is
hÃ¦ f
ĠK efla
bygg Ã°ar
y st
Ġm Ã¶nnum
Ġv ex
ĠnÃ¡ mi
Ġteng jast
Ġnet fang
sk ir
ok tor
ing unni
rÃŃk i
ĠÃ¾ Ã¦tti
Ġstund a
Ġse inni
Ġnot uÃ°
s ent
er fi
ĠU ni
ĠJÃ³n sdÃ³ttir
el ti
jÃ³ tt
ĠfjÃ¶l g
of a
Ġmat vÃ¦
ĠtillÃ¶g ur
Ġflest um
ĠGr ÃŃm
jÃ³ sa
ĠÃ³ k
ung u
la una
Ġtil raun
d ar
Ġn eitt
Ġw ww
s aÃ°
ĠlÃ¡g mark
ey pt
Ġhv e
Ġken nar
Ġleig u
Ġver ulega
ĠÃ½ms u
Ġ anna
ĠJarÃ° vÃŃsindastofnun
ogg i
ĠF er
Ġh eg
Ã¾ jÃ³nust
Ġhjar ta
Ġtal s
Ġsett i
Ġg Ã¶gnum
h olt
ĠÃ¡st and
ger Ã°a
ĠR Ãº
ĠVestf jÃ¶rÃ°um
ĠS em
ey si
ĠstuÃ° la
Ġskip t
Ġat bur
eg in
ĠBÃ¦ jar
ĠfjÃ¶l di
ĠsÃŃ m
eld is
ĠBre tl
Ġk rist
q u
Ġvil jum
Ġnokk ra
ĠMarg rÃ©
ĠaÃ° ilar
ess or
Â °
Ġfl jÃ³t
h Ã³l
Ġb rÃ¡
Ġ rif
ĠK om
ĠÃ¦ vint
ĠL e
s var
Ġvef sins
Ġg Ã¶ngu
ĠstÃ¦r ri
hr ing
rÃ¡ Ã°i
ÃŃm i
ĠfjÃ³r um
ĠNorÃ° vestur
Ġalmen nings
ar it
ĠÃŃbÃº a
ey jum
ĠfÃ¦ dd
Ġn eyt
ĠH ag
Ġop na
Ġdr eng
ĠB ygg
ĠsjÃ¡lf st
ĠV inn
ir Ã°
ĠfyrirtÃ¦k iÃ°
Ġverk um
Ġkom ist
ĠhÃ¶fuÃ°borgarsv Ã¦Ã°inu
fis ins
Ġe inni
tÃ¦k i
ĠAr n
Ġeinhver ju
un i
Ġsit ja
ĠS Ã©
Ġskip a
end ingu
Ġuppli f
Ġg rÃ¦
re st
Ã¦k ni
arf rÃ¦Ã°
Ġspenn andi
ĠmÃ¡ naÃ°a
Ġlang ar
Ġsl Ã¡
Ġhaf iÃ°
st ofnun
ĠK v
ĠÃ¡ lit
ĠÃ¾ing maÃ°ur
ĠÃ¾ur r
ĠÃ¾essar ar
ĠÃ³sk aÃ°
uneyti sins
Ġko stur
Ġst el
ĠhÃ¡ mark
ĠPÃŃra tar
Ġskil ja
Ġh jÃ³l
Ġ \
t ri
Ġer f
ĠJ ens
ss a
ĠnÃ½r ri
2 5
for m
ÃŃk ur
Ġuppbygg ingu
Ġaf l
Ġra k
Ġtek ju
ra k
Ġsam komulag
ĠÃŀÃ½ skal
Ġst rÃ¡
pÃŃ tal
S A
ĠstaÃ° rey
ĠR Ãºss
Ġinni hald
Ġleng ri
ĠE itt
Ġb rÃ¡Ã°
Ġein st
ĠsjÃ¡lfsÃ¶g Ã°u
m arg
ĠÃģr vak
ĠÃºr val
Ġko na
f jarÃ°ar
l f
on s
Ġh ar
h ildur
Ġum sÃ³k
Ġhel m
Ġat kvÃ¦Ã°i
n ina
Ġfel st
Ġst efnum
r aÃ°i
ulltrÃº i
ileg ur
Ġbl Ã³m
Ġemb Ã¦tt
b ili
re tt
bÃºn aÃ°
v ita
5 00
Ġeinstakl ingar
ĠNorÃ°ur l
it y
ĠAn nar
ĠtÃ¦k i
Ġmill jarÃ°a
f Ã³lk
ĠsÃº pu
ĠÃ¾Ã½ Ã°ir
ĠstaÃ° num
vel t
l inum
ĠsjÃ¡varÃºt veg
ĠG er
Ġt rey
ĠprÃ³ sent
ey ja
j unum
Ġsam bÃ¦r
Ġbr Ã©
Ġbygg ir
Ġvil ji
ĠsjÃ³Ã° sins
ĠÃģrvak ur
ning una
Ġ â
ĠB Ãº
Ġtal in
Ġ0 8
1 9
Ġheim sÃ³kn
ĠD al
ĠlÃŃf iÃ°
ĠkÃ¦r andi
Ġauk i
efn inu
ĠN okk
Ġefni s
Ġm iÃ°ur
Ġvar a
ar iÃ°
1 8
ĠÃ¦tl ar
Ġof tast
Ġk unn
Ġstarf ar
ĠM en
ĠvÃŃs aÃ°
ĠÃģr ni
ĠstÃ¶ Ã°um
hver fi
ĠsÃ© st
j unni
Ġskyld i
ĠÃ½m is
is h
ĠsjÃ¡lf um
Ġh i
ĠGar Ã°a
Ġtengd ur
ÃŃ num
leg g
vo gi
ug t
ĠauÃ° l
n Ã¦g
ĠrÃ©tt indi
ĠL a
Ġeinfald lega
Ġkjar asam
ĠBr yn
leg ir
ĠP r
ĠBer g
Ġt Ã¶f
Ġnem endum
Ġst Ã¦
t o
ĠÃŀ rÃ¡tt
ac ute
b Ã¡
ĠgÃ¦r kvÃ¶ld
Ġbl s
ĠÃ¡kvar Ã°an
Ġvin stri
Ġkom st
Ġk irkju
Ġfr Ã©tta
ĠN Ã¡tt
ĠÃºt lend
ĠFjÃ¡r mÃ¡la
Ã¶ tt
Ġm oggi
Ġsp Ã¡
ĠnorÃ° an
Ġ $
ĠB Ã³k
ĠfÃ©lag a
Ġodd viti
an legt
ag ni
ĠtÃ¶lv u
Ġk jÃ¶
d rÃ¡tt
Ġn afni
ĠK ar
ab il
Ġham ing
Ġbreyt ingu
ĠÃ¾jÃ³ Ã°arinnar
Ġhv enÃ¦r
ĠfulltrÃº a
ĠrÃŃkis stjÃ³rnar
ĠG u
Ã¶mm u
Ġmenn tun
ĠÃį s
Ġrey nt
ĠVest manna
m m
f esta
ĠsamÃ¾ ykki
ĠmÃ¡ naÃ°ar
leiÃ° slu
ĠmÃ¶g u
U R
em ma
rÃ¡Ã° s
ĠhÃ³p i
gj afar
ĠhÃ¡l fu
T A
Ġdag sins
Ġskrif stofu
ĠgÃ³ Ã°ar
4 5
e a
Ġeinhver jum
i sku
ĠDan mÃ¶rku
Ġb Ã¦kur
ĠNorÃ°vestur kjÃ¶rdÃ¦mi
ĠS h
Ġsl Ã¦m
o ti
ĠgrÃ³ Ã°ur
ĠmÃ¦ last
Ġheyr a
Ġ5 00
Ġl Ã¶ndum
m in
Ġfell ur
Ġg lugg
skÃ³l um
aÃ°s dÃ³m
ĠvÃ¶r ur
Ġreglu lega
la k
Ġbor Ã°a
Ġh ol
tak anna
Ġeig um
jÃºk ra
ĠNor egi
b a
eyr ar
ĠumfjÃ¶l lun
ĠfjÃ¡r magn
Ġvetrar ins
Ġatvinn umÃ¡l
Ġsamskip ti
ĠskÃ³ g
ĠJafn framt
ĠÃĵlaf sson
Ġh Ã¶nnun
jar nar
kr an
Ã¾ing i
Ġb jÃ¶rg
f el
ss v
Ġutan rÃŃkis
ĠJ ak
nd um
Ġmet ra
Ġh ina
sku ld
Ġverk efnum
Ġgr un
Ġfram boÃ°
Ġ19 3
ĠaÃ°ild ar
all t
ĠAn na
ĠlÃ¦ kk
fer Ã°i
Ġhe pp
Ġk eyp
Ġsn er
Ġmik inn
Ġeig u
ĠrÃ©tt ar
Ġh inu
bbam ein
ĠH oll
ĠR e
ĠÃ¡ Ã¦tlun
Ġd eil
Ġtil heyr
ĠlÃ¶greg l
o ol
Ġg Ã³l
ĠheilbrigÃ°i smÃ¡l
j iÃ°
1 4
ĠstjÃ³rn valda
a um
ĠfÃ¶stu dag
Ġver u
Ġst af
ĠstyÃ° ja
b ind
ĠsÃŃn s
Ġ unnu
ĠV ig
Ġathugasemd ir
on e
Ġfor mi
ĠlÃŃf s
Ġversl un
tÃ¶k in
l Ã¦ti
l of
ĠfÃ©lag ar
1 3
ĠÃ¡st Ã¦Ã°a
Ġr ang
ĠviÃ° miÃ°
Ġtal aÃ°
Ġs on
reg lu
Ġt rÃºn
et u
ĠeÃ°l ilegt
ĠNÃ¡ nari
Ġkyn ningar
Ġb raut
o c
ra uÃ°
Ã³ Ã°um
ĠHel gi
Ġst efn
ĠMarg ir
ĠÃ¾eir rar
ĠSt Ã³r
ild u
ĠviÃ°bÃ³t ar
Ġundir rit
Ġaf stÃ¶Ã°u
ĠhÃºs iÃ°
fang s
Ġ jarÃ°ar
ĠstaÃ° sett
ĠM i
eiÃ° ar
ĠÃ¾r jÃ¡r
Ã¶ st
ĠstjÃ³rn sÃ½slu
ĠGunnar sson
ĠHr afn
ĠF lug
ĠR eg
aÃ° u
sk ra
Ġvinn ust
b ak
Ġt raust
ĠFriÃ° rik
r y
ĠlÃ½Ã° rÃ¦Ã°i
sm Ã¶nnum
Ġkon u
ĠÃ³ l
ĠsÃ³k nar
sÃ¶g u
ĠJ en
ĠviÃ°skipta vin
ĠstaÃ° inn
ĠstaÃ° a
Ġb b
ĠL ÃŃf
Ġv o
2 2
ang reind
Ġop iÃ°
p rÃ³f
ĠÃ¡r unum
Ġh ygg
Ġl eitt
Ġm ans
Ġtilkyn ningu
ĠnÃ½ jan
ĠS ch
Ġh anda
Ġflu tti
Ã¶ Ã°u
Ġst ein
ĠM an
ang ur
la ss
r af
ĠÃĸr n
Ġkosningar nar
ĠÃ¾ur fum
Ġk Ãº
Ġteng sl
g eir
Ġt Ã¡k
Ġbak i
A N
aÃ° ri
ĠviÃ° hor
Ġt Ãºl
sÃ½ ni
r inum
Ġd an
0 3
b rau
Ġhef ja
ĠferÃ°a Ã¾jÃ³nustu
Ġsak ar
p h
ĠA kran
Ġ yr
Ġmynd inni
ĠjÃ¡ kv
Ã³ Ã°u
Ġsam tali
ĠFramsÃ³knar flokk
f inn
Ġald ar
ĠtrÃº ar
Ġlyk il
Ġfull t
S t
Ġvir Ã°
eng is
Ġmynd um
Ġ0 9
Ġlit la
starf i
Ġli fa
ĠS ÃŃ
Ġau stur
ĠBolungar vÃŃk
ĠB o
tu st
Ã¶l lum
Ġhagsm una
Ġtilkyn nt
Ã© Ã°
ĠS m
Ġheimil is
Ġfund inum
Ġfel ur
Ġupp fyl
Ġv ind
t am
Ġs ein
Ġ3 7
Ġv Ã©
Ġofb eldi
Ġum fram
haf a
Ġst ÃŃ
Ġf jÃ¶r
bank ans
Ġh im
Ġsvok all
ĠL ÃŃk
ĠC afÃ©
ot n
ĠvÃ¶r um
Ġfyrir hug
ĠkjÃ¶lfar iÃ°
Ġvar Ã°a
Ġhug leik
st an
ĠJak ob
ĠH am
Ġvald iÃ°
vÃŃsindast ofnunar
ĠB ÃŃ
Ġst Ã³ra
Ġl est
f und
Ġfl ott
rÃ©tt i
ĠÃ¡ lag
anefnd ar
hlu ti
ĠÃģ s
Ġaf greiÃ°slu
Ġunn t
Ġfr Ã¦
ey jar
0 7
Ġb ent
Ġmann rÃ©tt
ĠB jÃ¶r
ul eiÃ°
Ġstr ÃŃÃ°
Ġn ein
ĠLands pÃŃtal
Ġbarn iÃ°
? ?
p l
Ġklukk ust
ĠA uÃ°
Ġb ann
Ġsend ir
in i
Ġmik lar
Ġg ei
0 9
Ġbar Ã¡ttu
r una
ĠÃ¡h Ã¦ttu
sl Ã¡tt
ĠSel foss
Ã° ung
Ġleik inn
Ġsunnu dag
Ġv ott
Ġodd vita
Ġger ast
f Ã©lÃ¶g
Ġminn st
ĠvÃ¦ ndi
Ġger i
p er
Ġr Ã¦Ã°
Ġor Ã°um
ĠNem endur
Ġgr eitt
ĠnÃ½ skÃ¶p
ĠliÃ° inni
ĠrannsÃ³k na
ld ar
Ġtil lit
ĠS l
vo tta
hlut verk
ĠmiÃ° a
gang s
Ġm eistar
ĠgÃ³Ã° an
Ġgrund vallar
b ir
ĠF erÃ°
0 6
ĠÃ¾ yng
ĠhÃºs inu
af jarÃ°ar
ĠR it
ĠS lÃŃk
ĠprÃ³f essor
ĠlÃ¦k ni
Ġskrif aÃ°
ĠV eÃ°ur
ĠlÃŃk ur
y ss
Ġ3 2
Ġgr ÃŃ
Ġsk jal
Ġs jald
Ġnefnd u
y gl
ĠÃ³ vart
Ġsaman bur
ĠM att
h eldur
ĠÃ¡kv Ã¦Ã°um
Ġvinn slu
or d
ĠmÃŃ na
Ġger Ã°u
Ġvit aÃ°
ĠÃĵ sk
v um
s ÃŃ
t on
Ġk g
ĠmÃ¶g uleik
Ġfl Ã³k
Ã¶ld u
Ãºm er
ĠFjÃ¡rmÃ¡la eftirlit
ĠF Ã³lk
Ġv estur
Ġfram l
v ef
j unar
skÃ³l inn
ĠauÃ° velt
Ġh agn
ĠAll ar
Ġfor n
Ġtak mark
Ġtil n
Ġv atni
Ġbygg t
fÃ¦r slu
ĠI nt
ĠGÃŃ sli
Ã¶g unum
Ġhlutverk i
af yrirtÃ¦k
ĠL jÃ³
ĠK en
Ġsam tals
hald s
Ġkos ning
ĠnÃ¦st komandi
sg eir
ĠbÃŃ Ã°a
Ġd Ã½
ĠÃ¡k Ã¦r
Ãŀ aÃ°
ĠÃ¡r lega
ĠÃģ kv
Ġmarg a
ĠskÃ³l anum
Ġfr Ã¦Ã°i
Ġb eitt
Ġleit aÃ°
Ġful lu
Ġr enn
Ġsl epp
Ġhre ins
Ġvir ka
ĠmÃ¡nu Ã°um
ĠÃ³ f
Ġf it
eyr is
ĠgÃ¦rkvÃ¶ld i
kvÃ¦Ã° agreiÃ°
g is
Ġhugleik in
ĠR Ã©tt
Ġanna st
Ġt opp
ĠG rein
Ġskrif aÃ°i
o o
ulltrÃº a
Ġbor iÃ°
Ġupp l
sk ot
ĠaÃ°gerÃ° ir
ĠslÃŃk um
ĠL eiÃ°
Ġk ÃŃl
b Ã³ta
ĠÃ½ms ar
ĠfÃ¡ tÃ¦k
ĠRi is
ĠU ms
o od
Ġung linga
ĠLi sta
0 4
Ġt it
Ġb und
sl una
Ã³ f
ĠleiÃ° in
ĠmikilvÃ¦g i
Ġhaming ju
ĠAll s
Ġs Ã¡r
Ġx ml
Ġl Ãº
Ġsamh engi
ĠJen sson
ĠO dd
ĠÃ¾rÃ³ unar
ĠhÃ¦r ri
m undur
Ġhef ir
Ġp Ã¡
ĠU ndir
Ġk enna
ĠÃ¾Ã³tt i
ĠvarÃ° v
Ġbyrj aÃ°i
ĠtÃŃm ann
Ġk eyr
ĠF rakk
Ġmerk i
0 2
Ġskrif ar
0 1
ĠFÃ©lags vÃŃsindastofnunar
Ġl eidd
ĠK ol
Ġv anda
ĠS A
f Ã¦ra
or e
Ġspur ning
ĠhljÃ³ msveit
Ġd val
Ãļ V
on g
ĠÃ¡v allt
Ġp ÃŃ
ĠÃ¾aÃ° an
Ġlau sn
Ġst jÃ³r
Ã¶l luÃ°
ĠF isk
Ġversl unar
o v
ĠM ann
ĠmaÃ°ur inn
Ġ199 8
jÃ¶r nu
ĠferÃ° amanna
ĠÃģ st
Ġfimmtu daginn
Ġbl and
ĠGunn laug
ĠSig rÃŃÃ°ur
epp ni
Ġstofn aÃ°
0 8
ag e
Ġb eita
Ġheim i
Ġflokk a
g jÃ¶ld
Ġl ax
Ġg jarnan
ars dÃ³ttir
bund iÃ°
ĠfyrirtÃ¦k jum
ĠveiÃ° i
ĠhÃ³p ur
heim ili
ĠE ES
skoÃ° un
ĠhÃ¡degis fundur
ĠÃ¶Ã° last
Ã¶kk um
ĠsnÃº a
Ġeinstakl ing
lÃ½s ingu
Ġst u
m Ã¦ti
ĠL ÃŃ
eist ari
ĠsÃºpu fundi
aÃ° st
Ġl Ã¶ngu
Ġvel ferÃ°ar
ĠÃ¾Ã¡tttak endur
Ġmans ali
Ġsam mÃ¡la
Ġsveitar stjÃ³rnar
ĠReykjan es
tta st
ĠSk rÃ¡
ĠÃ³trÃº lega
rÃ¦ Ã°a
ĠR ÃļV
ĠM a
Ġveit ingast
ĠtÃ¦p lega
Ġrek ja
Ġdreg iÃ°
ĠmÃ¦ ld
ĠVil hjÃ¡l
Ġg ull
Ġvek ja
ĠÃŃ t
ĠJÃ³ na
Ġm bl
Ġraf magn
Ġla una
Ġkost naÃ°ar
Ġt rÃ©
Ġteng ist
afÃ©lag s
ĠÃ¡herslu atriÃ°i
ĠnÃ½ lega
Ġverk efniÃ°
Ġf yll
Ġk em
ĠÃºt varp
ĠstÃ¦r sta
Ġuppf yll
s Ã¡r
ĠÃ¦ f
ĠfrÃ©tt ir
ĠtÃŃma bili
ileg ri
Ġerlend um
Ġg Ã¦Ã°a
ĠhjÃ¡l par
Ġsamning a
ĠMargrÃ© t
ĠL Ã¦k
Ġsumar iÃ°
Ġget iÃ°
hald i
h Ã¶nd
skyld u
ĠsjÃ³nvarp s
Ġmann esk
unn an
Ġhaf nar
Ġfyrir spur
lu Ã°u
ĠsamrÃ¦ m
Ġbl Ã¡
Ġsty tt
Ġfr est
.. .
st eins
ĠV atn
ĠmeÃ° ferÃ°ar
Ġskil grein
ĠsamfÃ©lag inu
ĠgÃ¦ ta
Ġmarg vÃŃ
Ġsk er
Ġmarg ra
ĠL ang
Ġf ÃŃk
Ġ3 00
ĠH Ã³tel
gar Ã°
Ġst Ã©tt
nes i
ĠhjÃ¡l pa
ĠN et
hol ti
Ġd raum
c a
ĠÃŀ org
d e
ĠÃ¾rÃŃ r
Ġtil vikum
ĠtÃ³k st
ĠÃ¡nÃ¦g ju
ĠfÃ©lag inu
m inn
sl eik
ĠSvÃŃ Ã¾jÃ³Ã°
au k
tur inn
Ġveg a
ĠÃ¾jÃ³Ã° fylkingarinnar
Ġsy kur
ĠÃį bÃºÃ°
ĠVin stri
Ġh arÃ°
ĠmÃ³t inu
Ġg jÃ¶r
ĠumsÃ¦k j
ĠÃ¾ jÃ³nust
Ġvir Ã°ast
fÃ©lag iÃ°
Ġtex ta
rÃº m
Ã° un
Ġeng an
f ast
ĠF Ã¦r
ĠG am
fell t
ĠH in
Ġundan f
ĠmiÃ°viku daginn
ĠSk Ãº
ĠstÃ³r um
Ã¾ Ã½
r an
Ġsl Ã¶kk
Ġspur ningar
t ed
Ġ am
Ġef n
fÃ©lag s
h rey
ĠSk ag
uneyt inu
ĠS e
ĠG rÃ¦n
Ġnefnd arinnar
ĠbÃ¦ num
t Ã¶lu
k unar
Ġk Ã³r
ĠÃ¡h orf
ett ur
Ġsamskip tum
einu Ã°u
of u
Ġe v
leik ar
Ġein kenni
veg a
Ġskemmt ilegt
Ã³ stur
Ġhv att
st efnu
ĠC o
Ġkom andi
Ġannar ri
Ġv Ã¶ldum
ot iÃ°
ĠE ndur
al aust
ĠnÃº tÃŃm
dd ir
heim ild
ĠÃ¾ess ir
r annsÃ³k
e tta
st ra
ber t
ik ar
lÃ½s ing
ĠÃŀ Ã¡tt
am ark
Ġfer Ã°ast
sf Ã©lag
Ã¡ ri
Ġk onum
ĠmÃ¡ tt
Ġ199 9
bÃº a
sam ning
Ã¾eg a
leik um
ĠÃģ sgeir
ĠÃ¾ Ã¦g
ĠrÃŃk iÃ°
ĠK yn
Ġs innar
Ġskuld a
ĠbrÃ© fi
ĠstÃ³r t
Ġse inna
t ein
ĠfulltrÃº ar
Ġker fi
Ġd Ã½ra
ĠÃ Ŀ
Ġsann arlega
ĠfjÃ¡r hÃ¦Ã°
Ġval iÃ°
ĠFram kvÃ¦md
ĠbjÃ¶rg unar
ĠÃ¡kvarÃ°an ir
Ġo k
ĠH lut
verÃ° laun
ĠU ng
ĠF yl
ĠÂ ĵ
ĠlÃŃ Ã°ur
er Ã°ar
ĠO f
ĠÃº tt
Ġfyr sti
t ingar
ĠlÃ½ kur
ĠF rÃ©tta
ly kt
er fiÃ°
nu Ã°u
afÃ©lag iÃ°
S T
ĠA ri
ĠviÃ° tal
Ġveg inn
Ã¡Ã° ir
ĠskoÃ° unar
ĠleiÃ° inni
mynd ir
Ġtaka st
E R
an ta
ĠEvrÃ³ p
ĠÃ¾ ol
rÃ¦ ti
af t
Ġkr oss
ver ka
Ġat kv
Ġh Ãºss
v ir
st ofn
n ess
Ġsk Ã¡k
Ġk li
Ã ĸ
ĠI S
at na
Ã¾rÃ³ un
Ġbor ist
p s
bÃ½ li
ei slu
Ġfr Ã¦g
m ir
c om
Ġum rÃ¦Ã°
Ġg agna
ĠV el
ĠhjÃºk run
yÃ° ju
Ġhen tar
Ġsum ir
Ġl jÃ³Ã°
Ġtung umÃ¡l
ĠsjÃ³nar miÃ°
n ni
ĠFor s
Ġbank ans
Ġunn in
r uÃ°
ĠHel g
Ġtek jur
Ġland bÃºnaÃ°ar
ĠdÃ³tt ur
Ã¶f nun
ĠSkip ulag
ĠS eg
Ġfl Ã³tt
ell s
Ġt oll
el lum
Ġor s
ĠA nn
Ã¾ jÃ³nusta
ĠV ÃŃk
ver Ã°u
Ġmill jÃ³n
ĠÃ¶ ku
Ġm ein
Ã¾rÃ³ tt
in sson
ĠAt hug
Ã¦r Ã°
sk Ã¡
k st
ĠMar ÃŃa
Ġk unna
Ġ5 5
ĠGÃŃ sla
ĠÃģg Ãºst
b jÃ³Ã°
Ġteg undir
sm Ã¡la
Ġf m
ĠÃ¡hrif um
gerÃ° ir
Ã¾rÃ³ tta
I I
Ġum ferÃ°ar
ĠbÃŃ la
Ġvald a
Ġpr ent
ĠH jÃ¡l
n esk
ĠÃ³ ska
Ġbygg Ã°a
Ġ3 8
Ġf ars
ĠrÃ¡Ã° gjÃ¶f
Ġopinber a
ĠsjÃ¡lf stÃ¦Ã°i
ĠhÃ¡ tÃŃÃ°ar
ygg ju
ĠÃ¾ekk ja
Ġtek ist
li k
ĠLÃ¶g reg
Ġbreyt ing
Ġs eld
Ġleik menn
Ġnet inu
s jÃ³n
gre ina
a ti
Ġgrein t
Ġfyrirl est
Ġst Ã½r
ĠfjÃ¶gur ra
Ġtald i
Ġskil aÃ°
Ġmik illi
ĠBjÃ¶rn sson
Ġe gg
eig u
ĠÃ¦ sk
Ġh Ãº
rÃ¦ nu
Ã¶k ur
ĠÃ¡kveÃ° in
est er
ĠBandarÃŃkj anna
Ġh Ã¶r
ĠtÃŃm um
Ġney slu
ĠkveÃ° iÃ°
ĠviÃ°skipta v
ĠljÃº ka
Ġstarf aÃ°
breyt ingar
kom a
ĠSam einuÃ°u
ĠhÃ¡lf leik
ĠSp Ã¡
Ã ¸
Ġtel st
mÃ¦ lis
ĠÃ¡hygg jur
Ġe th
ĠSk Ã³la
ĠbÃ¡ Ã°um
Ã¡ hrif
Ġ199 7
ĠÃ¾ ver
ĠT ek
ĠI nd
kk ul
Ġyr Ã°u
O R
ĠD Ã³m
ĠÃĸ nnur
Ġof n
Ġteg und
Ġk jÃ³sa
Ġp ott
ver Ã°i
Ã¶ tum
g an
ĠSt jÃ³rnar
Ġtel jast
amÃ¡l um
Ġstr and
Ġ7 5
ĠÃŀÃ³r ar
ĠMenn ta
ÃŃk ja
Ġr ei
ĠGr unn
Ġundanf Ã¶rnum
Ġlit lu
il inn
Ġmynd ast
Ġn ÃŃu
ĠaÃ°al lega
Ġheim spek
ĠSt aÃ°
ĠviÃ° brÃ¶gÃ°
ĠJÃ³hann es
Ġfull nÃ¦g
Ġley sa
ĠÃ¾ ÃŃn
Ġm unum
ug u
ĠT Ã³m
ĠÃŃ tar
ĠSte ing
ĠGr inda
t unar
Ġleg g
S k
d ur
i e
Ġl Ã¶nd
ĠlÃ¦ tur
Ġsl ys
Ġber i
ĠKristjÃ¡n sson
ĠÃ¾ing menn
ĠÃ¾ekk t
brÃ© fa
ĠL ok
ÃŃ Ã°i
ĠT hor
ĠrÃ¡Ã°st efn
ĠhÃ¦g ri
ker fiÃ°
ĠÃ¾yr fti
ĠÃŃbÃº Ã°ar
ĠhÃ¦kk un
Ġs afna
bÃº Ã°ir
Ġp ist
Ġd oktor
ĠviÃ° eigandi
sk r
ĠJ ÃºlÃŃ
Ã¶ tur
Ġvan tar
Ġver Ã°um
L A
ĠP ar
Ġau gum
Ġleik i
ĠÃ¾jÃ¡lf un
ĠjÃ¡ kvÃ¦Ã°
sk emm
ĠviÃ° fangs
ĠlÃ½s a
v ax
ĠfÃ¶ Ã°ur
Ġr u
Ġh rÃ¡
Ġgef in
Ġnafn iÃ°
rÃ¦Ã° slu
s jÃºkdÃ³m
ĠlÃ© k
Ġr Ã©tta
Ġend ilega
h Ã¡tt
Ġtil liti
ĠhÃ¶f Ã°
ing arf
ĠEn gl
ĠÃ¾ur ft
Ġ4 4
Ġber ast
Ġfull yr
lend is
ĠskrÃ¡ ningu
ĠV ald
ĠumrÃ¦ Ã°ur
ĠorÃ° inn
skipulag i
Ġfor stÃ¶Ã°um
ĠÃ¶ kum
b jar
ver u
Ġleik num
Ġsk Ã¶p
Ġkyn sl
al Ã¶g
ĠsveitarfÃ©lag sins
o sa
Ġmar kv
Ã¾ ykk
ur t
sk t
Ġ3 4
sh eim
Ã¾ r
Ġfram lag
Ġs il
Ġ ill
ĠSigur jÃ³n
Ġvik unni
ĠvÃŃ st
Ġfl jÃ³tt
Ġst Ãºd
he il
Ġenn Ã¾Ã¡
Ġst andi
ĠhÃ¡ skÃ³l
Ãº ni
Ġfl ÃŃs
Ġmeg a
vÃŃ si
Ġe k
ĠÃºt l
ĠInt er
Ġsamstarf s
ĠJo hn
Ã¾ jÃ³
Ġs lit
ĠauÃ°l ind
b Ã¶nd
h it
Ġv eldur
n unar
br agÃ°
ĠÃ¾ v
Ġfund iÃ°
ĠR a
Ġm Ã³tt
ĠÃ¦ fingar
Ġkom nir
ĠHÃ³l ma
h laup
Ġnokk ru
Ġef num
ĠmilljÃ³ num
stein sson
ĠaÃ° stÃ¶Ã°u
Ġs unnan
ĠhÃ©r na
Ġh inna
Ġvettvang i
li sta
Ġh ratt
hn eig
Ġfr Ã¦Ã°a
Ġhr aÃ°
Ġmynd u
Ġ15 0
Ġskil yr
ĠsÃ©r staka
9 9
Ġ4 3
al Ã¡
ung ur
Ġum fang
ei ft
Ġ ^
Ġveg g
e sson
ĠÃºrskur Ã°ar
ĠD V
ĠhliÃ° ar
ĠfjÃ¶lmiÃ° la
Ġjafn aÃ°i
ÃŃ sku
Ġfund ur
Ġsamning s
m und
Ġs at
ĠtrÃºn aÃ°ar
ĠeÃ° li
Ã¶ sk
Ġvald i
ĠsÃ½ k
ĠhÃ¦ kka
Ġm org
m eti
r ÃŃn
ĠbeiÃ° ni
Ġv Ã¦g
Ġkraf ist
vÃ¦ nt
Ġv i
ĠstjÃ³rnar skrÃ¡
Ġ4 8
ĠVeg na
ĠÃ¡r amÃ³t
aÃ° ili
kk u
Ã¶f num
Ġsl y
Ġbr Ã½
Ġg olf
Ġinn heim
Ġmenn ta
ĠJÃ³n s
Ã¾ing s
Ġ199 6
Ġspur Ã°i
Ġdreg ur
Ġst efnt
Ġemb Ã¦tti
Ġd Ã¶gunum
ĠgrÃŃÃ°ar lega
ĠframkvÃ¦md a
ald a
Ġsn emma
Ġbr jÃ³
fÃ©lag i
ĠnÃ³ gu
Ġbreg Ã°ast
Ġg jÃ¶f
Ġhr un
ĠE ur
am ynd
Ġleng ra
staÃ° an
Ġinni heldur
Ġstofn unarinnar
ĠÃŀÃ³r Ã°ar
Ġv op
ĠFor eld
il eik
Ġr iÃ°
Ġauk ist
N I
Ġmark aÃ°i
Ġauk iÃ°
en nu
p r
Ġhvet ja
ÃŃ t
ĠrannsÃ³k num
Ġsag a
ĠSteing rÃŃm
Ġung ling
Ġhver ja
Ġm an
ĠundirbÃº ning
ĠÃŃ mynd
Ġde ili
am ik
ĠEinar sson
al and
Ġbar st
nd on
ĠÃį R
Ġkepp endur
ĠgÃ³l fi
ĠÃģ Ã°ur
ef nir
ĠfÃ³lk iÃ°
ĠK R
rÃ¦ nt
at rygg
ĠÃ¾ jÃ³nusta
ĠfÃ³r um
ĠSk Ã½r
Ġfyrir vara
bÃºn aÃ°i
Ġleit ar
ferÃ° ir
ĠHall grÃŃm
ĠÃŀÃ½skal andi
Ġsl ÃŃka
ĠskÃ³l ann
ur s
k ona
riÃ° um
hÃºs um
Ġhef jast
Ġkall aÃ°
ĠmÃ¦ la
o ni
ĠnÃº mer
z t
ĠÃ¾jÃ³Ã° anna
Ġ4 6
ĠrÃ¡Ã° her
sg rein
ĠÃ¡f engis
Ġp ass
ĠÃĵ skar
em i
Ġm una
Ġvar la
Ġm ist
Ġnetfang iÃ°
Ġbr Ãº
vÃ¦g i
ĠÃŀor steinn
ĠF imm
Ġsn iÃ°
Ġak stur
ĠÃ¦ Ã°
Ġeig na
ĠF re
Ġranns ak
Ġal Ã¾jÃ³Ã°a
ĠLo ndon
ĠBar na
Ġbygg Ã°ar
Ġsv Ã¦Ã°iÃ°
Ġvik um
Ġtilf ellum
ĠstaÃ°rey nd
Ġfyrir komulag
ĠF rum
ĠbÃ³k menn
Ġkv enn
ĠN Ã¡mskeiÃ°
Ġskip uleg
s ar
Ġb reiÃ°
Ġvax andi
l in
ĠHafnar firÃ°i
ĠH vÃŃ
Ġen ga
ĠSigurÃ°ar dÃ³ttir
ĠB aldur
Ġeigin lega
Ġ #
Ġv ÃŃn
er ni
ĠSn or
Ġsunnu daginn
Ġreynd ist
Ġ5 6
v is
ĠfjÃ³r Ã°a
ĠFyr sta
Ġkl Ã¡r
jÃ³ si
st Ã¶rf
Ġn k
ĠstÃ¦r stu
ĠhÃ³ pa
ĠSuÃ°ur nes
ti c
Ġhaust iÃ°
ĠliÃ° i
ĠA d
Ġefnahag s
ĠsÃŃÃ°astliÃ° inn
Ġaf mÃ¦li
ĠliÃ° in
s dal
Ġtek nar
ĠG yl
ĠgÃ¶m lu
Ġska tta
Ġst efna
leik i
ĠNiÃ°ur stÃ¶Ã°ur
stÃ¶Ã° inni
Ã¶g ur
j una
Ġf ÃŃn
Ã¶r ygg
Ġen gar
Ġum sÃ³knar
Ġf la
ĠslÃŃk ar
ig gjandi
v Ã¶ll
ĠfÃ©lag smenn
Ġfr Ã³Ã°
und an
Ġs leg
I D
Ġtil gangi
h o
ĠKÃ¦r andi
Ã¦ Ã°ar
Ġger Ã°ist
Ã¦k ja
tak i
z z
ung a
Ġalmen num
last ofnun
Ġko star
ĠlÃ½s ir
Ġh it
ur ek
Ġv Ã¡
ĠS ÃŃm
Ġpen ing
is var
Ġher bergi
sk jal
Ã³ a
Ġdeild ar
ĠÂ «
ĠsÃ¦ n
ĠtÃ³n leika
k ort
Ġfyrir mynd
2 4
ĠÃŀess ar
Ã¶n sku
Ã¾Ã½ Ã°u
ĠÃ¾ akka
Ġath ygl
Ġm eng
Ġfer li
ĠSnÃ¦ fell
rÃ©tt is
ĠvÃŃs a
Ġ199 5
ĠD e
Ã°u Ã°
Ġe it
2 6
t aÃ°
Ġgrein argerÃ°
al ist
ĠfÃ¦Ã° ingar
ĠverÃ° bÃ³l
as viÃ°
af la
ĠÃ¾ inn
ver Ã°a
Ã¾ ekk
ĠÃºt skrif
n s
j unnar
ĠaÃ°st Ã¦Ã°um
maÃ°ur inn
ĠaÃ°geng i
heim il
Ġn efn
ĠhlÃ½ tur
ĠnÃ¡kvÃ¦m lega
Ġspyr ja
bl Ã¡
Ġk eypt
Ġsk Ã½
ĠmÃ¡nu Ã°
Ġvar afor
... ]
Ġ[ ...]
ĠB u
Ġal Ã¾ing
af erÃ°
lÃ¡ ss
Ġh oll
ĠH u
nd an
Ġk jÃ³s
ĠiÃ° naÃ°ar
Ġstofn anir
Ġhver ri
Ġsett ar
s etur
Ġst Ã³Ã°u
ĠtÃ¶lvup Ã³st
Ġgl er
Ġborg inni
ĠE gg
Ġmark aÃ°s
Ġfal lega
Ġvest an
ĠÃ³ breytt
Ġt jÃ³n
ĠÃŃt rek
Ġum sÃ¶gn
ĠatvinnulÃŃf sins
ĠÃ¦vint Ã½r
fÃ©lag sins
ĠN ei
Ġdrei f
g Ã¶tu
ingar nar
Ġupp hÃ¦Ã°
ĠS auÃ°
Ġmynd band
ĠframkvÃ¦md ir
ÃŃ tal
rÃ³ Ã°ur
ĠY ork
ĠA ug
l eif
ĠT ÃŃm
ĠN efnd
ĠÃ¾ itt
Ġnefnd ar
sk Ã¡ld
Ġfund inn
Ġ6 6
Ġsig raÃ°i
reg lur
ĠstÃ³r u
j afn
ĠviÃ° tali
sÃ¡ Ã¦tlun
mar ka
ĠÃ¡kveÃ° a
ĠhÃºss ins
Ġbr jÃ³st
Ġfal iÃ°
Ã©tt ur
Ġverk i
Ã¡ Ã¦tl
Ġf eg
ĠaÃ° ili
Ġdr ykk
Ġkv en
.... ....
ĠE yr
Ġt agi
ĠÂ ·
p ool
Ġd yr
ĠÃ³ lÃ¶g
ĠnÃ¦r ri
tak iÃ°
Ġm Ã¦tt
ĠfÃ¡ um
ĠMo sf
ĠÃ³sk ar
ĠUpp lÃ½singar
Ġfram fÃ¦ri
Ġg u
la unin
Ġrey k
ĠÃ¶rugg lega
Ġskipulag s
st Ã½r
hÃºss ins
Ġ anda
ĠsÃ©rst Ã¶k
Ġy kkar
Ã¦ slu
eiÃ° ur
o x
v Ã¦gt
Ġhl otiÃ°
ĠsÃŃÃ° unni
Ġde ila
ĠS al
Ġmar ka
ĠlÃ¡ t
Ġfimmtu dag
Ġhor f
ĠolÃŃ u
Ġgeng i
Ġtv Ã¶f
Ġ Q
sleg um
ĠS jÃ³
2 8
end ing
ĠfÃ© ll
Ġvatn s
ĠviÃ°hor f
Ġfasteig n
Ġlyf ja
ĠB Ã¶rn
Ġ ja
b Ã³ka
ĠstÃºl k
ar Ã¶Ã°
ĠsÃ½ ningu
Ġv Ã¶Ã°
ĠR agn
Ġsk aÃ°a
ĠmarkmiÃ° i
ĠvÃ¦ n
ĠhÃºs i
Ġ4 00
ĠferÃ° amenn
d ir
ĠHel stu
Ġgrein ir
Ġb Ã¡r
vrÃ³ p
l ÃŃn
Ã³ na
Ġd auÃ°
Ġeig iÃ°
ast i
var nar
ĠhÃ¶f undar
t r
Ġ is
ĠmÃ¡nu daginn
ĠÃ¡byrg Ã°ar
ĠaÃ° gerÃ°a
ĠKaup manna
Ġsk aÃ°
mÃ¦ lum
an legar
e ind
ĠS ver
h liÃ°a
bÃ½ lis
ĠS o
Ġuppfyl la
Ã³ Ã°ar
ning arf
Ġrit hÃ¶f
ĠmjÃ³l kur
Ġg os
2 1
ĠbrÃ¡ Ã°a
ĠE ll
ĠtÃŃmabil inu
Ġor Ã°a
il m
ĠKat rÃŃn
ĠKÃ³pa vogi
y stu
ĠgÃ¶m ul
Ġinn lend
eyp is
Ġk app
ĠBretl andi
al Ã¦k
Ġkvikmynd a
Ġh ind
ĠGuÃ° s
f ara
Ã³ sti
ĠS ag
ĠÃºt s
reiÃ° slu
v u
ĠMen ningar
ĠvÃ¦nt anlega
ĠÃ¡ lykt
tÃ¦k ni
Ġskemmt ilega
erk i
Ġviss ulega
Ġb ol
Ġnefn ilega
ÃŃ Ã°um
ĠÃ¡ra bil
ver pool
ĠM Ã¡r
Ġ6 5
Ġfel a
Ġt utt
h Ã¶ll
Ġsvo lÃŃtiÃ°
ĠmÃ¦l t
Ġupp fÃ¦r
ĠprÃ³ fa
ĠÃŀar na
f undar
stig i
Ġeig nast
ĠsamfÃ©lag i
ĠMynd in
Ġbir ta
set ningar
enn t
ĠB lÃ¡
mÃ¡l i
c i
Ġsum um
ĠfÃ¦r Ã°
Ġspur ningum
yrirtÃ¦k iÃ°
h i
ĠbÃ¡r ust
efni s
Ã¡ tta
Ġt ann
kr Ã³k
ĠSam fylk
b i
v et
Ġau stan
ĠF lat
Ġnot iÃ°
Ġh rÃ¦
ĠK ann
or s
ĠtÃ¶lu vert
un arf
Ġnokkur n
ĠbÃ³k inni
afl okki
hÃ¡ skÃ³la
ĠHeil brigÃ°i
ĠF Ã¡
Ġborg arinnar
Ġinn rÃ©tt
2 3
rÃ©tt ir
Ġskor aÃ°i
Ġform lega
n ey
Ġalmen ning
Ġbl ogg
ĠHÃ¦ star
Ã¦ n
Ġsp or
ĠsÃº kkul
Ġn am
ĠEg il
sl Ã¶g
ĠaÃ° ilum
ĠfÃ¦ st
Ġeig nir
Ġget aÃ°
Ġv Ã¶x
ĠÃ¡st Ã¦Ã°u
il eika
Ġg eim
stjÃ³r ar
Ġsn yr
ĠKÃ³pa vog
ĠsÃ½ ndi
jÃ³ na
Ġhr aÃ°a
ald ri
ĠLi verpool
men ni
ĠÃįslen ska
hÃºs nÃ¦Ã°i
r inu
Ġverk efninu
ĠÃŀ Ã³tt
Ġm unn
Ġand lit
Ġhugs anlega
ĠS jÃºkra
Ġskuld bind
ĠsamÃ¾ykk ir
ager Ã°ar
Ġley fa
ĠfjÃ¶l mÃ¶r
Ġt jald
Ġt h
h t
af ram
Ġsam rÃ¡Ã°i
ĠsÃ½ ni
Ġ3 9
Ġfram h
Ġlif andi
Ġeinstakl ingum
ĠÃŀ r
Ġnokk rir
ĠH jal
Ġforeld rum
Ġof tar
tan ir
Ġfang elsi
Ġfyr rum
Ġkl eift
Ãºt varp
ĠÃ¾Ã¶rf um
ĠG e
ĠÃŃslensk ri
b yl
yt j
Ġn emur
Ġfar in
Ġre ka
ĠniÃ°ur staÃ°a
Ġkra bbamein
ĠÃ¡r Ã¡s
Ġs auÃ°
ĠskÃ½r t
ĠÃįsafjarÃ°ar bÃ¦jar
tion al
far iÃ°
st ofnunar
ĠT F
st aÃ°ar
Ġf ur
Ġframhalds skÃ³la
ĠS et
Ġsk eiÃ°
ĠnÃ¡l Ã¦gt
Ġums jÃ³n
ley si
ĠÃį tal
Ġk Ã¶rf
Ġer l
ĠÃ³ m
um st
Ġsparis jÃ³Ã°
Ġkirkj unnar
lÃ¡ t
ĠÃ¾Ã¡ gu
Ã³ li
ĠEvrÃ³pusamband sins
ĠU n
Ġung a
Ġj afna
Ġp ar
Ġbr agÃ°
av e
ĠhvÃŃ t
eig nar
Ã¶ pp
ĠlÃ© st
Ġb auÃ°
ĠIn ga
ĠBjar t
ĠA ld
ark it
ĠsÃ©rstak t
ĠT r
ĠÃ½mi slegt
rÃ¦ num
Ġf agn
Ġborg a
ĠlÃ¦ kka
ĠÃĵlaf s
Ġe yr
p rÃ³
Ġs jÃ¡l
ss et
Ġeinhver s
st efn
ĠsÃ½ ndu
Ġm esta
Ġfl Ã½
Ġpl Ã¶n
Ġn efnt
ĠnÃ¦ tur
ĠIcel and
ĠfÃ¦ Ã°u
Ġ un
ĠHar Ã°ar
ileg an
N A
ĠEir ÃŃk
Ġsk ylt
Ġverkefni sins
b olta
saf ni
Ġfrum sÃ½
ĠAkur eyrar
Ġhlu sta
ver Ã°ur
Ġsamning i
ĠS and
ĠlÃŃkam s
ĠfljÃ³t lega
ĠFrÃ©tta blaÃ°
ag nir
Ġminn ka
Ġskyld u
ver Ã°um
aleg t
ĠEy jaf
g Ã¶t
Ġhins vegar
ĠRÃº nar
S S
ĠJÃ³ nas
Ġfor stjÃ³ri
ĠÃ¦tl aÃ°i
firÃ° inga
Ġeig n
Ġ0 7
Ġmat s
virk ni
ĠaÃ°al fundi
ĠÃŀor vald
ĠlÃŃf inu
Ġland a
Ġra uÃ°
fr emur
ĠfjÃ¡rfest ingar
Ġb otn
st and
ĠÃ¾riÃ°ju daginn
200 6
Ġskil ningi
il ja
ĠÃ¶ f
Ġsn Ã½st
ĠfjÃ¶lmiÃ° lum
ĠsagÃ°i st
V iÃ°
afÃ©lag sins
or p
or m
ĠMikil vÃ¦gt
ĠfÃŃk ni
ald ar
hl ÃŃÃ°
t Ã¡n
Ġtilkyn na
v inna
ag r
Ġger st
Ġs org
2 7
I R
ĠliÃ° sins
Ġt Ã¶kum
Ġum tals
ĠhjÃ³ na
ĠJes Ãº
ĠL agt
Ġvelkom nir
Ã¶ kv
Ġein elti
Ġt ug
Ġsk Ã½ra
ĠaÃ°ferÃ° ir
Ġtil nefnd
ĠKrist inn
rÃ¦k tar
Ġbil inu
ot kun
Ġstarfsm Ã¶nnum
Ġgam all
ĠVal ur
ĠembÃ¦tt is
t ÃŃu
ĠÃ¾ro ska
ĠG ott
ut ÃŃma
v eiÃ°i
ĠfÃ© lÃ¶g
Ġstig um
Ġatvinn urek
ĠsÃ½ slum
Ġjafn an
Ġs la
ĠR af
Ġhin ir
Ã¶r k
ĠBl Ã¶nd
o li
Ġ5 8
Ġfylg t
ĠHÃ³lma vÃŃk
ĠferÃ° inni
ag rein
ĠK F
Ġkalla st
Ġbar Ã¡tt
Ġaugl Ã½st
2 9
ulltrÃº ar
Ã¾jÃ¡lf un
as et
Ã³m et
Ġein staka
ĠleiÃ° andi
Ġver ja
ĠÃ¡ skor
Ġk vÃŃ
ĠsjÃ¡lf bÃ¦r
ĠsjÃ¡lf an
ĠAnnar s
Ġg Ã¦Ã°i
t Ã³n
st af
ĠUni ted
Ġb a
ill inn
ĠsviÃ° um
Ġviss i
ĠÃºt lit
ĠF jÃ³r
Ġstra um
ĠmÃ¡ tti
ĠstÃ¶Ã°u gt
u Ã°a
Ġef laust
Ġstarf sl
Ġney Ã°ar
gl eika
starf semi
Ġskil ning
Ġreg l
Ġop nar
Ġstarf andi
ĠfjÃ¶l marg
sh Ã¦
k aÃ°
g un
ĠÃŃslensk t
Ġstig a
eiÃ° a
g ri
smÃ¡l um
Ġd Ã¡l
ĠfÃ¦r t
ĠrÃ¦Ã° ir
ĠjÃ³l in
Ġinn kaup
ĠfjÃ¶l breyt
o ur
s jÃ¡
Ġlok s
Ġsam tÃŃm
er ÃŃ
ĠE x
Ġloft slag
j ist
ĠKjar tan
Ġal menna
Ġb oÃ°a
Ġheil brig
leg rar
b u
j am
ĠK ÃŃna
ĠÃ¾ ÃŃnum
hrepp s
st Ã¦Ã°u
ĠÃ¾Ã¡tt ur
ĠFund argerÃ°
jar na
Ġl ei
sp eg
Ġstutt u
ĠHef ur
skip t
tÃŃm i
Ġc m
vÃ¶r ur
Ġspr eng
Ġleng d
arÃ¡Ã° s
ĠmeÃ° hÃ¶nd
Ġm ak
Ġleik iÃ°
Ġr Ã¦Ã°ur
ĠH a
um iÃ°
Ġ4 7
ĠlÃŃ Ã°a
Ġreik ning
ĠtÃ¡k n
Ġey Ã°
ins dÃ³ttir
ĠpÃ³lit ÃŃsk
Ġkyn nast
ar Ã°i
Ġstofn ana
Ã° in
ĠgleÃ° i
Ġsit ur
al ÃŃf
ĠsÃŃ fellt
ĠmÃ¶gu legt
ĠnÃ½r ra
ug ga
Ġh innar
Ġ199 3
Ġe ll
ĠframtÃŃÃ° inni
Ġs Ã¶kum
ll inn
ĠsÃ½ ning
ĠeÃ° lis
Ġtals vert
ver s
ĠM aÃ°ur
vil iÃ°
Ġinn leiÃ°
c es
ĠÃ³h Ã¡Ã°
ag jald
ĠmeÃ°al tali
ĠumrÃ¦ Ã°um
b akka
Ġlok aÃ°
ĠN A
ĠbeÃ° iÃ°
Ġkem st
Ġrenn ur
Ġe vrÃ³p
ĠgÃ³Ã° ri
sm Ã³t
Ġsp ar
ĠÃ¡kveÃ° num
al s
Ġmen ningu
Ġ 00
Ġsein t
ÃŃk u
ĠBjÃ¶r k
d Ã¡
ĠmÃ¶g ulega
Ġger Ã°ur
Ġhund raÃ°
ĠlÃŃ n
Ġverk iÃ°
ĠvirÃ° ingu
ĠSv a
ĠNÃ½ ja
E F
3 5
Ġgr af
gj afa
ĠhÃ©r lendis
ileg ra
ans i
ĠM Ã³t
Ġm in
ĠaÃ°st and
ĠendurskoÃ° un
Ãºt gÃ¡
Ġst Ã½ri
ĠA ir
Ġath Ã¶fn
Ġley f
Ġp last
Ġvak iÃ°
Ġvir Ã°i
lag t
Ġ199 4
br Ãºn
ĠlÃ¶greg lum
Ġstof u
Ġg eyma
ĠBr eyt
anda ir
ÃŃm u
Ġ8 9
bÃºn aÃ°ur
l ingum
ĠIng Ã³lf
Ġfor ystu
Ġb and
Ġstefnum Ã³t
tt u
ĠÃ¾ votta
ker finu
kon u
ĠDag skrÃ¡
ĠgreiÃ° slur
Ġf Ã³l
sl eiÃ°
Ġbygg ingu
Ġlag iÃ°
ĠÃ¡ s
Ġsk Ã¡l
ĠD Ã½r
ĠSveit ar
Ġd rÃ³
Ġ rig
f lu
Ġskil iÃ°
sp il
Ã¦r um
v Ã¦Ã°
stjÃ³r inn
sk jÃ¡lf
Ġtv isvar
bÃ¦ ra
Ġref s
ĠOr ku
kvÃ¦m a
u pa
Ġerlend ra
al Ã½Ã°
ĠhÃ¦ fi
v Ã¶x
ĠHÃºs a
Ġskrif stof
ĠM un
Ġâ Ĩ
ĠGuÃ°mund sdÃ³ttir
Ġall ri
ĠA m
hl jÃ³Ã°
Ġheg Ã°un
j er
fÃ©lag a
R A
ĠP at
ĠmÃ¡nu dag
ĠsÃ³lar hring
Ã¡ mi
Ġm Ã¦ttu
Ġsk jÃ¡lf
ĠsÃ¶g ur
Ġt Ã³lf
Ġupp runa
ĠPÃ©tur sson
ĠskoÃ° anir
it h
ber andi
ld i
Ġmynd in
aÃ° ilar
Ġaf mÃ¦lis
ĠhjÃºkrun arfrÃ¦Ã°
Ġhald i
Ġhor ft
ĠâĨ Ĵ
Ġsam takanna
ĠalÃ¾jÃ³Ã° lega
ĠSk il
am a
Ġbank anna
am lega
Ġsem ja
ru fl
ĠLaugar dal
ĠhÃ¦f ni
b re
ĠÃ¡kv Ã¶rÃ°
l inu
Ġhr yÃ°ju
ĠnÃ½ tingu
af fi
Ġvel ta
Ġsam rÃ¡Ã°
Ġal vÃ¶ru
ĠalgjÃ¶r lega
ĠveiÃ° a
bank inn
Ġstarfsm aÃ°ur
Ġs uÃ°
ing ja
Ġsvar aÃ°i
Ġseg i
Ġ199 0
ken nara
ĠA g
ĠÃ³v iss
ĠstuÃ° nings
aÃ° ra
Ġh Ã¡Ã°
Ã¦ tur
ss Ã½
Ġinn ri
ĠgrÃ¦n meti
ĠlÃ¡ na
Ġfasteig na
en ta
ĠGÃŃ sl
Ġm er
ĠE kkert
ost naÃ°ur
lu Ã°um
Ġst ill
Ġgest ir
ĠframkvÃ¦mdast jÃ³ra
E N
Ġh jÃ³n
Ġgre ind
Ġupp setningu
sleg u
j Ã¶k
ĠÃ¾jÃ³Ã° in
Ġsett ur
n Ãº
I ÃĲ
var nir
ĠEgg ert
ĠsjÃ¡l fir
Ġm m
Ġh inni
Ġeink enn
Ġeinhver ja
Ġhagsm un
ĠhÃ¦r ra
Ġ5 7
ĠÃ¡st Ã¦Ã°ur
l ingur
al aus
Ġ199 1
Ġg if
Ġk yr
Ġver ka
Ġfer m
Ġkar lar
j Ã¶kul
Ġendur sk
ĠsvÃ¦Ã°i s
ĠEng inn
bl Ã¶Ã°
Ġald rinum
j arf
ĠL ist
Ġsam iÃ°
ĠHr ing
Ġkost naÃ°i
Ġt ey
Ġgild andi
Ġlang an
isku p
Ġm undi
sl ug
ĠÃ³k eypis
Ġyfir borÃ°
ĠSam a
ĠbÃº ast
Ġp re
Ġof ur
Ġvinnum arkaÃ°i
Ġgl eym
ĠbÃ¦jar ins
ĠlÃ¦g ri
Ġm Ã³Ã°ir
ĠÃ³ n
ĠReykjavÃŃkur borgar
Ġal mann
ĠferÃ° ir
Ġbyr jar
ĠÃ¾ Ã¦ttir
Ġheimild ir
Ġsk Ã¶mmu
Ġdag ur
Ġk allar
leik ur
ĠFjÃ¶l di
Ġb rauÃ°
Ã¶fn unar
afn iÃ°
k all
Ġk irk
ĠBjarna son
gj af
ĠmÃ¶r kum
ĠhjÃºk runar
Ġb Ã¡Ã°ir
ĠV ÃŃ
ĠMat vÃ¦
ĠviÃ°skip ti
d rÃ¦
Ġsv Ã¦Ã°um
i i
dd um
ĠÃ¾ ak
ĠIcel andair
al aga
ĠÃ¦tl um
Ġfal li
ĠT rum
Ġheil a
l t
sst ofnun
Ġfisk veiÃ°
ĠFor maÃ°ur
ĠgagnrÃ½ ni
k ra
Ġer ind
ĠP ress
Ġs Ãºr
ĠSum ir
Ġbr ug
Ġhugs un
ĠE m
ĠRÃ¡Ã° herra
Ġef stu
Ġd auÃ°a
ĠH val
ĠSam fylkingarinnar
ĠsÃ¶g Ã°u
Ġgrein ilega
Ġef ri
Ġvil t
Ġp la
ĠtÃŃm anum
200 3
Ġg Ã³lf
Ġr enna
Ġv ildu
fer Ã°is
ĠbÃ¦ tir
Ġsvar aÃ°
virk jun
Ġleita st
ĠKefla vÃŃkur
ĠAnn aÃ°
frÃ¦Ã° ingar
Ġm i
Ġvon andi
versl un
skip tum
s inn
Ġh rÃ³
Ġein ken
m um
ĠH jÃ¶r
Ã Ĩ
t eg
hug s
Ġhald nir
Ġstarf aÃ°i
sk irkju
ĠH jÃ¡
Ġfall iÃ°
Ġeld hÃºs
aleg u
ĠfulltrÃº i
af jÃ¶l
ĠSk rif
ĠÃŀ riÃ°
ĠvÃŃs ar
k o
Ġathygl is
ĠJÃ³hann esson
Ġ8 5
ĠAt h
Ġheim sm
smiÃ° ju
n anna
Ġupplif un
h eiÃ°ur
r Ã¶Ã°
Ġvex ti
ĠF ariÃ°
els is
ĠÃ¡h Ã¦tt
Ġvef num
ĠÃ¦ fing
efn in
S K
jÃ³ msveit
Ġal manna
Ġh eita
Ã¶f nu
b ol
h ita
v ott
ĠE d
Ġdag lega
Ġmynd ina
Ġk Ã¦mi
ĠfÃ¦r ri
Ġkynn ti
v eig
ĠHar ald
Ġsamh liÃ°a
ÃŃ tiÃ°
ĠtÃ¶lu l
Ġs af
Ġsund laug
l Ã¦
ĠÃ¡fram hald
Ġlof ti
ĠhÃ© ldu
Ġkyn ferÃ°i
ĠSuÃ°ur lands
ĠlÃ¶gregl unnar
ĠSig rÃºn
Ġhver jir
Ġskila boÃ°
Ġhr oss
Ġber jast
Ġein ang
leg s
Ã³l fur
Ġf Ã³stur
Ġb olt
alÃ¡ nas
ĠrÃ¡Ã°st af
ĠlÃŃ nu
ĠH Ã³p
Ġfors et
Ġhand tek
ĠM art
nÃ¡ mi
f Ã©
Ġvirk ilega
al eiÃ°
ĠIngi bjÃ¶rg
Ġathugasemd um
Ġ an
Ġbrey st
ĠÃ³v enju
kk aÃ°
ĠrÃ¡Ã° iÃ°
as Ã½
hel gis
Ġfeng um
Ġkl st
ĠS var
Ġteng ja
Ġvirk ni
Ġj Ã¶kul
Ġ6 7
v Ã¦Ã°i
ĠT el
Ġall ur
ĠtÃŃm arit
ĠM jÃ¶g
ast arf
ĠH o
jÃ¡r n
ĠB i
gr eidd
200 5
ac k
tÃ¶k ur
lag s
Ġframh jÃ¡
Ġstof na
ĠsjÃ¡lf t
fÃ©lag inu
Ġhe ill
ĠlÃŃ till
ĠkrÃ¶f um
bbam eins
haf i
Ġsvar ar
Ġvefs ÃŃÃ°u
sÃ³k nir
Ġst efnd
ĠFl jÃ³t
ĠsjÃºk linga
ĠÃ¾ ykk
ĠgerÃ° ir
g ildi
Ġm yn
f an
ĠGuÃ° laug
Ġst jÃ¶rnu
ĠI Ã°
ĠPÃ¡l sson
ver iÃ°
ĠÃ¶ nd
Ã¡Ã° s
Ġef niÃ°
rÃŃk u
ĠskoÃ° aÃ°
Ġ8 4
ĠafleiÃ° ingar
ly m
st um
Ã¶n nuÃ°
b ÃŃl
ĠSk Ã³g
ĠÃ¡ berandi
ĠE B
Ġvak ti
ĠPar ÃŃs
ĠNor eg
Ġhor n
ĠmÃŃnÃº tu
Ġkennar ar
Ġvor iÃ°
Ġnot ar
s Ã¶lu
Ġmann virk
ĠÃ¾Ã¡tt um
Ġb jÃ³r
ĠmeÃ° li
Ġkost naÃ°ur
Ġp app
an i
st Ã¦Ã°ur
ild ar
ĠsÃ½ nd
Ã īg
sh af
ĠlÃŃfeyriss jÃ³Ã°
vÃ¦ n
am at
Ã¶f ur
Ġfors endum
Ġfrum kvÃ¦Ã°i
v atni
ĠtÃ¶lvup Ã³sti
sÃ¶g um
ĠvÃ¡ trygg
Ġkepp a
ĠtÃ¶l ur
ĠSam tÃ¶k
ĠhljÃ³ m
ĠNÃ¡ nar
ĠHann es
ĠfjÃ³r ir
en a
ĠB ri
ĠÃįbÃºÃ° alÃ¡nas
Ġ arkit
ĠL u
Ġ8 6
i on
ĠKefla vÃŃk
Ġinn flutning
stÃ¶Ã° vum
Ġmill jarÃ°ar
os ningar
k unn
m ist
ĠsÃ½ ningunni
Ġn iÃ°
fl ytj
3 6
ĠvÃŃ g
f alli
ĠÃ³ dÃ½r
Ġeinstak lega
Ġsk jÃ³l
Ġf aÃ°ir
Ġskemm ti
Ġeinstak ra
Ġfasteig nas
ta s
ley s
ver ja
Ġsp jall
ĠÃ¡g rein
Ġlok nu
ĠfÃ¦r ni
Ġv ona
ĠbÃºn ir
ĠumrÃ¦ Ã°a
p unk
sam lega
Ġpen inga
Ġbarn s
Ġmiss a
Ġ arÃ°
Ġg Ã¦tt
ĠdÃ³m i
ÃŃÃ° unni
Ġsam tÃ¶k
f rum
oÃ° iÃ°
Ġgre inum
O N
Ġgest um
Ġg rip
Ġkv eik
fer Ã°a
sviÃ° s
Ġkeyp ti
Ġst ÃŃl
ĠHÃ¶r pu
ĠStefÃ¡n sson
bir g
Ġsenn ilega
Ġf est
Ġkl Ã¡ra
at il
v alla
Ġm el
ĠtÃ¦k n
ver Ã°ar
br ey
af yrirtÃ¦ki
ĠLÃ¶g Ã°
Ġhel sta
l yndi
ĠForeld rar
Ġfund argerÃ°
gj afi
yfir vÃ¶ld
ĠlÃ¦k na
Ġl iÃ°ur
Ġge sta
ĠundirbÃº a
h eit
ĠnÃ¡gr enni
ĠliÃ° inu
Ġaf s
hor n
ĠkÃ¦r u
Ġkenn t
ĠLÃ¡ ru
ĠSt Ã¶Ã°
Ġskyld ur
ĠSelfoss i
ĠSauÃ° Ã¡r
ĠSk Ã³l
ĠrÃ¦ ddi
k irkju
Ġhluta brÃ©f
am aÃ°urinn
ĠstarfsfÃ³lk i
ĠÃ¡v Ã¶x
Ġv af
ĠA u
ĠFÃ©lag iÃ°
ĠnÃ¡ i
deild inni
200 4
ĠF ull
Ġbjar t
ĠrÃ¦ Ã°u
ĠGuÃ° nÃ½
ĠmÃ¦ list
ĠÃ½m ist
ĠhÃ³p num
ĠV or
ĠÃģ sta
Ġb Ã³l
ĠverÃ° launa
pp a
Ġendur speg
arf irÃ°i
ĠverÃ° trygg
fyl gjandi
ĠC om
ÃŃ el
Ġj Ã¶k
Ġgef st
ĠKann ski
dd ar
ĠÃ¡rs reik
ess u
Ġrek ur
ĠHau k
ĠSig f
Ġfisk i
ĠM c
ĠstjÃ³rn mÃ¡la
Ġvik na
Ã¦ la
Ġnefnd in
p an
Ġn eit
Ġat vik
frÃ¦Ã° ing
vÃ© lar
veit u
helgis gÃ¦
Ġmeiri hluta
ĠF rey
h Ã¡l
ĠumfjÃ¶l lunar
Ġb Ã¦ti
af Ã©lÃ¶g
Ġlang a
ĠlÃŃfeyr is
Ġtil skip
ĠSauÃ°Ã¡r krÃ³k
ĠÃģrna son
ĠMosf ells
Ġvirk ar
Ġhv at
Ã¡ Ã°i
ĠG ri
ĠfrÃ¡bÃ¦r t
ĠL ax
Ġley fis
Ġheims Ã³tt
Ġstarf sem
ĠAl ex
ĠkjÃ¶ t
Ġfram mi
ĠSt undum
Ġhvatt ir
ĠÃºthlut un
Ġmill jÃ¶rÃ°um
ĠE F
l ei
Ġein b
ĠS tur
Ġvit ni
Ġ ansi
Ġv en
Ġor k
ĠÃ¾ing s
Ġd vel
l ok
Ġkyn ningu
ĠS ta
ĠrÃŃkisstjÃ³rnar innar
ĠAl Ã¾Ã½Ã°u
Ġbl Ã¶Ã°
ĠSp aris
ĠÃ¶Ã°ru vÃŃsi
ĠmarkmiÃ° um
Ġaf ur
Ġbreyt inga
Ã¾ykk t
ĠÃ¡rangur s
Ġvin i
Ġst opp
ĠstÃ¶ kk
Ġvenju lega
Ġk ast
sn eyti
Ġs alt
ĠsjÃºk ling
ar ÃŃk
af ur
ĠhÃ¦ st
ÃŃ fi
ĠfjÃ³r ar
ĠT Ã¶l
ĠHalldÃ³r sson
ĠhÃ¡ degi
Ġreglug erÃ°ar
Ġfl y
Ġey Ã°a
ĠÃŃbÃº ar
ĠU ndan
st uÃ°
ĠH inn
Ġsk ÃŃr
ver a
ĠniÃ°ur stÃ¶Ã°um
Ġheils ug
ĠO l
s stjÃ³ri
ĠPÃŃra ta
v ind
Ġhrey fingu
ĠÃ¡g Ã¦t
ĠFl estir
Ġeftirlit s
Ġraf orku
deg inum
ĠL ag
ĠJes Ãºs
Ã³ Ã°i
jÃ³ ni
Ġvit um
Ġ4 2
Ġel ska
ĠfÃ¦dd ist
Ġt im
ĠÃįslen sk
ĠE lÃŃ
Ġjafn rÃ©ttis
Ġles iÃ°
Ġfram angreind
ĠHaf i
Ġhugmynd um
ĠU M
Ġsm ella
ĠHÃºs iÃ°
Ġm Ãº
Ġhlu tir
Ġfyrir fram
ĠlÃŃk legt
ĠNÃ¡tt Ãºru
ĠH Ã¡l
Ġhlu tum
ĠSk ot
l unni
ĠsamfÃ©lag sins
Ġ ch
Ã° iÃ°
vÃŃs un
heim ilt
Ġbrot iÃ°
ĠkÃ¦r unefnd
ĠrÃ©tt i
ĠfÃ© lÃ¶gum
ĠskÃ³l um
ĠMi ch
ĠA mer
ĠnÃ½ju stu
menn sku
bl aÃ°i
ĠfrjÃ¡l s
var i
ĠBenedikt sson
ĠaÃ°st oÃ°a
snefnd ar
Ġau gu
sv Ã¦Ã°inu
ĠstrÃ¡ k
ĠsamfÃ©lag iÃ°
ĠhÃ© t
Ġveg i
lug erÃ°
ĠÃ¡framhald andi
ĠviÃ°skip t
ĠnÃ½skÃ¶p unar
ĠÃŀ rÃ³
eng ja
sm eÃ°ferÃ°
var na
ĠÃ¾Ã¡ tta
ĠTÃ³n listar
ĠÃ¡st Ã¦Ã°um
Ġbe ina
Ġt a
Ġvek ur
Ã¶g nun
Ġyfir lit
ĠLjÃ³ smynd
ĠV ik
rit un
Ġtutt ugu
il ÃŃf
Ġbir ti
Ġmennt amÃ¡l
Ġstarf iÃ°
Ġsam hl
ĠG Ã³Ã°
ĠTÃ³m as
h all
Ġsk el
sl eit
ĠleiÃ° arl
Ġb la
Ġalvar lega
jÃ³ ti
rÃ¡Ã° uneytiÃ°
g ju
U M
Ġst ur
Ġst oÃ°
Ġa pp
Ġhag kvÃ¦m
f Ã¡
Ġr Ã³t
ĠSvein bjÃ¶rn
Ġm undir
sl ok
Ġheim inn
Ġskamm t
Ġs vÃŃ
re ins
ex ti
Ġ199 2
ĠM inn
Ġstyrk i
Ġsann fÃ¦r
Ġd au
Ġfors endur
ĠKon ur
ĠferÃ° alag
ver jar
dr ag
ĠkvÃ¶ld iÃ°
Ġfram undan
ĠL iÃ°
Ã¾ Ã¦tti
ĠÃ¡Ã¦tl anir
ĠmiÃ° jan
br Ãº
ĠstjÃ³rnar skrÃ¡r
Ġgest i
l en
ĠÃ³Ã¾ Ã¦g
5 5
Ġhla upa
ĠviÃ°urken ningu
ĠÃ¡g Ã¦
ĠmÃ¦ tir
ĠnÃ¦st um
Ġt Ã½
Ġfat laÃ°
stÃ¶Ã° in
Ġt Ã¦
Ġlist amenn
Ġmen ning
lu stu
Ġhv etur
Ġtilkyn n
ĠÃļ tl
ĠK irkju
Ġt Ã³
ĠmÃ¡l efnum
Ã° ra
ĠÃ¾r Ã½st
Ġ! !
rei sn
ĠÃ¦ fa
ĠÃ¾Ã½Ã° ingu
ĠgrÃŃ pa
vÃ¶l lur
b Ã¦tt
an Ã¡m
ĠmiÃ°viku dag
Ġg ul
ĠÃºt flutning
Ġ7 8
Ġyfir lÃ½singu
rit iÃ°
ĠhÃ¦kk aÃ°
ĠF jall
ĠrÃ½ mi
sk an
ĠT ak
Ġmann sins
ĠfyrirtÃ¦k inu
Ġrek str
ĠmÃ³t iÃ°
ĠmÃ³ ta
Ġleik jum
Ġvir Ã°is
ĠstaÃ° an
Ġalmen ningi
Ġreyn st
ĠAl Ã¾jÃ³Ã°a
ĠHÃ©r aÃ°sdÃ³m
ĠumsÃ³k nir
Ġ4 9
f yrirtÃ¦k
stof an
Ġgl Ã¦p
Ġafh ent
ĠHv aÃ°a
4 4
ĠalÃ¾ing is
Ã¦ li
afÃ³lk s
Ã¶ dd
ĠbÃ³k ina
Ġl Ã¶ng
Ġtil laga
Ġskilyr Ã°um
Ġs undur
Ġmun ur
ĠrÃ¡Ã°st efnu
3 3
sk Ã¡l
ĠTv eir
Ġf ata
j ug
Ġfinn ur
ĠP er
of f
ĠbÃ¦ ndur
ĠframkvÃ¦md ar
ĠleiÃ°bein ingar
ĠviÃ°hald a
ĠK ana
ĠlÃ¶g in
Ġb Ã¦k
p ress
Ġf jÃ³ra
Ġkyn s
Ġuppli fa
ĠJÃ³h anna
bÃº Ã°um
Ġtrygg ing
ÃŃ ni
ĠMorgunblaÃ° inu
Ġfr elsi
st yrk
Ġland slag
Ġlok inni
Ġnokkur ra
Ġk Ã¦ra
Ġ6 9
Ġhaf naÃ°
v an
ĠdÃ³m stÃ³l
Ġhel gar
Ġskip iÃ°
ĠsamfÃ©lag smiÃ°
Ġvar t
ĠKaupmanna hÃ¶fn
ĠkÃŃl Ã³met
v eik
stÃ¦Ã° an
Ġspur ningu
ĠsjÃ¡lf u
Ġal ger
her berg
os ning
ĠLand helgisgÃ¦
Ġg alla
Ġupp gÃ¶t
ĠSig lu
Ã³ tta
Ġo n
ĠÃ¾ekk ingar
Ġh Ã¶gg
Ã¶ stu
ĠfÃ©lag smanna
ĠMik iÃ°
ĠHafnar fjarÃ°ar
ĠsamÃ¾ykk ti
ĠÃĸ n
l unum
f it
ĠâĢ ĺ
ĠS il
ĠE M
Ġgl eyma
sg jald
ĠÃºt il
Ġf j
am p
Ġhin ar
ĠverÃ° mÃ¦ti
Ġtr jÃ¡
ÃŃ tar
ĠM Ã¶r
Ġatkv Ã¦Ã°a
ĠFyr st
Ġg ra
ĠÃŃbÃº Ã°ir
ĠP et
ĠFrakk landi
ĠM M
Ġfram bjÃ³Ã°
h Ã³la
Ġp ark
Ġauk num
mÃ¦ la
ĠstjÃ³rnmÃ¡l aflokk
ĠrÃŃk ja
ĠSam taka
Ġ... .
liÃ° aleik
ĠsjÃ¡ um
byrg Ã°
ĠAkran esi
ĠK epp
t Ã³
ĠM S
Ã¡r s
ĠsÃ¶g unnar
drÃ¡tt ar
ĠVestmanna eyjum
ĠSÃ©r stak
Ġleidd i
ĠÃºt sÃ½ni
sk Ãºr
ĠlÃ¶g Ã°u
ingast ofnun
ĠÃ½m sa
ĠAl Ã¾jÃ³Ã°
tt ar
Ġr jÃ³
Ġhund ruÃ°
ar Ã°a
Ã¦r iÃ°
ĠstjÃ³rn endur
ĠsjÃ¡lf a
s ig
tÃŃm abil
h Ã¦ttu
ĠC ar
ĠÃŀor lÃ¡
Ġn u
Ġopinber ra
ss viÃ°
Ġtiln ef
enn slu
ĠSp ur
ĠÃŀ eim
ĠFramsÃ³knarflokk sins
Ġkyn nir
Ġhver gi
Ġver uleika
Ġv ÃŃÃ°ar
k or
ĠfÃ¡ st
Ġ18 8
âĢ¦ âĢ¦
ĠmiÃ° la
Ġmark i
ĠkÃ¦r Ã°a
Ġkr ing
veg ur
ĠM el
Ã¶f lum
ĠstjÃ³r na
ĠÃºt skÃ½r
ĠM egin
ĠSk Ã¡l
ĠSva var
Ġb ind
mynd in
sm ann
ĠÃ¾ ÃŃna
r en
skÃ½r slu
not kun
ĠH and
sam bands
Ġsameigin legt
Ġ0 1
ĠrÃ¡Ã°st Ã¶f
Ġsam stÃ¶Ã°u
ĠTrum p
Ġlok num
ĠS unnu
Ġsamning ur
ĠGunnar sdÃ³ttir
ĠhÃ©r aÃ°sdÃ³m
kepp nis
br ag
Ġs lag
Ġtil gang
Ġs Ã³
Ġeig endur
Ġc a
Ã¦l t
m ent
ĠH e
t org
Ġfag na
ĠleiÃ° to
ĠH n
Ġ5 9
ĠlÃŃ tur
g inn
Ġn efni
ĠD i
Ġend aÃ°i
ĠE ru
ĠmiÃ° ju
ĠMarkmiÃ° iÃ°
smÃ¡l arÃ¡Ã°herra
ĠEng in
hrepp i
Ġeig andi
ĠÃįtal ÃŃu
nÃ¡m skeiÃ°
ĠhliÃ° sjÃ³n
U N
Ġkref st
ĠfÃ©lag i
ĠL ind
ĠÃ¾ing i
Ġbyrj aÃ°
Ġskip uÃ°
ĠvÃŃs u
ĠÃºti vist
ĠâĢ Ļ
Ġkl Ãºbb
ĠH jar
at ur
Ġfor manns
Ġheyr t
laus n
ĠVerk efniÃ°
ĠÃºt gef
ĠstÃ³r kost
vÃŃ su
st rÃ¦ti
Ġfly tur
Ġd ul
Ġ5 4
kenn slu
uleiÃ° is
ĠP h
sf rÃ¦Ã°
Ġkos ninga
g el
Ġv ei
ĠHÃ³l m
Ġm eiÃ°
Ġst er
veg is
Ġmist Ã¶k
s firÃ°i
Ġget u
Ġskip tist
tÃŃm ab
b Ã¶rn
Ġauk in
Ġopinber um
ĠG jald
Ġauk inni
ak erfi
Ġmet naÃ°
s nar
Ġaf slÃ¡tt
ĠGÃŃsl ason
ĠlÃ¶greg lan
ĠsÃ©rfrÃ¦Ã° inga
ĠA nt
Ġyfir vÃ¶ld
Ġl enti
verk iÃ°
ĠF lokk
ĠC on
Ġkr afa
ĠLÃ¶greg lan
Ġeinhver jar
ĠÃ¡ratug i
Ġst a
Ġg jaf
Ġtex t
l ingu
ĠV G
ĠdÃ³m ara
Ġupp run
Ġundan Ã¾Ã¡
ab ygg
ĠÃģ lf
ĠhÃ¶f undur
ĠJ ap
Ã¾ rey
Ġminn ingar
Ġeinf Ã¶ld
y dd
Ġbygg ist
Ġk la
Ġmerk ingu
Ġn Ã¶fn
ĠtillÃ¶g um
jal li
Ã©tt i
eg g
Ġeinstakl ingur
ĠÃ¡kveÃ° ur
ĠbÃŃ last
Ġp er
ĠÃ¡fang a
Ġleik s
Ãº la
Ġlig gi
i sta
Ġundanfar iÃ°
Ġvax ta
Ġgrein ingu
Ġhugs aÃ°
ĠgerÃ° um
Ã¡ kv
li f
Ġst ol
el t
Ġundan tek
l inn
l est
ĠÃ¾ y
bur Ã°ar
Ġdeild inni
ĠstuÃ° ningi
ĠslÃŃk u
Ġ0 6
ĠFr jÃ¡l
ĠviÃ° tÃ¶l
ĠGarÃ°a bÃ¦
Ã¾ Ã¦tt
Ġker finu
n innar
ĠmÃ¦l ti
Ġop naÃ°i
Ġborg ara
ĠF H
v ell
and ans
Ġbr Ãºn
Ġheit iÃ°
ĠbÃ¡ t
ĠfrÃ©tt um
Ġ12 0
ĠLau ga
ĠSv einn
ĠÃºrskur Ã°
s ÃŃÃ°u
Ġtil vik
sheim il
ĠÃºtt ekt
Ġgild ist
v un
ĠlÃŃ Ã°an
Ġtek inn
fel ld
ĠA SÃį
ĠKv enna
g aÃ°
en i
sk yn
Ġflokk s
Ã³ i
Ġset iÃ°
A Ã°
h eiÃ°i
Ġsameigin lega
Ġjafn vÃ¦gi
Ġsn Ã½r
al k
Ġskil greind
ĠGuÃ° ni
ĠV ef
k ir
ann ar
ĠB yr
Ġat haf
ĠU nn
I L
Ġhi tta
ÃŃsk um
Ġvik iÃ°
sm ik
Ġframhald i
Ġp rest
var Ã°
Ġfrum kv
ĠSt okk
ĠÃºtlend inga
av Ã©l
Ġsek Ãº
d um
as h
ĠR ek
Ġ4 1
sm anns
band alag
Ġ18 9
al Ã¶gum
ag jÃ¶f
Ã¶nd unum
er li
Ġm eir
rÃ¦Ã°i s
Ġerl enda
Ġst aÃ°i
Ġop inn
ĠmÃ¦ld ist
ĠG lit
ĠÃ¡tt um
rÃ©tt ar
y kt
ss i
ĠV ins
Ã³m a
ĠVeg agerÃ°
4 6
Ġdag ar
ĠprÃ³ sen
ic k
ĠÃ¡lykt un
Ġb eit
ĠÃ¡ tak
ĠS aga
Ã¶nn unum
Ġrey nir
ĠÃºt reik
in t
Ġh ress
ĠsÃºkkul aÃ°i
Ġlok sins
ĠfÃ¦ tur
ĠV an
Ġranns aka
h jÃ³
Ġrey ndi
ĠmÃ³t mÃ¦l
Ġb yl
Ġstarf sh
Ġ aka
Ġh Ã¶g
ĠSÃ½ ningin
ĠBjÃ¶rg vin
ĠgÃ¡ tu
ĠpÃŃ an
ĠP Ã³l
ĠÃ¾riÃ°ju dag
kv Ã³ta
ĠviÃ°skip tum
Ġstr Ã¶nd
Ġk art
Ġk u
ĠÃ¡ form
lÃŃ ka
Ġn b
ĠviÃ° kvÃ¦m
ĠKÃ³pavog s
ĠB e
aÃ° inn
ĠF rÃŃ
Ġflokk um
Ġfar ar
Ġtel ji
fÃ¶r nu
Ġums jÃ³nar
ĠLandspÃŃtal a
ĠvÃ© lar
ĠliÃ° a
ĠHelg ason
ĠmeÃ° vit
ĠhÃºs a
Ġhagsm uni
Ã¾ egar
Ġ198 7
ĠBÃ³k in
ĠvirÃ°is auka
Ġskap andi
Ġinn l
Ġland am
Ġskap ast
eild ar
ĠfjÃ¡rmÃ¡l arÃ¡Ã°herra
bund in
ley fi
last ofnunar
Ġop naÃ°
ĠlÃ½ sti
sl egar
ÃŃ um
Ġvinnu brÃ¶gÃ°
Ġkjar n
j afa
m is
Ãº Ã°ar
Ġsk jÃ¡
aÃ° iÃ°
ĠskÃ³ gar
ĠbÃ¦jar stjÃ³rnar
vÃŃ g
Ġher berg
Ġleik maÃ°ur
ĠjÃ¶rÃ° inni
ĠFlat eyri
ĠaÃ° drag
âĢ Ļ
v arf
Ġheim sins
ĠÃ¾e kki
ĠM A
Ġreyn sla
ĠhÃ¦ li
ĠÃ¾ rÃ¡
jÃ¶r Ã°ur
ey Ã°
Ã¦Ã°i sins
ĠlÃŃkam a
ĠÃ¾ jÃ¡
merk i
Ġkon an
ĠGe org
Ġv Ã¶k
ĠFl est
ĠO ft
ĠF ast
Ġnb sp
ĠfjÃ¡r festa
nar ar
Ġh eiti
arfÃ©lag i
Ġsv ari
Ġtil ein
safn s
und u
Ġk Ã¶lluÃ°
ĠJ Ãº
Ġathug a
vÃ¶r um
el i
Ġp unk
bÃº ar
t aÃ°i
Ġfund ist
ĠmÃ³t s
ĠfjarlÃ¦g Ã°
Ġfal legt
Ġstig i
Ġnei kv
Ġ arf
ĠÃ¡fang ast
Ġfat l
Ġinn ra
ĠJ Ã¶kul
Ġerf Ã°a
ĠÃį var
Ġgeym slu
Ġp lÃ¡ss
st ill
ĠsÃ©r hÃ¦
fi sk
Ġinnihald a
ĠM ig
ĠnÃ¡ Ã°u
Ġl as
ĠVinn u
ĠB Ã¦Ã°i
Ġ0 5
Ġtal sins
ĠHv ort
ĠS ÃŃÃ°a
Ġ6 3
ĠsÃ©r lega
Ġsp ÃŃtal
Ġb Ã¦tti
Ġgrein inni
Ġv Ã¶kv
ĠfÃ©lag sleg
f jÃ¶rÃ°
ĠK Ã¡ra
Ġbarn anna
aÃ° ilum
Ġfor mann
Ã³ re
Ġmynd irnar
ĠAthug iÃ°
ĠstÃŃ ga
Ġsn jall
ĠbÃºs etu
ÃŃ fa
ĠH raun
ĠGrinda vÃŃk
Ġfor Ã°ast
ĠH Ã¶fn
Ġlands byggÃ°
ĠÃºrslit um
arfÃ©lag s
Ġken nari
fr v
ĠFr an
ĠG au
Ġnot aÃ°ar
vÃ¶l lum
ĠRannsÃ³k nar
ĠstarfsfÃ³lk s
Ġkom ust
ĠAÃ° eins
kvÃ¦Ã°agreiÃ° slu
lu s
ra t
Ġundan fÃ¶rnu
ars on
v est
ĠIng var
ĠÃ¾ro sk
ĠH lu
ĠlÃŃf sins
ĠhÃ³p urinn
ĠÃŀess ir
Ġh raun
ĠSauÃ°Ã¡rkrÃ³k i
b Ã¦kur
Ġgeg na
ĠverÃ° mÃ¦
ĠÃ¾ ÃŃnu
ĠÃ¾rÃ³ a
ĠSkrÃ¡ ning
ra st
st urinn
Ġh repp
Ġb ey
ar eg
Ġhrein t
ĠleiÃ°arl jÃ³si
brÃ¶g Ã°um
ĠSpÃ¡ ni
k Ã¶st
Ġflokk ur
Ġson ur
ĠframleiÃ° a
ĠP ort
blaÃ° iÃ°
ĠF ar
en nd
Ġeink ar
Ġh Ã¶nnunar
ul Ã¶g
Ġlit lum
ĠT or
Ġkaf li
lar nir
Ġn aut
Ġskipuleg gja
Ġvar iÃ°
eyr iss
Ġtilfinn ing
Ġbl Ã¶nd
ĠvÃŃs b
Ġs ynd
geng ni
ĠstÃ¦rÃ° frÃ¦Ã°i
Ġstyr kt
vi d
Ġey kur
sl aus
Ġgjald eyris
ĠÃºt b
Ġaug n
ĠsjÃ¡varÃºtveg s
ĠV on
Ġsaman st
Ġp lan
Ġp ab
ĠsÃ©rst Ã¶kum
nu stu
ĠnauÃ°syn leg
ĠHlut verk
ug jald
Ġsk yni
rÃ¦ Ã°u
Ġb ens
ĠV atna
ĠheiÃ° ur
ÃŃ Ã°ur
ch ester
Ġeinstakl ings
ĠnÃ¦r ingar
ĠfjÃ¡rmÃ¡l afyrirtÃ¦k
Ġbest i
eÃ° li
Ġnem andi
Ġhv arf
ĠliÃ° s
ab ar
Ġd Ãº
Ġd jÃº
ĠSk emm
ĠnÃ½r rar
Ġbir tast
ĠE Ã°a
Ġken ni
Ġver ndar
ĠforstÃ¶Ã°um aÃ°ur
ĠC ont
b eiÃ°
Ġg jÃ¶ld
c c
ĠÃ¾ eg
ĠÃŃslensk ir
liÃ° i
Ã° ri
Ġfal leg
ĠSuÃ°ur landi
F Ãį
aÃ° ferÃ°
Ġtek st
ĠG est
ĠSum ar
Ġinnan rÃŃkis
in k
ĠskrÃ¡ ningar
ĠSeÃ°la banka
Ġfar Ã¾ega
Ġhrein lega
Ã¾jÃ³nust unnar
ĠV i
bo Ã°um
ĠS a
Ġvinnum ark
Ġh a
dag urinn
k Ã³r
ker fisins
Ġkyr r
ĠII I
j ung
ĠS und
Ġfr an
ĠR ang
sf erÃ°
aÃ° gerÃ°
ĠnÃ½ tur
rÃ³ Ã°ir
Ġflest ar
sviÃ° i
ĠH S
Ġmikil s
ĠBjart rar
her jar
Ġeinf alt
Ġmynd ar
ĠÃŀorlÃ¡ k
ĠB Ã¡r
ĠsÃ¦ ta
ĠfjÃ¶l d
ĠGar Ã°ar
ak er
3 7
ĠlÃ¦k nir
Ġkunn ugt
Ġbr jÃ³ta
Ġj af
st Ã¦Ã°um
ĠfÃ¡ tt
Ġvetur inn
ĠÃ¾jÃ³Ã°ar at
Ġgeng u
ĠS T
reg lum
Ġsamhl jÃ³Ã°a
ĠÃ¡f engi
ĠfÃ¦ ddur
e ar
m eÃ°ferÃ°
Ġfram kvÃ¦ma
rÃŃ Ã°ar
Ġkyn lÃŃf
ĠVald im
op e
Ġsk jÃ¶l
h a
um hverfi
ĠÃŃbÃº Ã°a
Ã¶rygg i
ĠÃļtl end
Ġupp skrift
at e
Ġr ÃŃs
Ġkos iÃ°
Ġr os
ri ta
ĠlÃ¦ kkun
ĠRÃŃkis Ãºtvarp
Ġm yr
ĠS c
Ġvatn iÃ°
k enna
ĠbÃ³ ta
Ġframl eidd
skvÃ¶ld iÃ°
af ell
amlega st
skil yrÃ°i
ĠSjÃºkra trygg
Ã¶r Ã°u
k irkj
Ġl oÃ°
ĠJÃ³hann sson
ĠslÃ¶kk viliÃ°
st unda
Ġsv eig
Ġra unar
p iÃ°
Ġger um
Ġ1 000
skemm t
Ġskap i
ett i
Ġbl anda
as afn
Ġk jÃºk
ĠAf tur
ĠmjÃ³l k
ĠviÃ°fangs efni
Ġv Ã¶rn
Ġ6 4
Ġgjald miÃ°
ĠSk al
natt leik
fram leiÃ°slu
ĠauglÃ½s ingar
ĠRannsÃ³k nir
ĠÃŃslensk rar
Ġleng st
Ġver nda
eng iÃ°
Ġand stÃ¦Ã°
hlut fall
Ġ7 7
el g
Ġb enti
ri d
ð Ł
ĠH ell
ĠrÃŃkiss jÃ³Ã°s
ÃŃf ur
f yrirtÃ¦ki
Ġ6 8
ĠEg ils
ĠG re
and er
r in
Ġ ðŁ
Ġsv on
Ġval in
Ġnei kvÃ¦Ã°
ĠS iÃ°
ĠNefnd in
ĠH il
Ġmynd listar
Ġb eggja
ĠsÃ¡ tu
ĠC ol
gr unn
st Ã¦Ã°a
Ġd jÃºp
ĠÃģ kvÃ¦Ã°i
ĠB a
s y
Ġg Ã¶tu
Ġdeild arinnar
Ġker fiÃ°
ĠGr Ã©
ĠÃ¡hug i
ĠEvrÃ³ pum
Ġbrey tist
Ġg ri
ĠerfiÃ° a
Ġheim ila
Ġ25 0
h ef
ĠP al
d reg
an ak
im p
on ald
Ġj Ãº
ĠfrÃŃ stund
eit ni
laus u
Ġtrygg t
Ġmenningar mÃ¡l
ĠVig dÃŃs
Ġdr Ã¶g
Ġtil ra
ĠÃį Ã¾rÃ³tta
ĠFyr stu
ĠbÃ¦jar stjÃ³rn
ĠH iÃ°
Ġbl ess
ĠlÃ¦k nis
Ġker fis
E f
ĠmÃ³tt Ã¶ku
b e
Ãº na
Ġbarn sins
ĠbrÃ¡Ã°a birg
ĠfÃ³lk sins
Ġeinst Ã¶kum
Ġk unni
Ġinnan lands
ĠÃ¾ing sins
af rum
Ġsp ilar
f tu
ĠS Ãį
ingast ofnunar
ĠleiÃ° rÃ©tt
d Ã½ra
ĠstÃ¦r sti
D A
ĠÃ³sk um
Ġaf rek
Ġk or
ĠÃ¡ratug um
Ġk jall
rÃ½ st
Ġfund um
ul Ã½Ã°
ĠmiÃ° ast
ĠF oss
Ġs agn
ĠÃºthlut aÃ°
ĠG ert
ĠnÃ¦g ilega
s jÃ³Ã°
ett ir
ĠÃ¡st Ã¦Ã°
Ġfug la
Ġvir tist
Ġsy st
ĠU r
ĠrÃºm g
Ġh rif
ĠaÃ° dÃ¡
ĠK ri
hÃºs a
ĠgreiÃ° slum
Ġsyn gja
Ġh Ã¶nnu
ĠM aÃ°urinn
Ġpl Ã¶tu
ĠReykjavÃŃkur borg
Ġsy stur
ĠEngl andi
ĠrÃ©tt ur
ĠrÃ¦k t
re d
hÃ³p ur
ĠKana da
sk ÃŃr
ileg ir
ĠstÃ³r an
Ġtil greind
bÃº iÃ°
ĠrÃ¡ Ã°ast
Ġek iÃ°
ĠÃ¡st andi
ĠR auÃ°a
ĠbiÃ° ja
Ġ9 5
ĠfullnÃ¦g jandi
ĠneÃ° ri
g il
rÃ¡Ã° uneytisins
Ġfjall aÃ°i
Ġsamkomulag i
o y
Ġland smanna
sk ri
ĠrÃ¡Ã° sins
Ġtal inn
ĠsauÃ° fjÃ¡r
Ġgre indi
rÃ¡ Ã°a
ĠSk aft
ĠG ull
ĠslÃŃk ra
Ġsm it
ĠauÃ°veld a
hljÃ³Ã° andi
ĠÃģ sm
Ġgr unni
min ja
Ġdre kka
Ġgang andi
ĠSig mundur
Ġslepp a
Ġr Ã³m
Ġstarfsm ann
nar l
tek t
Ã³ sa
Ġ8 00
ĠÃŀor steinsson
ĠÃĵlaf sdÃ³ttir
Ġk ass
en tar
Ġeftir liti
Ġspil aÃ°
ĠsjÃ¡lfst Ã¦tt
eÃ° i
ĠheilbrigÃ°is Ã¾jÃ³nustu
Ġn ef
ĠsjÃºkdÃ³m a
Ġpapp ÃŃr
st ÃŃm
ĠHeim ilt
ĠEl ÃŃn
ĠÃ¾arf t
Ġkref jast
ĠHorn afjarÃ°ar
d eil
ĠÃŃtrek aÃ°
ĠS Ã¶gu
greiÃ° sla
ĠbÃŃl num
Ġber st
Ġsinn t
ĠveÃ° ri
Ġeinhver jir
ĠH eiÃ°
ĠtÃŃ sku
Ġfor rÃ¡Ã°
ĠmÃ¡l aflokk
ĠutanrÃŃkis rÃ¡Ã°herra
ĠverÃ° brÃ©f
g in
Ġk lass
aÃ°ar ins
ĠMan chester
ĠbÃ¶rn unum
Ġfundar ins
far ir
ĠÃ¡kveÃ° inn
ĠSam Ã¾ykkt
ĠÃ¾ vert
sl and
ang i
Ġinn flytj
?? ??
ĠL ei
Ġst rÃŃ
ĠA tl
ĠhljÃ³ ta
Ġp ip
Ġnot kunar
Ġtil tÃ¶lu
Ġrannsak aÃ°
rei snar
stof unnar
Ġupphaf lega
Ġfr esti
Ġbur t
leiÃ° is
Ġop num
ĠÃ¾rÃ³ ast
Ġspur t
rÃºm sl
ĠSvein sson
Ġsv ig
I S
ĠstÃ¶Ã° va
ĠM ag
ĠmÃ¶r gu
uneyti s
ĠrÃ¦ tur
boÃ° aliÃ°
ĠdÃ½ p
ĠM ars
Ġ as
Ġ5 3
lÃ½s inga
ska pur
ĠIn st
h Ã¦tti
ĠhÃ¡ deg
ĠBir gi
ĠÃįs ra
ĠB Ã³ka
Ġfylg di
Ġkyn ferÃ°is
Ġsvo hljÃ³Ã°andi
ĠbÃ¡ Ã°ar
ĠKristjÃ¡n sdÃ³ttir
Ã¦r ri
Ġv ÃŃmu
Ġb it
Ġheims Ã¦kja
ĠÃºrval s
eng t
Ġminn ir
Ġvarafor maÃ°ur
Ġt ef
ĠTil gangur
aÃ° stÃ¶Ã°u
Ġveitt i
Ġlag Ã°ur
Ġy Ã°ur
Ġhe yrÃ°i
ĠHar aldur
ĠA ust
ĠÃ¾ing inu
Ġauka st
Ġhrey f
Ġsamein ingu
lÃŃ nu
ĠHÃ¦star Ã©ttar
Ġkom nar
sk ost
I F
ĠbÃ¦ inn
ĠT a
ĠAÃ° rir
ĠstjÃ³rn un
y p
ĠJ an
hÃ¦ kk
n inn
Ġtal ar
ÃŃ nar
sl en
ĠT al
vir kja
Ġsam gÃ¶ngu
ĠN ot
Ġfer met
Ġstarf shÃ³p
Ġbjar ga
ĠBÃ¦jar rÃ¡Ã°
ing inn
Ġfylg st
ek tar
ĠT aliÃ°
ĠStarf smenn
ĠmatvÃ¦ la
na b
ĠV arÃ°
ĠMatt h
ĠDr ott
Ġsk ynd
ĠaÃ°gerÃ° um
dÃ¦m is
o ga
ĠR eik
est u
Ġtilfinn ingar
Ġupp s
na tional
ĠfÃ¶ t
Ġtrey sta
ĠSv an
ĠLands bankans
sh Ã¶f
Ġsp ill
Ġd isk
Ġfor gangs
ĠmiÃ° bÃ¦
Ġkraf t
ĠrÃŃkis borg
ĠfjÃ¶lg un
ĠgÃ³Ã° ir
Ġri s
Ġr aÃ°
ĠÃģ hug
Ġv ÃŃk
ĠS Ã¦m
Ġnot aÃ°ur
ĠÃ¾ Ã¦tt
Ġstofn unin
Ġhagn Ã½
Ġl enda
ĠM ad
ĠÃį S
ken nari
ĠH of
af rÃŃ
ĠL ilja
l ÃŃÃ°an
Ġef a
ĠrÃŃk jum
bank anum
ĠhÃ³p inn
ĠT im
ĠjarÃ° skjÃ¡lf
Ġg Ã¶t
Ġgr ill
tu Ã°u
ĠsÃ¦k ir
val iÃ°
or lof
ĠSver ri
Ġbre ska
stÃ¶Ã°var innar
4 9
ĠSk u
st ÃŃma
ĠbÃ¦ tur
NI C
ĠB Ãºn
ĠlÃ½s ing
ning urinn
Ġ8 8
ĠhÃ©r aÃ°
ĠHver s
ĠReyk hÃ³la
in f
Ġn ÃŃ
Ġv onum
Ġfl eir
ĠsmÃ¡ tt
eys is
ĠÃ³ t
ĠmikilvÃ¦g ur
ĠS er
Ġlos un
ĠGri kk
Ġ6 00
sh Ãºs
Ġhver fa
ĠEir ÃŃkur
Ġal fariÃ°
ĠstaÃ° festa
ĠaÃ°drag anda
Ġkos ningum
ĠH ans
ĠtilbÃº in
Ġsveitar stjÃ³rn
ad ing
ĠleiÃ° sÃ¶gn
naÃ° ist
Ġaf tan
ĠHaf a
Ġfur Ã°u
safn iÃ°
arf erÃ°
ĠviÃ° auka
jÃ¶ t
Ġhaf na
ir Ã°u
eit ur
hÃ¡ tÃŃÃ°ar
nu Ã°i
ĠA pp
ma il
Ġey kst
Ġreik na
ĠÃ¡r sf
ĠDag ur
o dd
ĠJ a
Ġvel ferÃ°
Ġs anna
v irÃ°i
Ġminn is
fingar innar
Ġsig ri
Ġ10 1
j anda
Ġsp an
f ull
ĠsamÃ¾ykk ja
ĠHver ager
Ġsamband sins
st aÃ°ur
Ġvin ir
ĠÃ¦t li
ĠN Ã¡m
ung iÃ°
Ġtek jum
geng i
ĠsveitarfÃ©lag anna
ĠViÃ° skipta
h raun
ĠSt yr
Ġp anta
Ã° inn
Ã¶k unar
Ġsamning um
ĠÃĵ l
eig endur
ĠL yf
ĠBir na
Ġop nuÃ°
ug l
Ġfar inn
Ġtilkyn ningar
S am
Ġgjald Ã¾r
Ġsvok Ã¶l
ing as
Ġal t
sÃ¶g ur
Ġlaus nir
sk jÃ¶r
Ã½s ing
ĠB Ã¡
bur Ã°i
frÃ¦Ã° inga
Ġv inum
Ġau ga
an legum
ĠlÃ¦g ra
Ġfel ld
A L
ĠL jÃ³st
Ġung menna
ĠheilbrigÃ°i sker
ĠsamfÃ©lag s
Ġr Ãºss
ig t
eÃ° l
haf nar
spur n
f ni
ĠM al
Ġbl eik
Ġeld sneyti
Ġm eistara
miÃ° stÃ¶Ã°
sheimil inu
re inum
bor Ã°i
ĠS Ã¶ng
ĠÃ¡b endingar
3 8
Ã¦k i
ess a
Ġviss u
r aÃ°a
Ġt au
am arkaÃ°i
Ġrit gerÃ°
ĠskrÃ¡ ning
sh Ã³l
ĠAri on
Ġnefnd inni
verk um
ĠEin hver
op n
ĠSeg ir
ĠHau kur
ĠVÃŃs ind
Ġd rÃ¡tt
Ġp ress
ĠfulltrÃº um
Ã¶r Ã°um
ĠrÃŃk ir
Ã³ d
ĠM Ã½r
ĠmarkaÃ° sset
f Ã¶ll
Ġ198 9
Ġnefni st
ĠbjÃ³ Ã°um
ĠK Ã¡ri
Ġ7 4
Ġb Ã¦r
Ġein i
Ġp rÃ½
Ġv Ã©r
ĠGuÃ° na
ĠgreiÃ° ir
Ġmet iÃ°
s jÃ³Ã°s
ĠÃŃslensk ar
am s
Ġand rÃºmsl
sl na
ĠkveÃ° a
ĠstjÃ³rn vald
ĠEg ill
lÃŃ Ã°ar
Ġfram Ãºr
ĠL eif
ĠB ru
Ġeinst Ã¶k
Ġl ent
Ġtal aÃ°i
tak endur
ĠGuÃ°jÃ³n sson
ÃŃ ta
tt ur
or ld
ĠI ces
bygg ingu
Ġop nun
200 2
ĠgÃ¡ fu
la d
T T
Ġmynd list
la uk
heim um
Ã¾ ol
Ġauk na
ĠmiÃ° n
l jÃ³s
ĠF rÃ¦Ã°
ĠhjÃ³ la
Ġsel t
ĠviÃ°skiptav ina
ĠlÃ¡gmark i
Ġh Ã³t
Ġeld g
ĠviÃ° rÃ¦Ã°um
Ġfull um
ĠsamÃ¾ykk tar
Ã ¤
Ġlag Ã°ar
ĠFors eti
ĠbaÃ° herbergi
Ġm ag
eÃ° iÃ°
ĠkÃ¶nnun inni
rÃº Ã°
ĠVilhjÃ¡l mur
kl Ãºbb
ĠEvrÃ³pusamband iÃ°
var andi
Ġhl Ã©
ĠÃ³Ã¾ arf
h yggju
ĠOr k
Ġmis st
Ã¾ rÃ½st
ĠÃ¾jÃ¡lf ari
ĠfÃ¶r um
okk a
ĠS ind
ĠH ek
ĠsjÃ³ num
ĠfjÃ¶lskyld um
ĠStr anda
ĠmilljÃ³ na
Ġnein um
ri ti
Ġbandar ÃŃska
ĠD Ã¦mi
Ġsafn aÃ°
Ġskuld ir
u d
s jÃ³Ã°i
Ġkraf ti
ĠSÃŃ Ã°ast
ĠÃ¡kveÃ° na
ĠSuÃ°urnes jum
mark miÃ°
ĠÃŀ ur
ĠdÃ³tt ir
Ġsk urÃ°
ĠfrÃ¡ bÃ¦ra
ĠT yrk
ĠalÃ¾jÃ³Ã° legum
ÃŃ fiÃ°
ĠÃ¡her slur
ĠÃ½mi ssa
ĠÃ¦ Ã°i
il lu
ĠP age
ĠNorÃ°ur land
al ir
en ce
Ġtal i
ĠMagnÃºs dÃ³ttir
ĠÃ¡hrif a
ĠB Ãį
ĠÃŀor steins
Ġs Ã¶k
Ġsvon efnd
ĠEyr ar
h jÃ³l
Ġgei sl
ĠrÃŃkisstjÃ³rn in
Ġbrey tast
ĠMM R
ĠtiltÃ¶lu lega
ĠfrÃ³Ã° leik
nÃ¡ ms
ĠInter national
Ã¶f u
arÃ¡Ã° uneytiÃ°
ĠAustur landi
Ġaf n
ĠAr c
Ġs and
ĠvÃŃs inda
ĠmeÃ° fylgjandi
bank i
Ġkynsl Ã³Ã°
Ġh unda
Ġv ina
lag an
ĠsÃ³tt i
Ã¡n Ã¦g
ar ins
ĠsÃ¡ u
Ġsly sa
ĠHÃ¶r Ã°ur
Ġfram mist
ĠfÃ¦Ã° ingu
Ġeng um
ĠM Ã½
f restur
dag ar
ĠaÃ° komu
e z
Ġbir tar
ĠFjÃ¡rmÃ¡laeftirlit iÃ°
Ġb rau
Ġr amma
Ġfel la
ĠÃģ fram
im a
ĠhÃ¡mark i
ĠfjÃ¶l ga
Ġt Ã¶ldu
ĠF yrirtÃ¦kiÃ°
o tta
Ã ī
ĠÃĵ lym
ĠsÃŃÃ° degis
r al
Ġef st
ĠbÃºn aÃ°
ĠfjÃ¶lskyld ur
jÃ³n varp
Ġin ter
ild um
or i
arfÃ©lag a
ĠR Ã³m
ĠK vik
ĠsÃ¶g unni
ĠSt uÃ°
ĠAuÃ° vitaÃ°
Ġalmann atrygg
ĠmÃŃ nar
ĠiÃ° n
Ġm al
ĠF al
Ġfyrirl estur
ĠsveitarfÃ©lÃ¶g um
Ġh Ã³l
ĠÃ¾arf ir
b oÃ°a
ey ta
Ġstofn unum
Ġfinn ast
ĠsÃ³tt u
Ġhen ta
ĠsjÃ¡varÃºt vegi
ey fis
d em
sf rÃ¦Ã°i
str Ã¶nd
bar na
r andi
s Ã¶lum
Ġv Ã¶ld
Ãº g
eit u
ĠÃŀ rÃŃ
ĠÃ¡kv Ã¡
d yr
Ġyfir gef
ĠbÃ³k un
sl ÃŃf
Ġendur tek
ĠfjÃ¡rm Ã¶gnun
Ġe x
ĠsjÃ¡lfs agt
ĠNÃ¡mskeiÃ° iÃ°
ĠB B
Ġor Ã°i
ĠNÃº na
ĠUnn iÃ°
ing jar
verk i
dag s
Ã¦Ã°i s
ĠNiÃ°ur staÃ°a
ĠaÃ°ferÃ° um
skrif tir
Ġmeiri hluti
ĠhjÃ¡lp aÃ°
Ġhaf in
ĠvÃŃs an
Ġk Ã³l
ĠÃ¡huga vert
ĠIces ave
Ġfr ost
ĠEftir farandi
rÃ¡Ã° uneytinu
Ġstel p
Ġtak mÃ¶rk
tein i
ĠEvrÃ³p ska
ĠÃ³h Ã¦tt
ĠveiÃ° ar
ĠÃ¡ vinn
ĠHer mann
Ġl Ã¶ngum
ĠAnd re
ĠSnor ra
Ġko sta
ĠgÃ³Ã° s
ĠBryn jar
an legur
ĠO kkur
ĠnÃ¡mskeiÃ° inu
Ġkyn ni
tam ÃŃn
Ġhagsmuna aÃ°ila
ĠÃŀÃ³rÃ°ar son
ĠS ÃŃÃ°u
Ġskil ar
Ġl ek
ĠlÃŃkam ans
Ġsleg iÃ°
starf iÃ°
ĠIn ni
ĠK jÃ¶r
jÃ¶k li
ĠtÃŃÃ° ina
Ã© kk
verÃ° s
og n
ef li
ĠkrÃ³ num
Ġs eÃ°la
fÃ¦r t
Ġ18 7
5 6
ĠÃģ str
Ġung t
E G
Ġv iti
af jÃ¡r
ĠsveitarfÃ©lag inu
Ġmarg f
Ġstyrk tar
Ġsameigin legu
ĠstjÃ³rnvÃ¶ld um
Ġfor vit
Ġ8 7
Ġvar p
bl e
ĠtrÃº a
ĠR au
ĠfÃ³t bolta
ĠbyggÃ°a kvÃ³ta
ĠviÃ°bur Ã°i
Ġleik urinn
sk yni
hÃ³p urinn
j endur
bÃ³t um
starf s
ĠFund urinn
Ġsk Ã¶mm
ĠskÃ½r ingar
l iggjandi
Ġmet in
Ġr ÃŃf
ĠNÃ¡tt Ãºr
Ġkom um
hag sm
Ġleik sins
Ġhelm ingur
sv Ã¦Ã°iÃ°
ĠNÃ¦ stu
st er
Ġnot endur
Ġsm jÃ¶r
Ã¾ ro
ĠtÃŃma bundiÃ°
Ġraunver u
ĠG olf
Ġs att
U m
brau tar
Ġstyrk ir
ĠfjÃ¡r lag
lÃ¦k nir
g e
jÃ³nar miÃ°
ĠL eit
ĠniÃ° ri
Ġhand rit
Ġkra kk
Ġlang ur
ĠJ am
ĠBir gir
Ġbr ota
ik v
jÃ³r Ã°ung
Ġvik unnar
tÃ¦k ja
ĠSv ona
ĠnÃ½ tist
Ġverk alÃ½Ã°
ĠdÃ¦m dur
20 17
ĠkrÃ³n unnar
Ġ yndi
Ġfyl la
ĠOp iÃ°
ĠaÃ°ildar rÃŃk
p en
ul um
ger Ã°ur
Ġinni f
ug rein
bÃºn ir
Ġ9 9
eym slu
ĠA x
ĠÃŃbÃº um
ĠstÃ¶Ã° v
ĠvÃŃsind amenn
ĠbÃ³k arinnar
al inn
riÃ° a
ĠskÃ½r slunni
ĠÃį SÃį
Ġfram s
ug la
Ġp Ã¶n
Ġinn viÃ°
skÃ¡ p
Ġupp gjÃ¶r
Ġ5 2
ĠlÃŃf sg
vert on
Ġskip tiÃ°
aÃ° num
ĠDan ÃŃel
ĠÃ¾or sk
ĠÃ³ ttast
ĠbÃ³k in
ĠlÃ¦kk aÃ°
r ann
Ġb jÃ³Ã°
og iÃ°
Ġopinber lega
Ġm jÃºk
ĠslÃŃk ri
id e
ĠK ra
sst ofnunar
ĠÃģ tta
Ġkeyr a
Ġh iti
ĠliÃ° num
Ġsvip aÃ°
Ġtilraun ir
ĠL oft
ÃŃ as
Ã¦k t
Ġh eitt
ĠtÃŃÃ° ni
skÃ¶p unar
Ġsag an
ĠdagskrÃ¡ r
ĠEl ÃŃs
ĠÃ¾ekk tur
ĠÃģkv Ã¶rÃ°un
Ġsvar t
ĠÃ¦ vi
ĠMorgunblaÃ° sins
ĠÃ¡ skil
ĠL S
Ġtak t
asam tÃ¶k
ĠÂ ¦
ĠRagn heiÃ°ur
Ġmann inn
ĠrannsÃ³knar innar
ĠviÃ°skiptav inum
ĠÃ³sk aÃ°i
ĠHÃ¶f undur
ex tir
t rÃ©
ĠsjÃ¡lf ri
Ġr Ã©
at Ã¶ku
Ġofb eldis
4 7
Ġrek iÃ°
en tu
ĠrÃ©tt um
Ġnot aÃ°i
ĠsÃ½ ninguna
orÃ° iÃ°
Ġeink unn
ĠskoÃ° anak
ĠSeÃ°la bankans
ru kk
ĠPage ID
ĠH M
Ġor lof
Ġd ra
stjÃ³rn un
Â ²
gang a
ĠundirbÃº ningi
ĠÃŀe kk
jÃ¶ ri
Ġyfir skrift
ly f
sn esi
Ġstur tu
Ġt rufl
stof unni
Ġraunver ulega
Ġklukkust und
Ġgei sla
ĠK Ã³r
Ġsl Ã³
ĠfÃ¡ ir
stÃ¶Ã° va
ĠTh om
ĠVestmanna eyja
al andi
4 8
Ġaf Ã¾rey
Ġ7 6
Ġvax a
Ġst aÃ°ur
ĠumsÃ³k num
Ġtilkynn ti
ĠgÃ¦ slu
ĠS Ã½r
Ġk a
ĠbÃ³kmenn ta
Ġteng t
ĠR Ãºm
ĠBreiÃ° ab
Ġbandar ÃŃsk
m u
eig enda
ĠlÃ¦r t
Ġg all
rÃ©tt indi
r ur
leg i
Ġspur ningunni
Ġumhver fiÃ°
ĠverÃ°bÃ³l gu
ĠnÃ¦st unni
Ġfit u
Ġsp eg
ĠDa vid
ĠstefnumÃ³t un
Ġfor dÃ³m
ĠpersÃ³nu lega
ĠfÃ¦r slu
Ġfimm ta
ĠstÃºl kur
Ġmarkv iss
Ã ¼
ĠviÃ°skiptavin i
ĠmiÃ° ar
Ġfang a
atil kyn
sn Ã¡m
j urnar
ber gja
Ġkarl menn
e e
Ġfl jÃº
Ġdeili skipulag
5 7
Ã¦ ja
haf ar
Ġv Ã¶ll
Ġ198 8
ĠlandsbyggÃ° inni
ĠmÃŃn Ãºt
Ã¡l k
Ġell ef
Ġros alega
end u
as a
Ġheimild um
jar a
Ġhygg st
Ġbygg ing
at riÃ°um
Ġleg iÃ°
Ġspil aÃ°i
na p
ĠT om
ĠtÃºl kun
Ġheimild ar
Ã¡l ykt
ĠkÃ¦r Ã°i
Ġl ung
Ġst efnir
ĠGr und
ĠstÃºd ent
Ã¶ s
3 9
ĠFjÃ¡rmÃ¡laeftirlit sins
ĠÃ¡gÃ¦t lega
ĠHil mar
Ġundanfar na
Ġveit inga
ĠlÃ½s ingu
n andi
ĠrÃ©tt u
kyn hneig
ĠsÃ¦ t
ek jur
Ġs aum
er Ã°a
Ġst Ã½ra
Ġflokk urinn
ĠN i
ĠsjÃ³ manna
Ġneyt enda
Ġgrein ingar
ĠfjÃ¶lg aÃ°
Ġuppl Ã½st
ĠK SÃį
ĠAnd ri
ĠInn an
ĠlÃŃkam anum
ĠsjÃ¡lf boÃ°aliÃ°
ĠvinsÃ¦ la
ĠbÃŃl skÃºr
ĠE verton
Ġfors var
bur Ã°
afÃ©lag a
ĠnÃ½ s
ĠVest fir
Ġp Ãº
Ġpers Ã³n
o Ã°um
ĠsÃ©rstak ar
na pp
ĠB S
ĠlÃ© tu
Ġheyr nar
ali sta
Ġskyld a
bur Ã°ur
ĠsvÃ¦Ã°i sins
ĠÃ¾yng d
bb a
ĠB A
ĠlÃ¶g unum
rÃº nu
n slu
ĠÃŀorg eir
Ġat vikum
ĠStr and
ĠmargvÃŃ sleg
hlutverk i
ĠÃ¶r lÃŃtiÃ°
ĠHel gu
ĠÃ³ heimilt
ĠBandarÃŃk in
al eig
Ġsk jÃ³ta
Ġeig anda
IN G
Ġk yl
els ea
ĠB la
af undi
Ġp akk
Ġeit ur
st Ã¦tt
ĠE va
Ġbens ÃŃn
u ss
ĠsamgÃ¶ng ur
ĠkvÃŃ Ã°a
h Ã³pa
Ġfyrirspur n
Ġfl esta
sf jarÃ°ar
Ġkr ydd
ĠvÃŃÃ° tÃ¦k
fer li
Ġfrumvarp i
ĠQ u
Ġhl ekk
virk junar
ĠdÃ¦m a
Ġkonung ur
f eng
ĠT w
Ġgl Ã¦
ĠÃ¡ reiÃ°
o si
inu e
ĠGÃŃsla dÃ³ttir
ĠÃ³lÃŃk um
Ġrang t
enn andi
ald ra
ĠsnjÃ³ fl
ĠBolungar vÃŃkur
skÃ¶p un
i ska
ĠY ou
Ġlau st
Ġst Ã¡l
Ġendur gjald
Ã¾jÃ¡lf ari
ĠÃįslend ingum
ĠnÃ½skÃ¶p un
Ã¾ Ã¶rf
ĠsmÃ¡ m
T O
b jÃ¶r
Ġgrunn skÃ³lum
b ik
Ġsjald an
f ari
ĠAÃ°al fundur
sl y
Ã³ ri
Ġsk era
Ġung u
ĠtÃ³nleik um
b Ã¦ri
ĠfatlaÃ° ra
Ġvil jaÃ°
Ġgef inn
ĠsjÃ³Ã° num
Ġfrumkv Ã¶Ã°
ur n
ÃŃn ver
ĠH R
at Ã¦kni
ĠP la
Ġl Ã¦ri
Ġglugg a
A f
Ġof angreind
Ġkirkj unni
Ġ ir
ĠSt ofnun
ĠmÃ¡l sl
ĠPat rek
g jar
Ġs ofa
ild ir
ĠbÃ¦ti st
ĠSt Ã¦r
ĠgrÃ¦n na
Ġ198 0
ĠnauÃ°syn legar
ĠLand ssam
ĠS ka
Ġ7 2
ĠBir nu
Ġg ag
Ã¶g uleik
ĠiÃ° k
Ġ198 6
ĠpÃ¡ ska
ĠG al
ĠÃ³ viÃ°
ĠafleiÃ° ingum
ĠH ol
bl ÃŃ
blÃ¡ stur
Ġst Ã¦Ã°i
Ġmennt unar
ĠviÃ°miÃ° unar
afÃ©lag i
ĠlÃŃ t
Ġl amb
ĠsÃ¶m uleiÃ°is
ĠbÃ³ lu
liÃ° ar
Ġfrumvarp sins
ĠÃ¦f inga
Ġh aus
Ġsk ort
Ġtilheyr andi
ĠÃ¾ing manna
Ġd Ã³s
Ġendur hÃ¦
Ġs o
ĠlÃ¡n veit
Ġ jÃ¡rn
Ġst and
ĠF ag
Ġefnahag ssv
Ġen ska
ĠtÃŃm ar
Ġand lega
ĠCh elsea
hel gi
ĠÃ¦ v
Ġenn fremur
Ġtilf elli
ĠUni vers
Ġalgeng t
Ġbor in
t e
ĠÂ ķ
ĠbÃ³k um
o nd
Ġk an
ĠK rÃ³
Ġend anum
Ġein liÃ°aleik
Ġhring ja
Ġs of
ĠFyr sti
Ġfjar ri
and amÃ¡l
l li
Ġmerk t
i pp
Ġs j
ĠFyl gi
ĠÃ¡r slok
ĠT e
Ġfe sta
Ġendursk oÃ°a
Ġveit ingar
ĠÃ¡kvÃ¶rÃ° unar
Ġgrunn skÃ³l
ĠEF TA
ĠsnÃº ast
ĠA s
Ġvel tir
Ġsk ar
ĠnÃ½ veriÃ°
ĠAr sen
ĠEf ni
ĠHÃºsa vÃŃk
ĠF rÃ©ttir
end ingum
E I
un ina
Ãºr slit
an o
Ġhlut aÃ°
ĠE nd
u x
and ann
ĠV Ã¶r
Ġbar ni
Ġster ka
l es
ĠÃŀÃ³rar insson
Ġflug vÃ©l
Ġsann leik
ĠÃģ Ã¦tl
5 9
ĠÃ¾Ã¡tttak enda
Ġt og
Ã¶Ã° var
Ġk repp
tar nir
Ġd Ã¶kk
ĠmÃ¡l in
ĠÃ¾Ã¡tt taka
ĠnÃ¡mskeiÃ° iÃ°
rÃ¦n na
Ġpass a
ĠNorÃ°ur landi
ĠSkÃº la
ist i
Ġmynd arinnar
su pp
ĠÃģ l
Ġstund aÃ°
Ġla unum
Ġjafn rÃ©tti
Ã¡ riÃ°
skÃ³ ga
Ġkall aÃ°ur
ey k
ĠkÃŃlÃ³met ra
Ġsm ÃŃÃ°
kr afa
Ġg la
ĠÃºt sk
sm at
Ġpl Ã¶t
al yf
menn tun
tar Ã¡Ã°
a tion
Ġb ratt
ab et
Ġlit lar
ĠUmhverfis stofnun
s bÃ³k
ĠstjÃ³rnmÃ¡l amenn
Ġeig enda
ĠSel t
ĠÃŀ jÃ³r
Ġfram lÃ¶g
Ġheilsug Ã¦slu
ĠCont inue
yng d
ĠV eit
Ġbir tir
ĠÃºtgÃ¡ fa
Ġd Ã¶nsku
Ġs Ã³s
l Ã½st
ĠÃ¡ varp
Ġfeng i
tÃ¶l ur
ĠrÃ¡Ã° gjafar
Ġl ita
ĠÃ¾ re
ĠmÃŃnÃº tum
Ġskulda brÃ©f
ĠrÃŃk inu
ĠLit li
ĠÃĵ mar
st efna
ĠÃ¡Ã¦tl aÃ°
sh eiÃ°i
jÃº ka
N Ãº
Ġvak t
f yrir
a el
ig n
sÃ¡ Ã¦tl
Ġf inni
Ġhlaup iÃ°
ĠSÃ¦ var
skrif stofu
ĠP ers
sv elli
dal s
Ã¦Ã° in
Ġsil fur
g Ã¶gn
rÃ©tt ur
yr kja
ĠEin stak
ec t
ĠauÃ°veld ara
er u
in o
it al
ĠF rek
rÃ©tt inda
B A
Ġminn ast
ĠÃģstr al
Ġmatar Ã¦Ã°i
ĠB ald
Ġs r
ĠstjÃ³rn enda
Ġta pa
Ġ9 6
ĠsnÃº iÃ°
Ġd oll
ĠH ildur
ĠÃºt gjÃ¶ld
lÃ¦k nis
Ġn e
Ġsp Ã¦n
und urinn
ĠÃ¾or p
Ġbak ter
Ġalger lega
ĠaÃ° lÃ¶g
Ġ9 4
Ġsyst k
al au
ĠHorn afirÃ°i
ĠVer Ã°i
or Ã°i
ĠlÃ¶g gjÃ¶f
arfÃ©lag iÃ°
Ġh o
Ġsp jald
ĠÃ¾jÃ¡lf ara
skar andi
Ġskip aÃ°
Ġalmen ningur
Ġsamskip ta
e b
nefnd a
ĠnÃ½ja sta
ang ar
ĠtÃ¦k ja
Ġrit stjÃ³ra
ĠsÃ©r hÃ¦f
ĠvirÃ°isauka skatt
ĠF Ã¶stu
ĠauÃ°veld lega
Ġb iskup
ĠT ra
skur Ã°ar
ĠÃļ l
lÃŃ fi
Ġtiltek num
ĠbrÃ¡Ã°abirg Ã°a
Ġsam ningar
ĠA ra
Ġd vÃ¶l
ĠrÃ©tt indum
Ġhug leiÃ°
ĠGr afar
ĠÃģ stÃ¦Ã°an
band iÃ°
Ġskil aÃ°i
ĠG arÃ°
lÃŃ nis
ĠTil laga
ĠAf rÃŃku
ĠhrÃ¡ efni
ĠfjÃ³r Ã°ung
ol ÃŃu
sv eitir
ĠaÃ°gang ur
re ina
ĠLeik urinn
Ġ5 1
ĠÃ¾ekk ing
Ġkepp ninni
ĠAnd rÃ©
ĠGunnlaug sson
ĠG rÃ³
Ġst eik
ĠgÃ¶m lum
Ġsamanbur Ã°ar
ĠGyl fi
ĠM erk
E L
il iÃ°
ĠSjÃ¡lfstÃ¦Ã°isflokk urinn
ĠÃºt gerÃ°
rÃ½ mi
ĠFre yr
ĠHver t
Ġf ynd
ĠviÃ°ur kenna
ofn anir
Ġkl Ã¦Ã°a
ĠstjÃ³rn sÃ½
Ġversl anir
ĠkÃŃl Ã³
ĠH eiÃ°ar
sv ein
Ġl u
ĠFer Ã°a
tÃ¦k jum
ĠjÃ³ kst
Ġop nunar
on an
ĠSmÃ¡ ri
b Ã³
Ã¦Ã° ingar
o ck
ĠArc tic
K K
Ġhvet jum
ig i
skyld a
Ġs Ã¶l
j ag
ĠN jarÃ°
sf or
bund na
Ġskipulag i
skap lega
jÃ¶kul s
ĠB and
ĠVilhjÃ¡l m
sh Ã¶ll
Ġsafn sins
ĠstÃ¶Ã°u gleika
Ġminn k
ĠÃŀor k
ĠÃ¡l yk
ĠmÃ¡l smeÃ°ferÃ°
fÃ¶r um
far ar
Ġsamning sins
for d
eistar amÃ³t
ĠÃŀ Ã³ra
ĠA c
stÃ¶Ã° ina
ĠaÃ°al fund
ĠbÃº Ã°
ĠP ark
vÃŃsind asviÃ°
s eÃ°
Ġe p
greiÃ° slur
ĠR Ã³ber
ĠÃ¡stand iÃ°
ĠÃ¾ rÃ¡Ã°
ĠÃį r
n r
Ġtiltek iÃ°
ĠJap an
O S
Ã¡ kvÃ¦Ã°i
ĠmÃº sl
eng sl
ferÃ° in
ld um
Ġbein lÃŃnis
Ġstund ar
ars al
ĠEin ars
Ġsk am
ĠN o
sk ort
Ġtrygg ingar
B R
Ġrey nist
jÃ³l k
ĠÃ³ vÃ¦nt
ĠSÃº Ã°a
g ert
Ġver uleg
sv egar
3 4
Ġklukkust undir
ĠN eÃ°
sh Ã¡
t ans
ĠAr na
Ġskyn sam
eg a
Ġg ÃŃtar
rÃ¦ tÃ³
Ġbur tu
Ġheimspek i
Ġst Ã³l
Ġ9 8
mik iÃ°
Ã³r u
ĠEr tu
5 8
Ġeig num
ĠÃŀÃ³r Ã°ur
ĠSkÃ³g rÃ¦kt
ĠKeflavÃŃkur flug
Ġfylg d
ĠfjarlÃ¦g ja
Ġverk fall
ĠÃ¶ l
Ġbr una
ĠbÃ¦jar stjÃ³ri
afrÃ¦Ã° ingur
Ġdan ska
ĠsjÃ¡ st
ĠTil kyn
ĠrÃ¡Ã°staf anir
Ġsamanst endur
ĠbÃ¦ nda
Ġr Ã¶dd
Ġund ar
ĠL und
Ġn einu
ĠjarÃ° veg
Ġreik naÃ°
sam ninga
v ek
Ġ0 2
ĠstjÃ³rnmÃ¡l um
nu Ã°um
ĠÃºr rÃ¦Ã°i
ĠrÃ¡ Ã°ist
bÃŃ la
ĠF ax
Ġp art
ĠrÃ¡Ã° uneytisins
ĠsjÃ¡lf stÃ¦Ã°
ĠhÃ¡tt ar
Ġval inn
Ġf Ã¶g
Ġalla vega
ow n
ĠSveitar stjÃ³rn
ĠuppÃ¡ halds
esk aup
ĠÃŀÃ³r dÃŃs
ep h
li ta
ĠÃģ her
ne ska
Ġarkit ekt
d er
ig a
bÃ¦r t
arf Ã³lk
ĠskrÃ¡Ã° ir
ĠÃ¡ t
ĠhlutaÃ° eigandi
safn inu
ĠauglÃ½s ingu
ĠW orld
aleg um
h Ã¦tt
Ġsett u
ed ÃŃ
ĠhÃºsnÃ¦Ã°i s
Ġh au
ĠÃ³ tal
Ġmikill ar
veiÃ° ar
ĠÃŀ iÃ°
ĠÃ³ eÃ°l
ĠdÃ³m s
sk Ã½
ĠbÃº i
Ãº f
ĠmÃŃnÃºt na
9 00
ĠV it
ĠR afn
eld a
Ġb jÃ¶r
Ġsk ell
Ġ {
l er
Ã¶f um
Ġlok in
Ġ9 7
gÃ¶ng um
Ġbe inni
Ġra ka
ĠJÃ³ ni
Ġl eiti
ĠnÃ¡ttÃºr unni
ĠViÃ° ar
us e
Ġdrei ft
Ġfor stjÃ³ra
Ġskor a
kenn t
Ġfal legu
ĠtÃŃm inn
Ġtek na
Ġhag a
Ġm aka
Ã¦ dd
ĠumsÃ¦k jandi
ĠÃ¡hug asam
Ġhrey fi
Ġkynn tar
ĠsÃ©r frÃ¦Ã°ingur
P A
ei s
ĠtÃ¶l um
ĠS ey
Ġskil greina
Ġs Ã³t
Ġsk rey
ĠÃ¾y kja
ĠS an
ĠskÃ³l inn
l Ã¶ndum
âĢ ŀ
ĠSt yrk
Ġeigin leika
Ġhitt i
Ã¾Ã¡tt um
Ġ }
ĠJ Ã³la
Ã°a ustur
ĠhÃ³p um
ĠÃºt fÃ¦r
h reins
ĠÃ¾jÃ³Ã° ir
E C
Ġbarna verndar
Ġd rey
Ġfag nar
Ġsv eita
Ġkall aÃ°i
ska par
Ġmann kyn
Ġums agnar
Ġeru Ã°
Ġmis skil
ĠN eyt
ĠLok s
uÃ°u st
ĠÃ¾ing iÃ°
Ġfrumvarp inu
ĠBÃ¡r Ã°ar
ĠliÃ° um
Ġskip ar
ĠstaÃ°fest ingu
ĠÃĵ li
Ġmorg ni
s jÃ³Ã°ur
Ġbr ag
Ġnota st
Ġstof nuÃ°
p art
ÃŃ la
Ġsp ennu
ĠÃ³ per
hver t
sleg ri
Ġre ading
Ġn einn
ĠÃŀess u
ĠaÃ°al fundar
Ġs ala
Ġendur upp
Ã³n ÃŃu
ĠÃ¾ung lyndi
ĠL oka
ĠmannrÃ©tt ind
ĠM ed
Ġbl ind
ĠtÃ³m stund
laus a
fram leiÃ°
Ġfr y
ĠN Ã½r
ĠboÃ° aÃ°
ĠS K
ĠupplÃ½s a
Ġkart Ã¶f
lÃ¡ na
ĠK a
bÃº in
end inga
Ġher bergja
Ã¡ ms
ĠstÃ¶Ã° una
Ġk ald
Ġk Ã¦m
unn iÃ°
ĠK al
Ġj Ã¶fn
ĠArsen al
eyt iÃ°
Ġald raÃ°
ĠfrÃ¡ sÃ¶gn
Ġslit iÃ°
Ġsm ekk
Ġerf Ã°
sh lut
ĠstÃ³r ar
au l
ĠHeilbrigÃ°i s
b yrÃ°i
Ġsnyr ti
ĠrÃŃkis skatt
ĠmÃ¡l Ã¾ing
sp r
Ġvak na
vÃŃ n
ĠsÃ½ nist
Ãº ra
ag ram
ĠH en
Ã¶ sku
ĠÃ³ sam
ĠmÃ¦l ingar
ĠsÃ©rfrÃ¦Ã° ingar
hv ort
ĠhjÃ³l reiÃ°
ĠferÃ° um
ol la
ĠA F
Ġkjall ara
ĠGr and
greiÃ° a
Ġs Ã¦m
Ġg as
arf ull
set ja
Ġsko Ã°uÃ°
Ġflokk num
ĠÃŀÃ¡tt takendur
stir Ã©ttur
ĠfÃ³r narl
hug a
Ġtel jum
jÃ³ Ã°um
ĠÃ³ tta
ĠfjÃ¡r mun
Ã¡ t
ĠhÃ³p sins
ĠkjÃ¶r dÃ¦m
Ġflutt ur
ĠsÃ¶g una
Ġafh enda
fÃ©lÃ¶g um
Ġmet rar
ĠMar ÃŃu
Ġsend ar
gl e
ĠaÃ°st aÃ°a
ĠÃ¡k af
Ġsam i
Ġung menni
Ġtak marka
ĠHÃ¡ skÃ³lann
rÃ¦n ni
ens en
rÃ¦ tt
ĠK affi
Ġgl ÃŃm
ĠhÃ³f ust
ĠhÃ¡deg inu
Ġdrei fingu
sst aÃ°a
Ġsvokall aÃ°a
Ġver Ã¶ld
Ġverkefni s
Ġsm ell
ĠveiÃ° im
Ġst jÃ¶rn
ĠmiÃ° borg
Ġm e
Ġkv eÃ°ur
hl jÃ³msveit
Ãŀ Ãº
ĠblaÃ° iÃ°
Ġdvel ja
ĠljÃ³ Ã°a
ĠstjÃ³rnar and
ĠBjÃ¶rg un
ĠValdim ar
ĠUm sÃ³kn
ĠSÃ©rstak lega
Ġb jug
Ġkepp t
Ġt jÃ³ni
Ġb Ã³t
ver ur
ug a
ynd ÃŃs
ĠÃ¾ing flokk
Ġp i
ast jÃ³ri
ĠÃŃslensk an
Ġsv epp
sf ram
ÃŃ skur
ĠRey ni
kom in
ĠLa un
Ġsvefn herbergi
ĠGrinda vÃŃkur
E A
Ġverk inu
ĠAt li
Ġk var
is e
her ja
ĠÃºt gerÃ°ar
ĠJ u
sl aust
ĠstaÃ°fest ir
ÃŃn ur
Ġj ur
and anum
ĠSam an
Ġli fir
ĠhÃ¦ sta
Ġuppfyll t
Ġeftir spurn
ĠlÃŃf sst
Ġo ss
Ġkref jandi
Ġl o
Ġauk ning
Ġbr ÃºÃ°
Ġvo nast
ĠlÃº ta
Ġ6 2
ĠauglÃ½s a
ĠnÃ¡ miÃ°
ĠSk Ã³
Ġeld ra
Ġgef i
Ġfullyr Ã°
eld u
amÃ³t um
ĠUnivers ity
b ann
Ġfor rit
Ġnefnd ir
ak ir
er um
ĠÃ¾ jÃ³Ã°a
ĠfjÃ¡rhag sÃ¡Ã¦tlun
ĠveÃ° riÃ°
verÃ° launa
Ġl osa
jÃ¶ld um
ĠSv iss
ĠBr Ã©f
ĠMarg ar
virk i
dr ykk
Ġsveig jan
Ġtil boÃ°i
ĠMich ael
mynd a
Ġnot um
Ã¾ Ã¦ttir
Ġp all
Ġdr ott
brey tta
ĠÃ¾ings Ã¡lykt
bo ga
g en
s aga
eÃ° ferÃ°ar
n em
ĠÃŀÃ³r unn
stjÃ³rn in
ĠorÃ° nir
Ġgildist Ã¶ku
Ġlang aÃ°i
ĠB oÃ°iÃ°
ĠnÃº tÃŃma
Ġ7 3
Ġaldur s
un andi
itt er
ĠVer Ã°ur
Ġf acebook
ĠP a
sveit ar
ĠN a
Ġumfang smik
upp lÃ½singar
ĠÃºrskur Ã°i
Ġto ga
Ġv eislu
Ġvand rÃ¦Ã°um
ĠlÃ¶g frÃ¦Ã°i
ĠSelt jarnar
e v
ss el
Ġr ann
ti s
ĠstaÃ° setningu
ĠhÃ¡tÃŃÃ° inni
ĠÃ¾akk ar
Ġdag legu
ĠÃ¦ sku
Ġver t
sker fi
Ġgrip iÃ°
ĠE mb
ĠÃŀ rÃ¡
ĠÃ¦t luÃ°
ĠendurnÃ½ jun
Ġsk rÃŃ
ul ÃŃf
al eyfi
Ġkyn ja
Ġmis sti
am anns
ĠviÃ° rÃ¦Ã°ur
lag inu
vald i
ĠbÃŃl inn
ĠstÃ¦r ra
ĠÃ¡horf endur
ĠÃ¡nÃ¦g Ã°
at al
Ġfr jÃ³
Ġumhverfis Ã¡hrif
ĠEin arsdÃ³ttir
ĠviÃ°urken ningar
Ġrit stjÃ³ri
Ġsam tÃ¶kin
af li
Ġfr els
ĠÃ¾jÃ³Ã° inni
ĠSm ell
Ã¦ f
tt eg
bb i
ĠBlÃ¶nd u
ĠV ak
ĠT Ã¦kni
M A
ĠÃ¦sk ulÃ½Ã°
Ġinn Ã¡
oo gle
l urnar
ĠÃŃslen z
Ġreik nings
bÃº Ã°ar
al engd
ĠÃį Ã¾rÃ³tt
Ã¦m is
ĠbÃŃ Ã°ur
ĠK Ã³m
Ġteg undum
Ġein lÃ¦g
Ġaug un
ĠÃ¶r ug
d isk
ĠB aÃ°
Ã¶gu legt
ĠtÃ³ bak
Ġ198 4
v iÃ°ur
Ġ18 6
ĠNoreg s
ĠgrÃ¡ Ã°u
v efnum
ot u
Ġflu gi
ĠBr yndÃŃs
Ġfar Ã¾eg
ĠG ra
ĠS F
ĠB ak
ĠÃį rak
ru Ã°u
Ġreik ninga
ĠS ara
Ġkv aÃ°
vi ka
um Ã¡la
Ġg ras
ĠE nda
ĠÃºtgÃ¡ f
ĠaÃ° skil
ĠÃ¶r fÃ¡
Ġsk ulum
Ġer tu
Ġhrey fing
Ġkanna st
Ġs ekt
Ġfrest aÃ°
Ġr amm
Ġ0 3
brÃ© fi
ĠverÃ° iÃ°
ĠtÃŃmabil iÃ°
Ġung lingar
ĠfÃ¶ tl
st Ã¶k
ĠSk oÃ°
Ġfrumvarp iÃ°
sl Ã³Ã°
ĠSigur geir
ĠW illi
ĠeÃ°l ilega
ĠSnor ri
n er
ĠÃįbÃºÃ°alÃ¡nas jÃ³Ã°s
Ġalmenn ra
ĠmÃ³t sins
Ġskap aÃ°
ĠsjÃºkra hÃºs
Ġstu tta
Ġs las
ĠpÃ³lit ÃŃk
ing ton
ĠlÃ¦k nar
Ġpark et
Ġtrygg ir
ĠMatvÃ¦ lastofnun
ĠÃºtil ok
ĠR Ã¦tt
Ġend anlega
el a
ĠMik ill
ĠNÃ½ tt
Ġung s
ĠjÃ¡kv Ã¦tt
al of
ĠSuÃ°ur eyri
mi ss
ĠF jar
ĠK enn
holt s
ĠSteingrÃŃm ur
Ġ9 1
Ġdrei fa
afÃ³lk i
ĠhÃ¦f ileik
ĠumrÃ¦Ã° unni
is m
ent s
ĠStein unn
hÃ¶ll inni
ef a
Ġbrug Ã°ist
f jall
Ġley st
Ã¶m b
ĠbeÃ° nir
Ġmill j
ĠLandhelgisgÃ¦ slunnar
ĠUm sÃ³knar
g rip
ei fl
ĠBorgar nesi
eyr ir
ĠstuÃ° ningur
Ġkenn urum
ĠFr ank
Ġv ÃŃkja
Ġfyrirl iggjandi
Ġt e
ĠhÃ¦kk ar
n am
bjÃ¶rn sson
ĠI V
fr jÃ¡l
Ġstarfsl eyfi
Ġg Ã¦Ã°um
Ġa acute
ĠÃĸ l
av Ã©
ĠS ÃŃÃ°ar
ĠfÃ©lag slega
ĠÃ¾ vi
ĠÃ¾r Ã¶ng
Ġsam svar
ey pa
ĠSjÃ¡ var
f ist
is st
ĠP i
Ġskip ulÃ¶g
sf l
ara Ã¾
Ġframhald inu
fang a
un inni
Ġ ag
ĠBretl ands
n Ãºmer
Â ´
ĠsÃŃ mi
breyt ingum
ĠÃĨ t
sp or
ĠaldraÃ° ra
Ġm agni
tÃŃÃ° in
ĠNor rÃ¦na
arl eyfi
Ã¶f lun
sn es
Ġvax iÃ°
ĠÃ½ ta
ĠJÃ³na sson
Ġgeng is
ĠmÃ¦l ir
ĠE Ã°
ĠlÃ¶gregl unni
Ġsk ugga
Ġhaf naÃ°i
as p
Ġlof tiÃ°
Ġkonung s
ĠSt ofn
ark miÃ°
Ġ7 00
Ġfyrirmynd ar
Ġsinn ir
ĠM er
ĠfrÃ©tt atilkyn
Ġh yl
Ġat riÃ°um
3 1
s Ã³tt
Ġfer il
Ãº k
sh repp
ĠsÃ¦ tiÃ°
yl e
Ġhe sta
Ġ198 5
ĠÃĸll um
v iss
ĠV I
ĠÃ¾ ola
ĠS u
ĠmeÃ° fram
ĠM ari
Ġlist amanna
ĠÃ¾riÃ° ji
ygg ja
ĠsÃ©rstak an
bjar gar
ers en
Ġgeg nir
ĠstjÃ³rnar for
ĠfjÃ¶lskyld unni
Ġv Ã¶nd
ĠsÃ¡r s
Ġinnheim tu
Ġfull ri
Ġs Ã¶fnun
Ġstund ir
merk ur
Ġrei sa
or y
s ir
y m
ĠÃ½ms ir
ĠMÃ¡l iÃ°
ÃŃ Ã³
Ã¶ skuld
st Ã³la
ett u
Ġru sl
ĠdÃ¡l ÃŃtiÃ°
ĠÃ¡kveÃ° nar
ss ur
ei sla
Ġskip aÃ°ur
ĠstjÃ³rn unar
ĠBar cel
ĠMiÃ° aÃ°
ĠgÃ¶ng uleiÃ°
ra d
Ġd ekk
ĠB irk
Ġk alt
T il
ĠH it
edÃŃ uleik
b an
Ġversl unum
jÃ³ m
ĠframÃºr skarandi
Ġsam kynhneig
Ġton num
Ġum mÃ¦li
Ġtung u
ĠdÃ¡ nar
ĠskÃ³g rÃ¦kt
Ġhandtek inn
Ġvir Ã°a
rÃ¡ Ã°u
Ġref si
sam ningi
ĠÃ¾ rÃ¦
Ġvar lega
Ġb Ã¶n
ĠSam bands
ĠtilbÃº inn
Ġhreins a
Ġsigur vegar
ĠaÃ°stand endur
ĠrÃ¶k stuÃ°
ĠSlÃŃk t
Ġ7 9
ĠmiÃ° jum
ĠV eiÃ°
ĠP Ã³st
kom an
Ġel la
Ġfug l
on ur
ĠfÃŃkni efna
n ur
ĠÃ¡ Ã¦t
ĠSt ykki
ĠHoll andi
m undar
um enn
sl aga
ĠlÃ¶g heimili
ĠhÃ¡tÃŃÃ°ar innar
ast jÃ³rn
ĠNokk rir
ĠrÃ¡Ã° inn
Ġkepp nis
sk ekk
Ã³Ã° iÃ°
Ġmann inum
Ġskrif lega
Ġf Ã¦Ã°i
Ġlist amann
ust an
Ġvin ur
hjÃ¡l p
ĠTek iÃ°
ind in
Ġey Ã°i
Ġlos na
ĠFÃ©lag sheimilinu
bÃ³t ar
Ġsaf nast
rÃº nar
Ġaug nab
h liÃ°
Ġvel ur
gÃ¦ slu
ĠsveitarfÃ©lag iÃ°
Ġnet iÃ°
Ġken ningar
Ġlegg jum
Ġsegja st
heil su
f Ã¶ng
Ġh all
Ã¡ lastofnun
Ġ18 0
ĠÃ¡f rÃ½
ĠGam la
iÃ° a
ĠGuÃ°m undar
ÃŃsk t
Ġskil ur
ĠumsÃ¦kj anda
ĠUndan far
skur Ã°
ĠEvrÃ³pusamband inu
Ġfyrir bÃ¦ri
ĠSkÃ½r sla
ĠAl mennt
Ġbygg ingarf
ĠSp r
Ġgjald skrÃ¡
dag skrÃ¡
ĠÃģr mann
Ġg ÃŃfur
ĠlÃŃf sh
Ġnafn inu
Ġmer kja
um ar
ĠmÃ¡l flutning
ĠsÃŃ ld
ĠGunnar s
Ġsafn iÃ°
ĠKÃ³m edÃŃuleik
Ġdag sett
Ġd i
x l
Ġj Ã¶fnu
ĠÃŃslensk s
Ġsn il
ĠÃ¡nÃ¦g Ã°ur
ĠaÃ°geng ileg
Ġr eist
Ã¡Ã¦tl unar
Ãº tt
Ġvins Ã¦l
ĠEur ope
Ġvinnust aÃ°
ĠUpp sÃ¶lum
ĠsÃ©rst Ã¶ku
af lug
ju Ã°u
Ġm orÃ°
ĠRey nir
Ġs Ã½r
ĠC ity
Ġhen tug
ĠVer sl
ĠFimm tu
ĠRÃ³ber t
ĠÃ¾r eytt
ĠhÃ¶f Ã°i
Ã¾rÃ³ unar
ĠviÃ° sta
Ġb ikar
Ġhlu st
Ġsner ta
Ġskuldbind ingar
Ġsk erÃ°
Ġtekju skatt
sl ist
ĠÃ¦tl unin
ĠStykki shÃ³l
gÃ¶ng ur
red it
Ġbank ar
ĠFrum varp
ĠH var
ĠmÃ¡l efn
ĠÃºt bÃºa
ĠStein ar
ĠfÃ¡tÃ¦k tar
Ġba kv
vell inum
arf jarÃ°ar
ĠsÃ¦ l
ĠFjall aÃ°
Ġh rygg
h run
ĠHverager Ã°i
Ġsv eif
ĠÃ¡stÃ¦Ã° an
ĠSiglu firÃ°i
ĠvÃ¦g i
K Ã³re
c on
sl au
Ġh Ã¦ttir
ĠfjÃ¶lskyld an
Ġsamanbur Ã°i
Ġs er
Ã¶ Ã°ur
Ġeina sta
ĠFinn landi
Ġstrand veiÃ°
s Ã¡tt
Ġg ar
ĠN ik
Ġsam s
ĠJÃºlÃŃ us
Ġu t
Ġalmen nar
Ġ6 1
Ġfor gang
Ġstefn anda
t engd
ĠSt utt
Ġverk smiÃ°
sp Ã¡
ĠS V
ĠsÃ³t arinn
bygg ingar
ĠbarÃ¡tt unni
ĠmarkmiÃ° iÃ°
ĠÃįslands banka
m t
vÃ¶r Ã°ur
eg inum
ĠlÃŃkam ann
ĠBenedikt sdÃ³ttir
bÃ¡ ta
ag l
Ġsk ildi
ĠR Ã³s
ĠBÃº iÃ°
vÃŃs inda
vatn s
sjÃºkdÃ³m a
Ġtilvik i
Ġp ru
Ġp Ã³l
k s
ĠlÃŃk indum
ĠhryÃ°ju verk
Ġmynd bÃ¶nd
ĠP ro
o up
k vÃŃ
ĠblaÃ° amann
ĠÃįslandsm Ã³ti
Ġkjarasam ninga
ĠSet jiÃ°
Ġm eina
ĠB et
ĠnÃ½ st
ĠmiÃ°n Ã¦tti
bl Ã¶nd
Ġgl ÃŃma
sÃ³knar a
Ãį S
heim a
ĠVal geir
ĠÃ³Ã¾ ekk
ĠBryn jÃ³l
Ġt aug
stof ur
Ġ %
lÃ¦k ni
Ġellef u
au ta
am un
sh l
Ġaf staÃ°a
ĠrÃ¦k tun
ĠbÃºs ettur
ĠN es
Ġsjald gÃ¦
t unum
st Ã³r
sk ju
ĠhÃºÃ° ina
ĠK er
ĠÃ¾Ã¡ verandi
vÃ¶r p
Ġverk sins
ĠrannsÃ³knar nefnd
ĠT akk
Ġrit aÃ°i
drÃ¦ tti
h yr
Ġm amma
ĠEy Ã¾Ã³r
Ġf iÃ°
Ġ0 4
ĠÃģstral ÃŃu
Ġl ÃŃm
ĠHÃ¦ stirÃ©ttur
arÃ¡Ã° uneytisins
arg jald
Ġteik ni
ĠbÃŃ lum
ĠbrÃ¡Ã° skemmt
ĠÃ¾jÃ³Ã° garÃ°
Ġh Ã½s
ĠAx el
Ġb rÃ³Ã°ir
Ġvar Ã°i
ĠA uÃ°ur
prÃ³ fi
ĠumrÃ¦ dd
ĠmÃ¶guleik i
Ġfel ast
Ġbank inn
Ġg Ã¶tur
Ã¦ fingar
blaÃ° inu
Ġhjar tan
ĠÃ¾ jÃ³n
ĠM ac
s ÃŃm
ĠRÃºss landi
ĠF jalla
sÃ½ ning
ĠhÃ¦li sleit
ÃŃ us
Ġsum ars
ĠnÃ¡lg un
ĠÃ¡kaf lega
Ġ jar
ĠÃ¡k Ã¦ru
unar kerfi
ĠC a
Ġskap ar
Ġaf laÃ°
Ġnokkur s
Ġk n
ĠlÃ¡ ti
Ġmikil la
ey mi
ĠG reiÃ°
ĠÃ¾ekk ta
ĠÃŀess a
ĠMynd ir
Ġlif aÃ°
ĠÃ¾Ã¦tt inum
aÃ° gerÃ°ir
ĠmÃ¶g uleg
Ġerlend ir
Ġp il
Ã³ su
at ÃŃm
Ġalls herjar
ĠÃģr nes
ĠK A
kon ur
Ġg lÃ¶g
Ġklukk utÃŃma
Ġk ÃŃkja
ĠN auÃ°
ĠSv eins
ĠÃ¾ekk ir
Ġleik ir
ĠfrÃŃ tt
Ġey tt
Ġpip ar
p era
sl aug
Ġskip tast
Ġhugmynd afrÃ¦Ã°i
ĠR g
ĠJam es
ĠEr la
ĠstaÃ°fest ingar
Ġhelm ing
ĠG engiÃ°
tal iÃ°
ĠerfiÃ° leikum
Ġsk riÃ°
hv arf
Ġstofn aÃ°ur
ĠB ank
ĠG agn
Ġvir kja
ĠVer iÃ°
Ġm Ã½
Ġy tri
Ġendur greiÃ°slu
3 2
as Ã¶m
ĠblaÃ° inu
ĠkvÃ¶ld i
ĠP o
ung um
ĠrÃºm um
v eÃ°
Ġskot iÃ°
Ġtilheyr a
ĠsjÃ¡lf krafa
f s
Ġvar pa
ug ur
Ã° unar
ĠNor di
ĠreiÃ° u
Ġl Ã³Ã°ar
Ġd Ã³
ĠAr on
ĠOr Ã°
ĠalÃ¾jÃ³Ã° legu
ĠlÃ¦r Ã°i
ĠFrÃ©ttablaÃ° inu
ar y
Ã¦ ka
ĠÃ¦ fingu
Ġk Ã¶r
Ġhe yrir
ÃŃ ur
ĠÃĿ ms
Ġung ur
Ġm yrk
sv if
Ġstytt ri
ĠBru ssel
ĠsÃ¶g Ã°
ĠannaÃ° hvort
Ġvettvang ur
Ġst rey
Ġein dreg
Ġdval ar
ĠlÃ½Ã° veld
h ann
ĠMÃ¶r g
Ġbank anum
ĠFyr ri
gjÃ¶r Ã°
ĠVÃŃs inda
ei sl
ĠSk ar
Ġend ar
ĠsÃ© um
verÃ° launin
ĠStef nt
end ast
Ġhlut ina
Ġl e
ĠSt ar
Ġhl ÃŃÃ°ar
ĠkrÃ³ nu
ĠendurskoÃ° unar
Ġsty Ã°ur
ĠmÃ³t un
ĠG oogle
Ġp opp
Ġ197 0
ĠnÃ¡gr ann
ĠrÃŃk jandi
ĠAn gel
ĠH aust
Ġsk ÃŃÃ°a
Ġhvor u
ĠK ald
Ġheimil inu
ver Ã°ir
Ġkom m
Ġ11 0
ĠÃŀrÃŃ r
ĠT orf
Ġstyr kur
ĠbÃºn aÃ°i
ind ar
ĠframkvÃ¦md um
h y
ĠÃĸ g
ĠReg lugerÃ°
ĠÃŀriÃ° ju
ei p
Ġloftslag s
Ġn yt
ĠGarÃ°a bÃ¦jar
Ġ13 0
ĠAustur lands
ing unum
sÃ¦ i
f ag
ĠfÃ© llu
o sti
ager Ã°arinnar
h ar
ĠfljÃº ga
dal ur
ĠA D
syn legt
Ġfullkom lega
d an
ur Ã°ar
ĠLands virkjun
ĠfjÃ¡rhag slega
ĠN afn
Ġkra bbameins
ĠEm il
ĠfjÃ¶lskyld una
ĠÃ¡ byr
ĠdÃ¡ sam
ĠD om
Ġhrey fingar
A mer
Ġhver fi
Ġmerk ir
ĠÃģs dÃŃs
ig ht
Ġbr eidd
Ġhlut deild
Ġval i
ĠvÃŃs it
Ġeftir t
Ġb rÃ³Ã°ur
Ġvit nesk
ĠJÃ³n ssonar
Ġsamning num
ĠgjaldÃ¾r ota
ĠmatvÃ¦ li
Ġg en
ĠS ÃŃmi
Ġhlu tu
Ġjafn aÃ°ar
ĠÃĸn nu
bÃº um
Ġ ï
heimild ir
h an
Ġtil vil
ĠsiÃ° ferÃ°i
ĠstÃ¦ kka
ĠÃŀÃ³r hall
ĠÃ¶r ork
Ġhagsm unum
ĠfjÃ¶lmiÃ° lar
O W
ĠlÃŃ tinn
i b
ĠF ann
Ġfar nir
Ġfor manni
ĠArn Ã³r
jÃ¶r num
Ġs miÃ°
ĠF R
Ġfund ust
ĠSp ort
Ġfram vegis
Ã Ŀ
amenn sku
Ġtap aÃ°i
Ġeinstak t
Ġber g
ĠrÃ¡ Ã°i
ĠtÃºl ka
20 16
Ġundirrit aÃ°ur
ĠGu Ã°i
Ġs or
ef s
l Ãºbb
ĠH onum
ĠhÃ¦f ileika
ĠMÃ³t iÃ°
ĠV et
ĠsÃ©rstak ri
ĠBÃ¦ nd
Ġgist i
ĠÃºtvarp s
ĠAtl ant
Ġatkv Ã¦Ã°um
Ġauk inn
ĠsjÃ¡ i
ĠBr agi
ĠmÃ¦l st
ĠLo gi
h Ã¶ld
ĠrÃºm ar
Ġw ith
ĠMiÃ° viku
ĠÃ¾ rif
ĠSt Ã¦rÃ°
Ġlit um
ĠÃ¾ekk jum
ĠNÃ¦ sta
f rÃ¦
Ġl estur
Ã¾Ã¡ tta
ĠrÃ¡Ã° uneyti
ĠB or
ĠsÃ¡ st
Ġvatn inu
ĠlÃ¡ gu
ĠÃ¾jÃ³ na
Ġung ra
Ġb ana
ĠrÃ¡Ã°her rar
Ġ it
ĠF undar
fyl g
starf inu
Ġminn kar
ĠhljÃ³ p
sp rÃ³f
sst yr
Ġk Ã³k
ĠÃŀÃ³r s
ĠS ly
ĠsÃ³l in
ĠKr ing
af one
ĠfÃ¦r ir
Ġleig ja
Ġst illa
ĠMosfells bÃ¦
ĠlÃ¡ tinn
Ġh rÃº
sh Ã¶fn
Ġnot enda
Ã¾Ã¡tt ur
Ġi P
ĠhÃ¶fuÃ°borgarsv Ã¦Ã°isins
ĠÃ¾akk ir
ĠSamfylk ingin
Ã½ sti
ĠE im
Ã¾ jÃ³n
ĠskÃ³ lag
ĠÃºtsk Ã½ra
mÃ¡l iÃ°
ĠÃ³lÃŃk ar
Ġvinnu veit
la u
ger Ã°i
ĠFisk ist
ist an
Ġg oÃ°
ĠÃŀÃ³rar insdÃ³ttir
st oÃ°
ĠrÃŃf lega
Ġsp Ã¡Ã°
Ġset ningu
ĠlÃ¦r dÃ³m
ĠsÃŃÃ°astliÃ° num
Ġbirt ingu
on y
ĠfyrirtÃ¦k is
ĠÃįsra el
Ġef sta
Ġheimil um
ĠinnleiÃ° ingu
ĠstÃ¶Ã° var
ĠÃįslandsm Ã³t
ĠskÃ¡ ta
g rÃ¦Ã°slu
Ã¦ tta
ĠsÃ© ra
Ġvirk an
ĠL ey
rÃ©tt um
ĠF ulltrÃºar
ĠEnn fremur
slÃ¶g reglu
ĠStranda byggÃ°ar
N D
kr af
ĠnÃ¡ttÃºru lega
ĠMatth ÃŃas
Ġstarf inu
ĠS w
ĠS Ã¶kum
Ġgjald ker
fl okki
Ġhug tak
ĠUpp haf
ld ir
r unum
Ġeignar hald
an Ã³tt
Ġnem end
ĠhÃ³p ar
bund num
Ġupp eldis
Ġbein um
Ġgrein ina
hÃ¡tt ar
Ġframmist Ã¶Ã°u
Ġver ra
ĠliÃ° inn
ĠNokk ur
ĠÃ³ tt
ĠV iss
efn an
ĠÃ³viss u
of b
Ġ9 3
ĠM eiri
ĠAl geng
Ġvar an
ĠnÃ¡m u
Ġkjar na
ĠStarf sfÃ³lk
ĠÃ¾ inni
Ġinn ÃŃ
Ġein ingar
Ġtr om
ĠfjÃ¶lbreyt ni
ĠniÃ°ur staÃ°an
stÃ¶rf um
Ġregl na
Ġf im
Ġver ri
sv Ã¦Ã°um
ĠblaÃ° sins
ĠSag Ã°i
ĠundanÃ¾Ã¡ gu
ĠbÃ¦jar rÃ¡Ã°s
d rif
Ġk ÃŃnver
ĠÃĵl Ã¶f
ars Ã½
ĠtÃ¦k jum
Ġraun inni
ĠV od
ĠhÃ¡l ft
7 7
arf rÃŃ
r Ã¶nd
Ġfund a
ĠMagn Ãºss
l ynd
Ġkaup um
Ġaf skaplega
Ġinn sÃ½n
Ġkli pp
ag an
ĠS y
irk jan
ĠmÃ¡nu Ã°ir
ess i
h et
ĠmeÃ° gÃ¶ngu
tek jur
Ġvest fir
ĠL yk
h vÃŃ
ĠmÃŃ nir
ĠMarg t
5 1
8 0
Ġb y
Ġd att
bor iÃ°
ĠslÃ¦m t
ĠstaÃ°fest i
ĠÃŀjÃ³Ã° leik
G A
Ġd rukk
Ġfylg ist
firÃ° ingar
Ġm sk
Ã¶g un
ĠG K
Ġsyn gur
ĠSag an
ĠleiÃ° i
Ġendur heim
Ġkraf ta
ĠfrÃ¡ s
ĠmÃ¦li kv
ĠhjÃ³n in
w ood
ĠÃ¾Ã½ ska
ĠH alla
berg s
Ġskip um
Ġe ilÃŃf
Ġc om
ĠÃ³lÃŃk legt
Ġdeil t
Ġsamstarfs verkefni
ĠF rÃ©tt
Ġt Ãºn
ĠG a
ĠEr lend
Ġbarn inu
ĠlÃ© tta
flu tt
Ġsl Ã³Ã°um
skoÃ° unar
aland sliÃ°
as ar
Ġuppfyl li
Ġst olt
ĠH eildar
ĠBreiÃ°ab lik
ĠÃŃtar lega
ĠM et
Ġuppbygg ingar
Ġupp tÃ¶ku
ĠHl yn
ĠlÃŃfsst ÃŃl
ĠD onald
Ġrey ni
ĠB est
ĠlÃ¶greg la
ĠfullorÃ° na
epp i
ĠbÃŃ lar
ÃŃ Ã¾rÃ³tt
ĠS Ã³tt
Ġsvig rÃºm
j ana
ĠTv Ã¦r
ĠrithÃ¶f undur
ĠSÃŃÃ°u stu
Ġd eig
unn ur
ĠgÃ¦ tir
ĠsjÃ¶ tta
ĠAld rei
T H
ĠH B
ĠÃĸ ssur
ĠLÃ¦k jar
sm anni
ĠmÃ¡l efna
ĠnÃ½ ir
em ent
tur nar
ĠhÃ¡ v
ĠVins amlegast
Ġn jÃ³ti
Ġh et
ĠÃģ hrif
ot s
ĠF ish
ust ofu
ĠsÃ½ ndar
asam taka
sf jÃ¶l
Ġko ll
Ġsvar iÃ°
ĠFl eiri
RA M
Ã¾ rÃ¡
Ġk ÃŃk
ĠEr indi
Ġt Ã©
ĠnÃ½ liÃ°
menn ta
sl ita
ĠM il
ĠvÃ¦nt ingar
Ã¶ ss
ofn ana
ĠstjÃ³rn skip
ĠBre ta
Ġset jast
Ġfl Ãº
ĠRey ndar
ĠT ill
ras il
Ġrek tor
Ġr of
ĠsÃ¡l frÃ¦Ã°i
ug ar
os e
verk efnum
ĠHjal ti
rau sta
Ġbekk jar
Ġful la
ĠSl Ã¶kk
b olt
Ġferm ingar
ĠF jarÃ°a
5 4
Ġum gengni
Ġfr esta
fr eÃ°
ĠP ri
ĠViÃ° reisn
Ġvex tir
Ã¦r t
ĠKÃ³medÃŃuleik hÃºsiÃ°
p Ã³st
ĠljÃ³ sm
ic e
Ġtil vist
ĠS vart
Ġgjald a
Ġdeili skipulagi
sp ar
ĠUm boÃ°
Ġfors enda
f li
mund sson
ĠLÃŃk t
Ġk Ã¶flum
ĠÃ¶r orku
Ġeink enna
bÃ¦ nda
ĠstjÃ³rn in
ĠfjÃ¶lmÃ¶r gum
ĠÃºtb reiÃ°slu
ĠF Ã³r
Ġbirt ingar
Ġfeng ist
Ġr okk
au pp
arf ram
ĠverÃ° lag
ĠÃ¦ tÃŃÃ°
Ġvest ra
Ã¶r um
andi c
sp jall
pr ent
Ġreg n
ĠBarcel ona
ex ÃŃk
iÃ° i
' s
Ã¦ lu
ss veit
Ġkv aÃ°st
Ġst ÃŃf
Ġung um
Ġmis jafn
Ġs endur
ĠfÃ©lag sf
ĠrÃ©tt lÃ¦ti
sÃŃ Ã¾rÃ³tta
1 00
ĠVod afone
ker fis
ĠG etur
sli tak
mm u
ĠSam t
Ġvik una
Ġsamning inn
afrum varp
arf lug
Ġtek nir
ĠlÃ¶g frÃ¦Ã°ingur
ĠlÃ¡ ni
H Ã©r
Ġt akk
Ġhv al
verk smiÃ°ju
as onar
rÃ³ fi
ĠÃįsafjarÃ°ar bÃ¦
ĠNorÃ°url Ã¶ndunum
ĠkÃ¶rf ub
ĠkvÃ¶ld in
Ġri sa
Ġalvar leg
n sla
Ġbak iÃ°
ĠgrÃ³Ã°ur hÃºs
ul la
Ġi acute
ĠÃ¦tt um
ĠstÃ¦ kk
Ġd eyja
Ġsam keppnis
ĠnÃ¡gr anna
Ġt en
ĠM in
jÃºk run
Ã¦Ã° ra
ĠVeg agerÃ°arinnar
a sk
Ġsterk ari
ĠnÃ¡ttÃºr unnar
ĠsjÃ¶ unda
ĠL Ã½Ã°
ĠbÃ³k staf
ĠÃģkv eÃ°iÃ°
h and
ĠvÃŃsb endingar
ĠN e
ĠrÃ¡ Ã°um
ĠnÃ½ tast
ark ost
Ġgr ÃŃn
gar Ã°i
Ã¦l ingar
ĠReykjanes bÃ¦
ĠsÃ³k n
ĠumboÃ° smanns
ĠD es
ĠbÃ³ ndi
ĠvinsÃ¦ lda
ver Ã°an
Ġj Ã¶rÃ°u
Ġtv ennt
Ġvax tar
Ġfyr stur
skip a
z a
ĠLeiÃ° bein
f ars
ĠeyÃ° ileg
el lu
ĠH est
ph Ã©Ã°
ĠÃ¾v ag
ĠRang Ã¡r
Ġk vart
ĠfjÃ¶l breytta
Ġleg gi
hl Ã©
ĠSt und
ĠI sl
Ġ qu
ĠÃ³g n
ĠÃ¾ Ã³k
ĠrjÃ³ ma
Ġm Ãºs
Ġ198 3
Ġflutt u
ĠfjÃ¡rmÃ¡l afyrirtÃ¦ki
gild andi
Ġg Ã¦Ã°
gjald a
Ġhre inu
ĠsjÃ¡lf smynd
amiÃ° stÃ¶Ã°
Ġvinn una
arfÃ©lag sins
if r
ĠhÃ¡tÃŃÃ° lega
Ã¶k un
vi a
Ġskor tur
ĠSt Ã³ra
ĠLit la
Ãº b
annsÃ³k nir
Ġrek in
sf er
sl Ã³
Ġleggja st
brau ta
re ka
ĠjÃ³ lag
ĠhÃ¡tt aÃ°
Ġbor Ã°i
Ġbjug gu
ĠJ Ã¶k
Ġkvenn afrÃŃ
jÃ³ slega
Ãŀ etta
ĠRi ch
Ġhann aÃ°
ĠÃ¦ Ã°a
Ġallt of
ĠÃ¶rugg t
Ġm Ã¶mmu
ĠÃ¡b endingu
ot ni
Ġsl Ã©tt
ĠglÃ¦s ilega
ĠGrÃ© tar
Ġst akk
Ġsaman tekt
at riÃ°
Ġlei kk
ĠP rÃ³f
ĠfÃ©lag smÃ¶nnum
eistar ar
n aÃ°urinn
r oss
ĠskÃ³la stjÃ³ri
om e
verk smiÃ°
ĠBi blÃŃ
ĠSkar phÃ©Ã°
ĠhÃ¶f unda
ĠH anna
ĠdÃ½r um
sl ys
rÃ³ nu
ĠlÃŃkam lega
sÃ½ ningar
ĠdÃ³m stÃ³la
Ġall skonar
ĠEyrar bakka
arsv Ã¦Ã°i
Ġaugl jÃ³st
ÃŃs il
ĠÃ¾ rett
Ġn efnir
laus ir
ĠKom iÃ°
Ġleik ja
ĠflÃ³k iÃ°
ĠUms Ã¦k
ĠJÃºlÃŃ u
aÃ° ferÃ°ir
ĠK e
ĠNÃ½ skÃ¶punar
ĠrÃ©tt inda
jan legt
Ġmeng un
ĠsparisjÃ³Ã° sins
Ġm ore
ĠÃ¡ skrif
ĠskÃ¶p unar
on es
4 3
ĠK et
liÃ° iÃ°
ĠDavÃŃÃ° s
g n
ĠInst agram
Ġfeg urÃ°
ĠT ex
Ġfor tÃŃÃ°
ĠrÃ¦k ta
Ġhor m
ĠaÃ°st Ã¦Ã°
Ġkenn ir
IN N
Ġbann aÃ°
Ġbl aÃ°s
ĠEgils stÃ¶Ã°um
ĠTv Ã¶
ĠB rÃº
ĠR ak
ĠR ut
sv eg
ĠhÃ¶f Ã°um
Ġnot aÃ°ir
sÃ½ ningu
Ġfjar skip
A l
ĠS i
Ġr eiÃ°i
ĠK i
ĠhliÃ° ina
Ġhol lustu
sk ila
ĠskÃ³l ar
bund inn
ĠAt vinn
s eti
t Ãºn
ĠL jÃ³s
Ġsn ert
breyt ing
sh rey
Ã¾jÃ³nust an
s Ã¶m
Ġs jÃ³Ã°a
Ġb inda
ĠP aul
ĠvÃ¶r slu
in m
ĠmannrÃ©tt inda
ĠB al
Ġsett ir
Ġey Ã°u
ĠÃ¦vint Ã½ri
st Ã©tt
Ġpist li
Ġv eidd
ĠrÃ½ m
ĠKrist insson
Ġel sk
ĠÃ¡skor un
ang t
grein ar
Ġfyrir bygg
ĠSam band
Ġ36 5
Ġbr os
Ġ7 1
ĠbÃ¦jar stjÃ³ra
AN D
breyt ingu
jÃ³ Ã°urinn
Ã¾jÃ³ Ã°ar
ĠÃ¦vintÃ½r alegu
ĠmÃ¡ ta
Ġupp sker
ĠFrek ari
h Ã¶nnun
ĠR ann
Ġhi ttast
b it
Ġerlend u
ĠrÃ¶k stu
Ġf oss
Ġborg ina
ĠsambÃ¦r ileg
Ġh rÃ¦Ã°
ort h
Ġsvip uÃ°um
ĠNorÃ°url Ã¶ndum
6 0
ĠbÃ¡ Ã°a
Ġvel linum
ĠLÃ¡ g
y tt
b ifreiÃ°
hÃ¡tÃŃÃ° inni
Ġb an
ĠsamÃ¾ykk tum
br o
ĠMÃ¡ nu
ĠmÃ¶guleik ar
ĠbÃ¦ j
ĠÃĨ tl
Ã¡ byrgÃ°
byr jun
skÃŃr teini
ĠfrÃ©ttatilkyn ningu
stefn an
ĠL Ãº
ĠBald vin
Ã³t ek
ven tu
ĠHÃ¡ skÃ³lanum
ara dÃŃs
aÃ°st oÃ°
ĠSmÃ¡ ra
v ins
sk arÃ°
Ã³p eru
ĠVinn um
ĠNA TO
ĠÃ¶flug t
Ġst emm
ĠK o
Ġ8 2
m Ã³ti
ĠG o
Ġeitt hvert
ĠLands virkjunar
Ġveik indi
Ġ17 0
ĠHjÃ¡l mar
Ã¶f lu
Ġmynd avÃ©l
Ġs Ã¦tt
vit und
Ġskemmt un
st rey
rÃ¦ nar
ĠljÃ³ sa
lend i
sÃ½ ki
ĠverÃ° launin
ĠVerk efni
Ġeinfald a
Ġhita stig
Ġvinn unni
Ġ198 2
ĠhÃ¡l fa
ĠjÃ¶kul inn
Ġ ind
S c
ĠM Ã¦
sh lu
ĠÃ¾ingsÃ¡lykt unar
Ġf eÃ°
Ġvon ir
ĠSveinbjÃ¶rn sdÃ³ttir
veit ingar
Ġbratt ar
Ġt Ã¦m
ĠEvrÃ³ pur
ĠskÃ½r sla
ĠLÃ¡ ra
ĠljÃ³smynd ir
Ġskip an
ĠÃ¡v ax
ken nd
ĠfjÃ¶lskyld unnar
ĠPers Ã³nu
ĠÃ¾arf nast
ĠKrist s
vald iÃ°
ĠTrygg vi
ĠF A
ĠÃį B
ĠÃŀÃ³r arinn
Ġstr eitu
ĠÃŀÃ³ ri
ĠM eistara
deild arinnar
Ġtil komu
Ġ198 1
Ġsterk t
Ġsk jÃ³
ĠsÃ©r stÃ¶Ã°u
Ġsameigin leg
or ka
ĠÃ¡h eyr
Ġh Ã¶ldum
Ġy tra
brig Ã°um
ĠKol brÃºn
Ġskilgrein t
ĠHu lda
f in
Ġfrem stu
ĠBjÃ¶rgun arfÃ©lagi
s onar
af lutning
Ġk ap
ĠnÃ¡mskeiÃ° i
ĠAlex ander
Ġv eir
Ġauk nu
ĠÃ¡rangurs rÃŃk
ĠAl bert
ett e
Ġd u
Ġal heim
5 3
k aupa
Ã¶ tun
ĠM Ãº
ĠM ak
Ġp akka
lÃ½s ingum
tu stu
ĠbrÃ¡Ã°skemmt ilegu
ĠÃ¡ratug num
ĠmiÃ° ja
Ġfyl k
ĠsÃ¶g um
ĠfÃ¡tÃ¦k t
heil brigÃ°i
f ingin
an em
na uÃ°
ĠferÃ° amÃ¶nnum
N N
Ġmerk ingar
h Ãº
Ġ8 3
Ġsett um
Ġst em
li starf
Ġm il
ĠBjÃ¶rn sdÃ³ttir
sl unefnd
ĠbÃº um
Ġgam alt
f rÃŃÃ°ur
ĠEr ling
Ã¡r dal
Ġfl jÃ³
s Ã¶ng
Ġd al
Ġleik skÃ³l
ĠEn gar
tÃŃm ann
ĠÃ¾jÃ¡lf a
gr eitt
ĠframkvÃ¦mdast jÃ³rnar
ĠtilbÃº iÃ°
ĠBlÃ¶nd al
ĠÃºt rÃ½
ĠeÃ°l ileg
ĠVeÃ°ur stofu
Ġvar ir
af ulltrÃºi
hÃ³p num
ĠÃĨ sk
ĠÃį A
irk om
ĠhÃ¶g gum
Ġhor fir
ĠjÃ¶rÃ° ina
Ġinter net
ĠÃĵ pera
ĠElÃŃs abet
Ġtengd um
ĠvarÃ°v eitt
ĠSeÃ°la bankinn
Ġsm Ã¦rri
ĠAt vinnu
Ġteng i
dÃ³m stÃ³l
ĠnÃ¡mskeiÃ° um
Ġfatl aÃ°s
jÃ¡ kvÃ¦m
Ġheim amenn
ĠStokk hÃ³l
ĠS Ã¶m
l s
Ġsv ik
gang urinn
ĠbÃ³ ginn
kepp ninni
Ã¡ ta
ĠSt ra
at s
ĠÃ¾jÃ³ nar
ĠGyl fa
ingar nir
ĠbÃŃlast Ã¦Ã°i
Ġvinn ing
Ġ16 0
Ã°u Ã°u
Ġeigin fjÃ¡r
vÃ© la
torg i
ĠgÃ¦slu varÃ°
Ġhr ogn
ĠH rey
Ġgam li
ĠVon andi
Ġ10 5
ĠBer gl
Ġn ett
Ġsk ella
Ġsk aut
ĠrÃ©tt lÃ¦
ĠtÃ³n skÃ¡ld
Ġjafnt efli
ĠBjÃ¶r t
P S
ĠflÃ³tt amanna
ĠrÃ¡Ã°stÃ¶f un
Ġbrey tir
I V
legu stu
ĠSÃ³l veig
Ġmat ur
ĠkjÃ¶r inn
ĠBl aÃ°
Ġaf rit
ĠT o
ĠP an
irkom ulag
ĠbÃ³k hald
Ġspur Ã°ur
ikv Ã³ta
v irÃ°
leg gja
am Ã³ta
Ġnem anda
ĠÃ¡huga verÃ°
Ġflokk ar
eng ingu
Ġkyn ning
ĠhÃ¦ star
Ã¾ yngd
Ã½s ingu
ĠSam starf
Ġstel pur
frÃ¦Ã° ileg
ĠÃºtskrif aÃ°ist
ĠmeÃ°hÃ¶nd lun
ĠÃŀjÃ³r sÃ¡r
Ġley fir
ĠrÃ¡Ã°stefn unni
Ġ197 4
raust i
li pp
exÃŃk Ã³
Ġn Ã³t
vÃ¦Ã° ingu
Ġh Ãºm
Ġbarna Ã³peru
ĠV o
gr und
ĠStjÃ³rn in
Ã¾ekk ingu
an Ã¡mi
c y
ĠÂ ´
Ġminn kaÃ°
Ġu ll
ot h
ĠlÃ¡ tin
ĠstÃ½r ir
ĠL os
ĠlÃŃn ur
ĠfÃ³lk inu
ĠS Ã¶l
Ġhug takiÃ°
Ġbl Ã³Ã°i
ast Ã¶Ã°um
jÃº pa
ĠfÃ¦r Ã°u
ĠleiÃ° ar
Ġsner tir
Ġe inna
Ġ8 1
auÃ° l
ĠC l
ĠsvÃ¶r um
ĠÃºrskurÃ°ar nefnd
Ġnefnd i
ĠÃ¦f ingum
ĠÃ¾ri svar
v exti
Ġhef Ã°um
ast er
Ġafh enti
Ġtim bur
eÃ° ja
Ġhugs aÃ°i
st il
ĠAl men
Ġd eginum
ĠÃģrna dÃ³ttir
Ġatvinn ugrein
ĠAt la
d f
Ġ196 0
b Ã¶ndum
ĠP en
ĠHÃ¡l f
ĠV opn
Ġhr aÃ°ar
Ġmiss eri
Ġsta ddur
Ġhlu tur
Ġ197 9
hÃ¶f um
ĠskoÃ° unum
drÃ¡tt ur
I T
er Ã°arinnar
ĠkjÃ¶r tÃŃmabil
ĠEftir lit
Ġhvers dag
Ġsvok Ã¶lluÃ°
ĠS uÃ°
Ġundan keppni
ĠÃ¡ rek
ĠtÃ¦kif Ã¦riÃ°
Ġsafn inu
Ġ197 8
ĠVest firÃ°inga
Ġtald ir
Ġsum rin
Ġstund aÃ°i
inn u
ĠnÃ¡ Ã°ist
ĠTw itter
Ġfl Ã³Ã°
Ġborg arf
r enn
ar e
yr a
ĠdÃ³m ar
ĠPatrek sfirÃ°i
Ġnor ska
ĠN ey
ĠlÃŃ tra
ĠW est
ĠÃ¾ Ã¶kkum
Ġumtals vert
ĠmikilvÃ¦g u
Ġn eina
Ġveg ur
ĠTrygg va
ĠguÃ° s
ĠhvÃŃt lauk
mÃ¡ last
Ġfyrirhug aÃ°
menn irnir
sst aÃ°
ĠHeil s
ĠprÃ³ fi
Ġneyt endur
ĠmiÃ° lun
Ġgist ingu
t Ã¦ka
cc ia
ĠhvaÃ° an
hÃ³p i
f rÃ¡
Ã³ si
Ġtel jist
ĠÃ¡kv arÃ°
Ġ14 0
stjÃ³r ans
ĠÃ¾ur ftu
ĠmÃ³t mÃ¦la
Ġf Ã³Ã°ur
Ġs eiÃ°a
lag rÃŃm
breyt inga
ch e
ĠvarÃ°v eita
is ma
Ã¦g ur
ĠÃ¾jÃ³Ã° erni
Ġbar dag
ĠferÃ° ina
ĠVestur lands
ĠÃ³ Ã¡nÃ¦g
Ġhug ann
ĠÃ¡r eitni
Ġkl Ã³
ĠÃ¾jÃ³Ã° fÃ©lag
Ġkr em
Ġfram ar
ĠR E
Ġskip tingu
5 2
ĠÃŃÃ¾rÃ³tt um
Ġraunver uleg
ĠvÃ¡trygg ing
ĠÃ¾ rau
var n
Ġalmenn ri
ĠSt raum
ĠðŁ Ļ
sl Ã¦k
ent er
Ġh art
ĠAÃ° spur
ĠÃ¶ nn
Ġleik hÃºs
Ġaf komu
ĠÃ³ gl
Ġhl aÃ°
Ġmannesk ja
ut ÃŃm
ĠUmsÃ³knar frestur
Ġsaman boriÃ°
hor ni
ĠundirbÃº ningur
vÃ¶r num
Ã¾ing sins
frÃ¦Ã° ilega
Ġbo ccia
ĠlÃ¡g t
f rey
ag arÃ°
ri tum
und sson
ĠlÃŃkams rÃ¦kt
ĠBreyt ingar
Ġg jafa
ĠK K
ĠÃ¡rsf jÃ³rÃ°ung
i ka
ĠsjÃ¡lfbÃ¦r ni
Ġh enda
am Ã³ti
ĠK la
Ġk ir
ĠlÃ¶g gjafar
ĠGr anda
ĠlÃŃfeyriss jÃ³Ã°a
Ġafs Ã¶kunar
ĠH rÃº
Ġtal ist
ĠÃģr s
ĠJÃ³h Ã¶nnu
ĠorÃ° alag
ĠCh rist
hrepp ur
v all
iÃ° ju
eftirlit s
v ur
f yll
Ġg ir
vÃŃ sa
ĠstrandveiÃ° ikvÃ³ta
rÃ¡ n
Ġbjar g
Ġlang tÃŃm
ic a
ĠvÃŃÃ° svegar
ĠHvÃŃ t
Ġfer sk
Ġstig agerÃ°ar
m ars
Ġsam eina
ĠTrygg ingastofnun
ĠA L
ĠhÃºs n
Ġleik verkiÃ°
ĠnÃ³tt ina
ur r
ĠK osning
ĠrÃ¡Ã° legg
ĠÃºtboÃ° sg
ĠÃºr slitak
iss ur
ĠÃŀing eyri
m ÃŃ
ĠAÃ° gangur
ĠÃĵ la
ĠEld hÃºs
ĠD o
pu Ã°u
ĠmikilvÃ¦g a
or Ã°um
ĠP l
ĠskÃ½r slur
bjÃ¶r gu
v anda
al eigu
ĠbÃ¦ jarf
Ġfors e
trygg ingar
tug s
sk jÃ¶l
ĠsÃ³larhring inn
ĠH Ã³la
Ġleik skÃ³lanum
ĠhÃºs um
Ġel sta
Ġfal list
ĠfÃ¦Ã°ingar orlof
ĠSjÃºkratrygg inga
ind ur
Ġaugl jÃ³slega
ĠÃĵlym pÃŃ
Ġ197 5
t andi
ĠstÃ¶Ã°u g
Ġlist anum
b ÃŃu
Ġp o
ĠFÃ¦r eyjum
f sson
ĠA p
Ġvel ti
ĠfÃŃn t
ĠhjÃºkrunarfrÃ¦Ã° inga
fr elsi
g Ã³Ã°
ĠUms jÃ³n
Ġdug a
ak en
ĠrÃ¡Ã° uneytiÃ°
Ġdreg in
fram lag
Ġskal tu
ĠÃ³sk Ã¶p
ĠMatt hildur
k unum
ir e
Ġheim sstyr
ĠmÃ¡l sgrein
ĠÃ³sk il
ĠÃ³h ef
Ġveik inda
st raum
Ġfag ur
ĠhÃ¦kk aÃ°i
Ġh un
ĠÃ¡ fall
ist jÃ³rn
Ġheimil iÃ°
Ġhv eiti
ti ve
br ota
Ġtilkyn ning
Ġpen ingum
ĠrannsÃ³kn inni
Ġhug ar
Ã¶sk un
Ġforeld ri
ĠvÃ¦nt anlegar
ĠT rÃº
ĠhefÃ°bund num
Ġmyn t
ĠlÃŃk ar
Ġskor ti
ĠviÃ°skip tarÃ¡Ã°
Ġleik manna
ĠfriÃ° ar
ĠvÃ¶Ã° v
Ġum svif
Ġv Ã¶rÃ°
Ġeld hÃºsi
ĠÃ¡ liti
ver i
Ġ11 2
tal a
Ġathug un
ĠumboÃ° smaÃ°ur
ist rygg
Ġsend u
s e
Ġlang tÃŃma
stÃ¶Ã° v
ĠRo bert
k an
ĠjarÃ° hita
ĠMark aÃ°s
s eyri
ĠL if
ĠIcel andic
ĠK ast
Ġtilnef ningar
ĠEim skip
eÃ° slu
Ġupplif aÃ°
ĠÃŃbÃºÃ°ar hÃºsnÃ¦Ã°i
Ã¾ro ska
ĠaÃ°stÃ¦Ã° na
Ġb rÃ¦Ã°
Ġhaf ist
p la
v Ã¶rn
ÃŃÃ° una
tak er
Ġs a
ĠferÃ°a Ã¾jÃ³nustunnar
Amer ÃŃku
st ÃŃg
ĠF M
veg inn
hlu tum
Ġskynd ilega
Ġb Ã½Ã°
Ġupp boÃ°
ĠlÃ¦kni sfrÃ¦Ã°
al egar
eig na
Ġtilra una
and ur
Ġt Ã¶k
ĠsamfÃ©lagsmiÃ° lum
ĠsjÃ¡lf virk
h yl
Ġf em
sl ynd
ĠJÃ³hann sdÃ³ttir
ĠS jÃ³nvarp
Ġbe kkur
Ġspur ningin
ĠJafn vel
ĠVegagerÃ° in
ĠfjÃ¶l men
ĠÃ¡ratug a
ĠFrey ja
af ull
jÃ³r inn
ĠupplÃ½sing atÃ¦kni
d oktor
Ġe m
Ġl Ã³
Ġb irk
ĠÃŀ jÃ¡lf
ĠÃ¾Ã½Ã° ingar
F C
Ġm o
epp ninni
ĠBjÃ¶rg unar
Ġmarkv isst
ĠE v
g jum
ss p
ĠÃ³h jÃ¡kvÃ¦m
Ġkyn janna
Ġley ndar
Ġb rÃ¦Ã°ur
ĠmÃ³t or
ĠLands net
ĠSkÃº li
ĠgagnrÃ½ na
Ġb ita
ĠauglÃ½s ir
Ġg Ã¶ngum
ĠF Ãį
ĠV en
an e
Ġtrey st
ĠkvennafrÃŃ daginn
Ã¡ rÃ¡s
ĠB ara
sÃ³k num
eftirlit iÃ°
Ġfasteignas ala
Ġ12 3
gj ur
ĠðŁĻ Ĥ
aÃ° staÃ°a
ĠG erÃ°
st undir
ĠÃ¡r st
bÃ³l gu
ĠÃ¡hygg jum
Ġ rist
ĠtrÃº verÃ°u
ĠHÃ¶f Ã°a
Ġst ang
ÃŃn s
4 2
Ġveg far
Ġveitt ur
uk nattleik
Ġdoll ara
ĠT BR
ĠtÃ³k um
Ġ!! !
ĠBand alag
Ġgeg nt
ĠtÃ³nleik ar
Ġtil valiÃ°
nu s
ĠHÃ³p urinn
ĠsÃŃ t
ĠbarÃ¡ttu anda
ĠviÃ° bragÃ°
ĠV ol
N Ã½
ĠF ra
ĠstÃºl ku
bar n
ĠHug s
s stÃ¶Ã°um
ĠM e
ĠH ald
ĠV R
ĠfjÃ¶lskyld a
ĠF RAM
Ġbar daga
v ig
ĠbrÃºÃ° kaup
ĠhÃ¦g ra
ĠPress unni
ĠG ef
ĠC an
rÃŃ Ã°i
skÃ³ g
ey pu
ĠfÃ©lags rÃ¡Ã°
Ġsam taka
ĠrÃ³ lega
ĠÃ¦sk ilegt
Ġkirk jan
Ġfimm tÃ¡n
ĠleiÃ°to ga
Ġa x
Ġsum ri
Ġleit aÃ°i
ĠÃŀorvald ur
h im
h Ã³li
bÃº inn
kon an
b rauÃ°
Ġnefnd ur
Ġb isku
Ġforeld r
ak stur
b y
Ġbland aÃ°
bre kku
Ġb anna
Ġsam vi
ĠFyr r
bund nar
Ġfyrirlest ra
Ġleik rit
sam nings
Ġlest rar
lei fur
Ġp ant
ĠPort Ãºg
Ġv eig
Ġk alk
ĠhÃ¶f n
ĠviÃ°skip tal
Ġskip inu
Ġel stu
ĠÃ¾Ã¡tttak endum
ĠÃ¡ lagi
ri sti
Ġvel lÃŃÃ°an
ĠtÃŃ Ã°um
ĠK ven
ĠÃŃbÃº Ã°um
or Ã°a
ĠÃŀÃ³r ir
v op
ĠÃ¶ sku
ĠbÃº ist
ec k
ĠÃŃÃ¾rÃ³tt afÃ©lagiÃ°
ĠlÃ¡gmark s
ĠÃ¶ fl
Ġfell t
Ġfyrir mÃ¦li
ur a
al Ã¡n
Ġg estur
ĠU N
ĠC arl
ĠsÃ½ ningin
frÃ¦Ã° ings
Ġtald ar
Ġf asta
p ok
ĠH A
ĠkÃ¶r lum
ĠUn gl
Ġgef nar
Ġatbur Ã°ar
ĠhÃ¡ t
Ġland smenn
Ġken nd
yÃ° ja
Ġeldg os
ĠTÃ³n list
Ġum hugs
Ġb las
Ġvan taÃ°i
Ġalmen nu
ĠhryÃ°ju verka
li c
ĠSt jÃ¶rn
ĠAÃ° rar
Ġgrein arinnar
yfir valda
Ġeinken num
af jÃ¶rÃ°
un kt
ĠfjÃ¶lmÃ¶r g
r uÃ°um
Ġk Ã¡
ĠslÃ¡ tur
o ut
sv Ã¶r
ĠV Ã©l
ĠL Ã½sing
ĠdÃ³m a
ĠÃģher sla
ĠBer lÃŃn
ĠSigurjÃ³n sson
Ġfal legum
ĠsÃŃÃ°a sti
ar nar
Ġbl ekk
vind u
ĠK ostnaÃ°ur
mynd um
Ġraf rÃ¦nt
t og
ĠveiÃ° um
ĠLÃŃk lega
Ã¶n skum
Ġk Ã¶k
arf semi
Ġo lli
ill e
sleg ur
Ġlista verk
9 0
ĠÃ¡hygg ju
Ã³l eik
h Ã½s
ĠGuÃ° bjÃ¶rg
Ġbolt ann
ĠDan merkur
Ã¡ her
Ġskil virk
ĠmarkaÃ°sset ningu
ĠÃ¡tt unda
Ġvef inn
la unum
mÃ¦ t
ĠmannrÃ©tt indi
s endingar
ĠsÃ©rstak ur
eym sla
ĠÃºtboÃ° smÃ¡la
ĠBÃ¶rn in
Ġs yni
Ġmann auÃ°
ĠDan i
fÃ³lk s
Ãº a
ĠRagnar sson
Ġr eit
ĠV II
ĠstÃ¦ kkun
ĠH Ã¶nnunar
ĠdÃ³m ari
afÃ©lag inu
Ġskemmt ilegar
Ġkl Ã¦Ã°
mennt unar
ĠGlit nis
ĠBB C
ĠhÃ³tel inu
Ġhrey fa
Ġskor aÃ°
Ġaf rak
ĠL Ãį
Ġannar rar
skrif stofa
at ar
ĠD u
Ġsk raut
Ġinn gÃ¶ngu
Ġors Ã¶k
ĠviÃ°skiptavin ir
Ġbygg jast
rein t
yn ni
rÃ¡ k
Ġskor iÃ°
ch at
ĠVÃŃs ir
Ġh ill
ĠleiÃ° um
ĠÃĸ rygg
ĠrÃŃkiss jÃ³Ã°i
Ġkol vet
ĠÃ¡nÃ¦gju legt
Ġskip i
ĠPÃ¡l s
ĠLand bÃºnaÃ°ar
ĠBÃ¡rÃ°ar b
er Ã°ur
ĠÃºt veg
ĠT Ã¦k
Ġa d
Ġstund u
Ġraf hl
Ġhugmynd a
Ġor Ã°ast
pa pp
Ġv afa
ĠslÃŃk ur
ĠkjÃ³s enda
ĠÃºt setningu
ĠbÃ¡ ru
Ġsamein ast
Ġmun urinn
ĠumsÃ¦kj endur
Ġhv ol
ĠAl menn
ĠsjÃºk raf
r os
ĠS jÃ¶
ott iÃ°
ĠfrÃŃ stunda
Ġkjarn orku
b eina
en u
Ġhlut inn
mÃ¶r kun
Ġh ey
ĠlÃ½ tur
Ġskilgrein ingu
Ã¡l ag
Ġu l
vin ir
Ġsamkeppni shÃ¦
ĠThom as
Ġinn ilega
ĠNjarÃ° vÃŃk
ĠN eskaup
Ġstofn unar
Ġbur Ã°ar
Ġk asta
ĠÃļ ti
ĠkjÃ³s endur
ĠvÃ¶x tum
ĠloÃ° nu
Ġtilheyr ir
lag iÃ°
Ġsamband iÃ°
ĠstÃºlk na
d ik
borÃ° iÃ°
sf ulltrÃºa
ĠljÃº f
dr ott
Ġuppfyll ir
ĠL of
ĠÃºt fÃ¦rslu
Ġ197 3
T S
vÃŃ st
ĠlÃŃkam inn
Ġf ing
ĠÃ¡lit s
ssv Ã¦Ã°i
ĠhÃ¶f und
hÃ¦ ft
Ġfisk veiÃ°i
ĠlÃ¶g gil
ĠvarÃ°v eislu
Ġs Ã¦r
ĠW OW
ĠOdd sson
af er
Ġskil i
lÃ¶g Ã°
Ġspenn t
Ġk t
Ġtrygg Ã°
Ġfang elsis
ĠvÃ¶Ã° va
Ġly kt
ĠdrÃ¡tt ar
Ġstofn aÃ°i
ĠHeil su
ĠE dda
ĠS im
Ġbr un
ĠR Ã¡s
Ġtilskip un
ĠNÃ¡ttÃºru frÃ¦Ã°i
w a
ĠS ex
Ġumhver finu
ĠDÃ½r afirÃ°i
safn sins
Ġ9 00
kost naÃ°
Ã¾ yn
ĠstÃ¶Ã° unni
ĠAs ÃŃu
ĠHarald sson
Ġhver rar
ĠW ash
Ãŀ egar
y a
Ġst afar
ĠGuÃ°m undi
nattspyr nu
sli sta
ĠnÃ¡Ã° st
ĠÃĵskar sson
R O
ĠnÃ¡m inu
4 1
ĠÃŀor stein
Ġskyld um
Ġmannesk ju
ĠD Ã¶gg
ĠerfiÃ° ara
z e
Ġl eir
ang ri
ĠHring braut
ĠskrÃ¡ Ã°ur
ĠbÃ¡ ta
mik il
tÃ¦k t
Ġvit nis
ĠHl jÃ³Ã°
Ġendurupp tÃ¶ku
ĠV ir
ĠauglÃ½s inga
ĠlÃ¶greglum enn
ĠG issur
ĠK lukk
ang an
ĠbÃŃ Ã³
s jÃºkra
Ġv atna
ĠS M
ĠT ung
ĠBandarÃŃk ja
marg ir
ĠBlÃ¡ skÃ³ga
arf l
ĠfÃ¦r Ã°i
ĠNauÃ° synlegt
a sson
eÃ° ju
Ġd em
ĠFljÃ³t sdal
Ġk orn
ĠI sa
Ġkepp ti
ĠkjÃºk ling
6 6
ĠÃ¡h Ã¶fn
Ġheilsu far
ĠsÃ½ningar innar
leik arnir
ĠÃºtboÃ° s
Ġger vi
ĠmÃ¦ lum
ĠhÃ¶fuÃ° iÃ°
Ġ197 2
Ġfermet ra
Ġaf skekk
jÃ³l kur
Ġmiss erum
Ġt sk
Ġrit aÃ°
laus um
Ġteng ingu
g unar
Ã¾Ã¡tt tÃ¶ku
Ġfyrir mÃ¦lum
ĠÃ¾Ã½ Ã°a
ĠHaf rannsÃ³k
ĠatvinnulÃŃf inu
Ġhar m
Ġfr Ãº
stÃ¶Ã° una
Ġauk ningu
ĠsamtÃŃm is
l eit
ĠKarl sson
ek tir
ĠsÃ½ nis
Ġher ra
ĠFrÃ¡ bÃ¦r
ĠfÃ³t um
Ġho lu
ĠSuÃ°urnes ja
ĠinnanrÃŃkis rÃ¡Ã°herra
Ġfr Ã¶nsku
Ġveg inum
ĠHar pa
Ġaugnab lik
ĠsÃ³lar hr
b og
ĠS nap
Ġland bÃºnaÃ°
Ġblas ir
Ġk ant
ĠS S
Ġmann an
jan lega
Ġkv iÃ°
heimil inu
ĠU tan
ĠtÃ¶f lu
ĠÃºts endingu
asemd ir
Ġbund in
ĠSam tal
ĠskoÃ°anak Ã¶nnun
Ġflutning i
ĠC ost
ĠÃ¡ lÃŃka
arf ar
Ġbr en
vrÃ³ pu
Ġhag frÃ¦Ã°i
ĠheilbrigÃ°is rÃ¡Ã°herra
ĠsvokÃ¶l luÃ°u
ĠiÃ° ju
........ ........
ĠfrÃ¡bÃ¦r u
ĠTrygg ingastofnunar
8 8
Ġt afar
ĠSigurÃ°ar dÃ³ttur
Ġles endum
ĠÃ³m Ã¶gulegt
Ġatvinnul eysi
ĠH or
Ġfyrir gef
Ġt Ã¡
Ġrit ari
Ġfylg du
Ġgu fu
Ġs uÃ°a
Ġl endir
ĠS ol
C O
eig nir
re tta
ĠmÃ¡l tÃŃÃ°
Ġskrif uÃ°
il y
Ġmik lir
Ġsp ara
ass a
ĠheiÃ° urs
ri c
Ġleik skÃ³lum
ĠvÃŃ ta
ĠHarÃ°ar dÃ³ttir
p oka
stof um
ĠvÃ¶x t
ÃºtgÃ¡ fu
Ġver sta
skip tingu
ĠSk or
ĠhÃ¦ stu
ĠBygg Ã°ar
ÃŃk i
tak erfi
ĠHv or
Ġf Ã¦Ã°a
ĠK jÃ³s
ĠÃ³ bein
frÃ¦Ã° ingurinn
Ġflest ra
Ġtil bÃºnir
ĠvÃ¦n ta
Ġhver jar
ĠsjÃºk lingar
eng un
e en
ĠS if
ĠlÃ¡ num
ĠÃ¾rjÃ¡ tÃŃu
Ġkosning abar
Ã¡ lastofnunar
ĠstaÃ° ir
Ġtung l
ĠSt Ãºd
Ġkra kkar
enn ur
os ningum
ĠS Ã³k
ĠG en
ger Ã°arinnar
T V
ĠS Ã¡l
skip iÃ°
Ġbir tu
j aÃ°i
ĠB H
Ġatbur Ã°i
ĠnÃºtÃŃm ans
s agt
Ã ¥
ĠlÃŃfsg Ã¦Ã°i
Ġ ilm
Ġmynd un
vinn sla
Ġhl eyp
na sta
ĠKjar n
am eistari
Ġkaup anda
ĠmarkaÃ° num
Ġslepp t
il sins
arf or
tu l
ĠlÃ½s ingar
Ġskemmtileg ur
ĠtÃŃm aset
Ġupp eldi
Ġ9 2
ĠÃ¦t last
ĠVestfir ska
ĠN Ã³
ĠI m
ĠP ol
Ġhins egin
Ġdre pa
ĠsÃºr efni
tÃŃmab ili
ĠI l
Ġstofn fjÃ¡r
ĠÃ³trÃº legt
Ġmannvirk i
ĠPet er
ul iÃ°
Ã¶nd in
Ġs Ã¶fn
Ġung ir
ÃŃ ski
ĠBjarna dÃ³ttir
ĠÃģg Ãº
ĠUmhverfis stofnunar
sam ningur
ĠHau ka
ĠB lu
ĠÃŀ arf
ĠbrÃ½ nt
Ġs nar
Ġeigin konu
lÃ¡ tur
Ġt ÃŃÃ°ar
ĠFram leiÃ°
viÃ° miÃ°
Ġn umiÃ°
ĠB ess
arÃ¡Ã° uneytinu
Ġkaup ir
Ġstefnd i
ĠVor u
Ġr ug
ĠÃŀjÃ³Ã° minja
ĠvÃ¦nt anleg
Ġfr om
ĠJ ack
ĠL Ã¡n
bÃº i
Ġ10 8
ĠHver su
Ġum deild
ĠÃ¾jÃ³Ã° ina
af elli
Ġsig ra
Ġstutt um
m al
ĠA ss
ĠÃ¶r n
Ġ5 10
Ġframhalds skÃ³l
ĠÃ¾ okk
ĠSigf Ãºsson
ĠfÃ¦ kkaÃ°
ĠÃ¡nÃ¦g Ã°ir
Ġvega brÃ©f
Ġev ru
viÃ° rÃ¦Ã°ur
Ġundan sk
Ġh ir
Ġh old
ĠB ein
Ġhluta brÃ©fa
ow er
Ġef ast
ein ingar
ĠdÃ³m smÃ¡larÃ¡Ã°herra
Ġfjar skipta
Ġgrun ur
Ã¡l iÃ°
ĠJÃ³n sdÃ³ttur
ĠHÃ¶f uÃ°
Ġheg ningar
ĠSigf Ãºs
ĠH Ãºna
ĠNÃ¡ ms
Ġy Ã°ar
Ġfisk ur
ĠinnrÃ©tt ingu
vest an
ĠmÃ¦ tast
Ã³ lit
Ġgagn agr
Ġfl ey
Ġinn blÃ¡stur
var Ã°ar
gr unni
hÃ³l um
ĠAkran ess
ĠHjal ta
l una
Ġp ok
ĠskjÃ³l stÃ¦Ã°
ĠsjÃ³ Ã°urinn
ĠHaf Ã°u
Ġmeng unar
Ġl ak
ĠsÃ©r frÃ¦Ã°i
ĠFriÃ°rik sson
b anda
ĠÃ³ nÃ½
ĠhÃ³ fu
aflokk ur
ĠjÃ³la bÃ³k
Ã¶rygg is
ĠSÃŃÃ°a sta
c al
r aÃ°ir
ĠkvÃ¶ld sins
Ġken ndi
Ġumhverfis rÃ¡Ã°herra
ĠÃģs grÃŃm
ĠWash ington
sm ark
Ġbund iÃ°
Ġvop n
ĠrÃ¡Ã° ningu
Ġlyf jum
ĠAmer ÃŃku
ĠmenntamÃ¡l arÃ¡Ã°herra
ek ta
ig ur
ĠjÃ¡kv Ã¦Ã°a
ĠbjÃ¶rgunar sveit
Ġs ma
ĠM ic
Ġvan t
Ġmismun un
ĠÃļtlend ingastofnun
ĠReykhÃ³la hrepps
ĠÃ¡kvÃ¡ Ã°u
Ġeindreg iÃ°
Ġk un
ein kunn
s ala
us ar
R I
Ġaf greidd
ĠM or
un ir
Ġg a
ĠblaÃ° amaÃ°ur
ĠKeflavÃŃkurflug velli
bund nu
Ġtilnefnd ur
n Ã¦m
nast ofnun
Ġt Ã¶ku
Ġk Ã½s
ĠF S
Ġbyrj unar
kirkj unnar
Ġb ylt
Ġhorf Ã°i
ĠVatna jÃ¶kuls
ĠstrÃŃ Ã°a
c her
ĠHr Ã¶nn
Ġto gar
alof tteg
Ġstr ong
ĠlandsliÃ° s
Ġinnlend um
Ġforse tak
Ġbak grunn
ĠtÃ¶lv uleik
ar anum
m e
ĠOp en
ĠIngÃ³lf sson
ĠstjÃ³rnarskrÃ¡r innar
Ġsk yr
ĠGrÃ¦n lands
Ġsam tal
Ġsl Ã³Ã°
Ġh ur
ĠL Ã³Ã°
ĠviÃ°urken nd
ĠApp le
ig h
efnd ar
Ġalvar legt
Ġvelkom in
ĠÃºrskurÃ°ar nefndar
ĠBÃºn aÃ°ar
ĠÃ¡skil ur
ĠrÃ¡Ã°her r
ĠVik tor
ĠÃ³ r
est um
ĠerfiÃ° ar
ĠK os
Ġyfirgef a
gre inum
ĠBjar ki
punk ti
ĠBjÃ¶rn s
ĠStefÃ¡n sdÃ³ttir
Ġsk rÃº
Ġheimil anna
Ġ197 6
b ekk
d rei
s rÃ©tt
ĠleiÃ° ina
frÃ¦Ã° in
Ġlaun agreiÃ°
ĠKaup Ã¾ings
ĠÃ¡ tÃ¶k
ĠÃŃÃ¾rÃ³tt ir
Ġton na
ĠstjÃ³rnsÃ½slu laga
Ġsv Ã¦Ã°a
Ġfram leitt
ak eppni
ĠgreiÃ° i
ĠBr jÃ¡n
Ġafh endingu
ĠsjÃ³nvarp i
inf Ã³nÃŃu
e u
hraun i
Ġsnil ld
7 0
Ġs Ã¶kk
Ġverk frÃ¦Ã°i
Ġst rik
yrirtÃ¦k ja
ĠLandspÃŃtal ans
ĠVerk iÃ°
ĠÃļ lf
bÃŃ Ã³i
Ġpab bi
H ann
Ġleik skÃ³lans
bÃº Ã°a
kom um
hÃ¶f undur
ĠÃ³s ann
KÃ³re u
ĠÃºthlut unar
ĠjÃ³ ga
Ġv inni
ĠB li
Ġskemm ri
skur Ã°ur
Ġv Ã¶l
Ġt ra
Ġkrakk arnir
ĠflÃŃs ar
au ki
ĠSt eph
shÃ¡ tÃŃÃ°
Ġhjar t
Ġtil boÃ°um
arf rÃ¦Ã°i
yrk ju
et um
an Ã¡mskeiÃ°
rÃ³ t
ĠHug myndin
ĠÃ³f ull
stand andi
Ġhau sti
Ġvitnesk ju
p ers
ĠB rasil
Ġfag lega
papp ÃŃr
Ġaf li
ĠT ungu
Ġ20 20
ĠAÃ° ferÃ°
Ġeng ir
ĠÃ¡g Ã¦tis
veld i
bÃŃ lum
ĠE s
ĠlÃŃklega st
ĠviÃ°bur Ã°
Ġmerk ilegt
Ã°ar i
ĠHjÃ¡l par
arÃ¶Ã° inni
Ġskel f
Ġundan Ãºrslit
Ġeld a
ĠnÃ¡l Ã¦g
Ġd ettur
ĠF ri
ĠÃ¾Ã©tt bÃ½li
b jarnar
Ġfor yst
g Ã¦ti
ĠO G
iss a
bygg ing
Ġraun in
ĠÃ¾urr k
ĠgreiÃ° ist
Ġveitt ar
s rÃŃk
Ġborgar stjÃ³rnar
Ġapp els
Ġm ess
200 1
Ġhlu tar
Ġ ins
sam taka
ĠGr oup
okk ur
s eta
Ġeld sv
afjÃ¶l da
am eÃ°ferÃ°
ĠslÃŃk an
ĠdjÃº pt
Ã¡lk n
Ã¶g uleika
Ġsk ygg
ĠskÃ³la stjÃ³ra
Ġstofnun inni
Ġdval arleyfi
ĠÃ¾ing mann
Ġviss um
Ġley ft
bÃ³k um
ĠSo vÃ©
ĠM ay
Ã¾ orp
ĠskÃ³la starfi
ĠHv ann
Ġhelm ingi
am Ã¶rk
Ġtil gangur
Ġr yk
ĠGrÃ¦n landi
ĠhÃ¦ Ã°um
ĠnÃ¡ttÃºr una
abygg Ã°
ĠÃ¾jÃ³Ã°arat kvÃ¦Ã°agreiÃ°slu
f ulltrÃºi
Ãº rum
lÃŃ na
Ġop nu
Ġinn legg
ĠBÃ¡rÃ°arb ungu
Ġstarf rÃ¦kt
Ġsn eri
ĠÃºr vinnslu
ĠfjÃ¡r lÃ¶gum
ĠsveitarfÃ©lÃ¶g in
ĠgrÃ³Ã°urhÃºs aloftteg
Ġhag rÃ¦Ã°
ÃŃ an
ĠleiÃ° sÃ¶gum
st ÃŃ
ch en
jÃ¶ld in
A r
Ġatvinnul eysis
ĠT jarnar
Ġvel t
Ġb Ã¦ri
ĠVet rar
Ġsm ÃŃÃ°a
ĠrÃ¦k tunar
rÃ¶Ã° un
ĠuppgÃ¶t v
ĠNÃ½ lega
ĠÃ¾Ã½ sku
Ġr ÃŃka
ĠÃ¶ mmu
Ġj epp
Ġey stra
ĠB elg
Ġyfir maÃ°ur
bÃ³k ar
ĠSkÃ³l inn
f la
sÃ³k nari
il e
ĠA k
Ġheild ina
ĠsjÃ³narmiÃ° um
u e
ĠstuÃ° lar
skost naÃ°
Ġkvikmynd ir
Ġp ir
Ġbr enna
Ġflokk un
hr aÃ°a
p lan
ÃŃ slen
land iÃ°
ĠÃ³lÃŃk t
ĠleiÃ° rÃ©tta
mÃ¡l ar
skyld ur
ald ir
Ġfullyr Ã°a
G S
as v
h Ã¶nnu
l anda
ĠÃŃ tal
ĠDan ska
tug ur
Ġhagsmun ir
Ġathaf na
d el
iÃ° naÃ°
ĠbrjÃ³ sti
ald ast
Ġg atn
ĠC am
ĠstÃ³r ir
ĠElÃŃ as
g Ã¦Ã°a
ĠO b
sam tÃ¶k
ĠlÃ© n
Ġgeym sla
ĠfjÃ¡rmÃ¡lafyrirtÃ¦k ja
ĠrÃŃkisskatt stjÃ³ra
ĠgÃ³Ã° ra
ĠstjÃ³rnarfor maÃ°ur
Ġhlaup i
ĠFerÃ° amÃ¡la
Ã¶l ur
Ġf aÃ°
bÃ½lis hÃºs
ĠhÃ¦star Ã©ttar
Ġsam bÃºÃ°
ĠAl la
Ġand stÃ¶Ã°u
ĠB ÃŃl
Ġfleir um
Ġtau ga
Ġrey ndu
Ġ15 00
e ing
Ġ12 6
ĠstjÃ³rnar menn
Ġfor laginu
Ġhn Ã©
Ġr Ã³tt
aleg ri
ĠHelga dÃ³ttir
ĠlandbÃºnaÃ°ar rÃ¡Ã°herra
Ġstelp urnar
kk aÃ°i
Ġhla kka
m agni
ĠS Ãģ
ĠÃŃsl ands
ĠSam keppnis
Ġdr ag
ĠS P
ĠÂ ľ
Ġbr o
ĠfyrirtÃ¦k in
Ġsendir Ã¡Ã°
ĠV ÃŃkur
ĠbÃ³k mennt
ĠM is
ĠR Ã³sa
afl Ã³Ã°iÃ°
ĠHl jÃ³msveit
Ġskjal a
Ġnu dd
es en
Ġvald ir
ĠCh arl
Ġhel sti
Ġgrund vÃ¶llur
t inu
at h
ĠP ep
ĠTrygg v
n ef
Ã½ mi
ĠJ er
ĠSt aÃ°an
Ġsvokall aÃ°
Ġv agn
ein kenni
Ġhlutfall slega
ĠfÃ©lag smÃ¡l
ĠsamÃ¾ykk tir
abygg Ã°ar
Ġstefnd a
ĠseÃ°la banka
ĠAl freÃ°
ĠÃĸ rÃ¦
eistara ti
Ġd rif
Ġop nir
Ġmark iÃ°
ĠframleiÃ° ir
ĠHalldÃ³r sdÃ³ttir
skuld bind
Ġfran ska
ĠÃ¡rang urinn
Ġskipulag t
h lÃŃ
Ġbandar ÃŃsku
Ġg o
Ġp Ã¶nnu
ĠsjÃ¡lfst raust
tion s
ĠÃºrslit aleik
ĠpÃŃan Ã³
br eidd
Ġraf rÃ¦n
Ġafur Ã°a
Ã¶n t
ĠBre tar
araÃ¾ on
ĠÃįsafjarÃ°ar d
b el
mÃ¡l inu
ĠsÃ¦ tta
ĠÃ¡g Ã¦tt
heim inum
ĠglÃ¦s ileg
Ġst imp
ĠbÃ¦ tast
ĠfrjÃ¡l st
Ġg yÃ°
ning inn
ÃŃsk ar
ĠÃºr slita
Ġdag urinn
Ġh urÃ°
n ana
ĠLands bankinn
M eÃ°
Ġvar amaÃ°ur
Ġtiltek in
ĠFjÃ³r Ã°ung
Ġe t
ĠF it
ĠfÃ©lag smiÃ°
hÃ³p s
ĠÃŀjÃ³Ã° skrÃ¡
Ã¾ yr
nefnd u
Ã¦ kkun
Ġathyglis verÃ°a
Ġmynd as
Ġkos ningu
amÃ³t in
kost naÃ°ur
ĠbifreiÃ° ar
ĠrÃ¡Ã° ning
ĠfriÃ° i
ĠfjÃ¶lbreytt um
Ġm undu
hl aÃ°
jÃ¡r hÃ¦Ã°
Ã°ir nar
ĠAug lÃ½sing
Ġk ak
vit ar
Ġ194 0
ĠLeif s
ĠÃįB V
Ġst ik
viÃ° ri
Ġ197 1
ĠviÃ°ur kennt
ĠHek lu
Ġskam ms
ssÃ½ slu
ĠÃļ kra
ĠSkag afirÃ°i
ĠR un
Ġr Ã©Ã°
ver um
ĠW at
Ġfram fyl
ĠheilbrigÃ°i sst
Ã¡r inu
Ġst ress
Ġof l
Ġkenn sla
Ġauk innar
sleg an
Ġvit und
ĠÃ¡hug amÃ¡l
ĠNorÃ°ur lands
Ġuppbygg ing
Ġteg unda
Ġf ir
ĠGuÃ°laug ur
Ġk al
ĠW e
ĠPÃ©tur s
arfÃ©lÃ¶g um
ĠauglÃ½s ing
ĠV ÃŃn
Ġm isk
Ġaf not
Ġsam eign
Ġsv alir
Ġsvip uÃ°
Ġreg la
ĠfjÃ¡rfest ing
Ġst eyp
Ã¦l ir
reiÃ° ar
ĠVal gerÃ°ur
ing num
Ġsv ak
vÃŃs it
ĠSil fur
Ġf Ã³Ã°
Ã¡ stand
Ġfl ot
Ġdeild a
Ġbjar gaÃ°
b ikar
Ġ12 5
stjÃ³r nir
ul t
nefnd in
ĠfrumsÃ½ nd
ĠK jal
Ġmat vÃ¶ru
v ina
re kk
Ġeig naÃ°ist
ĠhljÃ³Ã° fÃ¦r
ĠfjÃ¡rm agna
ar ÃŃ
aleg ur
ĠVestur landi
bu x
Ġm essu
sv ettvang
mat s
ĠHarÃ°ar son
ĠKat rÃŃ
ĠJakob sdÃ³ttir
ĠF yll
ĠsjÃºk lingum
grein t
Ġpi zz
Ġvarnar aÃ°ila
ĠÃŀ ver
ĠMÃ½ vatn
f ra
Ġgrun aÃ°ur
Ġnein ar
l na
Ġvel li
aferÃ° ir
ĠforrÃ¡Ã° amenn
h Ã¶gg
Ġk Ã¶tt
Ġleik mÃ¶nnum
ĠfullorÃ° ins
ĠÃ¶ku tÃ¦ki
ag ar
Ġum gjÃ¶rÃ°
hÃ¡tÃŃÃ° in
ĠheimsÃ³tt i
ĠnÃ¡ iÃ°
an legu
ĠV ÃŃÃ°a
ĠT Ã¡lkn
Ġhlut falli
Ġsnyr t
Ġfinni st
st Ã¦Ã°ar
Ġp restur
ĠsÃ©r eignar
ĠJÃ³ s
ĠHeim ild
i o
ĠOrk ust
ĠStaÃ° setning
Ġl ab
Ġgr afa
Ġ201 9
ĠstjÃ³rn aÃ°
vald sins
ĠsÃŃÃ°astliÃ° in
ĠViÃ° reisnar
ĠLau f
Ġrif ja
Ġ unnar
ĠÃŀ jÃ³
ĠÃ¾jÃ³Ã° fÃ©laginu
Ġskrif um
ĠhvÃŃ lir
ĠmiÃ° ri
ĠviÃ° gerÃ°
ĠGr af
flokk arnir
an legri
ĠrÃ¦Ã° st
Ġt or
hor f
ĠaÃ°ildar rÃŃki
k Ã³
Ġse ss
old ing
Ġr Ãºst
ĠSv efn
Ġpr ins
tÃ¶l um
ĠSly sa
Ġl og
ĠG y
ĠSver rir
nas onar
hÃ¦f ni
ĠLÃŃf eyriss
skÃ³ gi
ĠerfiÃ° leika
ĠN jÃ¡l
ferÃ° um
ĠhvÃŃ ld
ĠÃŃbÃºÃ° inni
ĠD ÃŃs
ĠM exÃŃkÃ³
Ġeftir minn
ĠmÃ³t um
ĠsÃŃÃ° una
ĠframtÃŃÃ° ina
d ans
st j
hÃ³p sins
ĠCost co
ĠrÃ¡ s
ĠGunnlaug ur
Ġver aldar
ĠlÃŃ tt
Ġt horn
Ġg irÃ°
ĠH Ã¶skuld
ĠEggert sson
s end
Ġsk ÃŃÃ°
ka sti
ĠsiÃ° areg
miÃ° stÃ¶Ã°var
skyld an
ĠaÃ°geng ilegar
ĠMart in
ĠM on
ĠÃ¦ vis
Ġmat inn
ĠPÃ¡l sdÃ³ttir
ĠKol b
ĠM ill
Ġskemm ta
Ġsam di
ĠEitt hvaÃ°
g ina
20 14
Ġkjarasam ningi
Ġtilvil jun
ĠÃºt rÃ¡s
Ġjafn gild
Ġskemmtileg um
gl Ã³
Ġst ÃŃg
Ġkaup andi
Ġst okk
stu Ã°u
ĠhÃºs ak
for eld
ĠdÃ³m smÃ¡l
Ġband alag
ĠT oll
Ġlok uÃ°
ĠgÃ¦ tum
ĠÃ¶ld um
Ã¶ stur
ĠviÃ° unandi
ind ast
ĠkveÃ° st
ĠskÃ¡ p
Ġkjarasam ningum
ef ur
f undir
Ġh alla
Ġc o
upp lÃ½singa
an es
ĠR Ã¶gn
ĠÃ¦ x
Ġumhugs unar
Ġp an
ĠstuÃ° laÃ°
stofn anir
ĠhljÃ³ mar
ley fis
Ġskip stjÃ³ri
ĠKen nar
ĠframkvÃ¦mdast jÃ³rn
brag Ã°a
ĠK im
ĠstaÃ° al
Ġnokkur t
ĠnÃ¡ttÃºru vernd
Ġv Ã¶t
Ġnot endum
bÃ¦ num
Ġf iska
Ġveit ingu
tur e
Ġb ik
Ġkynn tist
ĠBorgar byggÃ°ar
ĠSovÃ© t
Ġk Ã½r
Ġskip sins
Ãº lu
Ġath varf
un t
sm ÃŃÃ°
Ġn Ã¶fnum
ĠstÃ¶ dd
ĠrÃ¦ dd
oc i
ĠÃŀing valla
ĠfrÃ¦Ã°i menn
ĠaÃ° hald
yk ri
spyr nu
ĠS jÃºk
ĠkÃ¦runefnd ar
j ungar
Ġb akk
ĠÃĸ skju
ĠSigurÃ° ssonar
Ġg Ã¶tum
ĠsÃ½ ndur
ĠBandarÃŃkj amenn
ord s
âĢ¦âĢ¦ âĢ¦âĢ¦
ĠBr ot
Ġpr jÃ³na
n inum
ĠlÃ© ku
Ġhand verk
ĠhjÃ³ last
ĠplÃ¶n tu
ĠandrÃºmsl of
ĠÃ¾r eng
ĠBr aga
ĠLÃ¡ru s
st aÃ°i
ĠDal vÃŃkur
teg undir
ĠÃ³ met
ĠfullorÃ° inna
ĠBÃŃ ldu
fÃ¦r ni
ĠÃŀÃ½skal ands
up er
ĠÃ¡kvÃ¶rÃ° unum
p re
ar ans
Ġber um
Ġe i
ĠFinn ur
Ġsendi herra
Ġver sla
hlut inn
ĠÃ¾or pi
Ġhjartan lega
ĠK u
Ġsum arfrÃŃ
Ġ ands
an ce
ĠprÃ³ t
Ġtengd ar
ĠIÃ° n
Ġhor fiÃ°
C A
Ã¾ ola
Ġeins og
Ġgjaf ir
Ġnem i
verk efna
hÃ¦ kkun
ĠPal est
A ll
Ġf Ã¦ti
ĠEin f
ĠB Ã¶Ã°var
ĠfÃ¦ kka
Ġbanka hrun
ĠN ÃŃ
Ġat kvÃ¦Ã°agreiÃ°slu
Ġfund u
Ġvin stra
Ġstand ast
Ġb as
rey nslu
shl ÃŃÃ°
sm iÃ°ur
ĠÃ¡ minn
ul lu
Ġ196 8
Ġd ram
Ġstig iÃ°
Ġli ti
ĠRÃŃkis endur
Ġev ra
Ġr aÃ°a
st aÃ°ir
Ġyfir heyr
ĠstÃºl ka
st Ã¦r
rÃ³ Ã°
ĠupplÃ½singar nar
ĠRÃºss lands
ĠÃŀorsteins dÃ³ttir
yn n
jÃº pi
ĠendurnÃ½ ja
ĠÃ³n Ã¦m
Ġh app
ĠSt u
ĠfjÃ¶lg aÃ°i
ĠÃģ n
bÃ¡ t
ĠVarÃ° andi
Ġsafn aÃ°ar
ĠSÃŃ ldar
Ġg arÃ°i
Ġsett ist
Ġspur ninga
ofb eldi
ĠskÃ³ li
ĠfjÃ¡rhag s
ĠKon an
Ġhlu tl
Ġmiss ir
b is
ĠÃºr bÃ¦tur
ĠÃļr skurÃ°ar
ĠfjÃ¶lmarg ir
Ġ andi
ĠH itt
ĠB oÃ°
ĠÃ³ gild
ĠjÃ³labÃ³k aflÃ³Ã°iÃ°
v eita
Ġh ni
Ã¶ num
Ġkv Ã¶r
Ġj eg
Ġ194 4
Ġr Ã½r
ĠUndanfar in
ald i
ĠhÃ¡tÃŃÃ° ina
ĠH lÃŃÃ°ar
Ġfor dÃ¦m
???? ????
ĠD ar
ĠkÃ¦r leik
f Ã¶t
hÃ¦kk anir
ung i
Ġ197 7
Ġ196 1
fÃ³lk i
ĠÃģst Ã¦Ã°a
Ġfull gild
Ġsn ill
grein ingar
samband sins
ĠBirgi sson
Ġs u
ĠsÃ¶g Ã°ust
Ġset jiÃ°
ĠL ÃºÃ°
bur Ã°a
Ġpr jÃ³n
ĠstÃºd enta
Ġhr ÃŃÃ°
leik ari
Ġfyrirspur nir
al ey
ĠF Ã©
rÃ¦ nn
ĠR auÃ°
Ġundir stri
ĠHv enÃ¦r
ag s
Ġ19 50
ĠbÃ³ nda
ĠsÃ¦n ska
Ġtak ist
2 000
ĠfÃ¡ ein
Ã¾ing iÃ°
ĠalÃ¾jÃ³Ã° leg
ĠRÃŃk iss
Ġdre p
Ġh anna
ber jum
rÃ¡Ã° her
versl unar
Ġathaf nir
L U
ĠÃºr lausn
ĠOr Ã°iÃ°
ĠHlu ti
ĠÃ¶rork ulÃŃf
t eng
Ġveg alengd
Ġsm ÃŃÃ°i
Ġ196 4
Ġ3 50
ĠD jÃºp
Ã³n g
Ġkepp nina
ĠflÃŃs alag
ĠRÃŃkisÃºtvarp sins
T I
Ġ @
Ġdeild um
ĠLaugar daginn
ĠrÃŃkisborg arar
Ġyng stu
Ġfram andi
skip an
mynd un
Ġs Ã¶lum
eg undir
ĠÃ¡r anna
ĠEn gu
kr Ã¶fur
ĠsÃŃ mann
ĠSt jÃ¶rnu
ĠhÃ¦tt um
ĠvÃ¶kv a
ĠumhverfisÃ¡hrif um
ĠLit lu
Ġly ft
vÃ© lum
Ġsk yndi
Ġborgar stjÃ³ri
Ġstopp a
ĠsÃŃ man
ĠÃģ slaug
blaÃ° sins
v eislu
ĠT Ã³k
ĠRannsÃ³k nin
Ġb ux
Ġmynd unum
ĠÃ¾rÃ³ aÃ°
ĠKjar val
ĠFiskist ofu
ĠlÃ¡ tum
k osningar
ĠHver fis
ĠKar en
Ġm etur
ĠV irk
Ġl Ã³n
ĠTil lagan
ĠvÃŃ Ã°ast
ĠsuÃ° vestur
H D
ĠSvÃŃ Ã¾jÃ³Ã°ar
ĠÃĸ x
ĠumsÃ¦kj enda
ĠStef an
ĠIS NIC
Ġopinber ri
ĠBaÃ° herbergi
Ġsamvi sku
ĠmÃ¡ naÃ°
ust jÃ³ri
Ġlist i
b yss
Ġfr yst
Ġsel ur
Ġsk rÃ½
Ġfl Ã³tta
laus nar
ĠSeg ja
J Ãĵ
Ġl Ãºt
ĠÃ¾ol inm
ĠbrÃ©f inu
ĠfÃ¡ r
ĠfrÃ¡bÃ¦r um
hÃ¡tt um
Ġfor stofu
Ġflokk anna
ĠharÃ° lega
Ġt org
Ġor gan
ĠSam tals
skrÃ¡ ningu
ĠaÃ°al skipulag
Ġtil h
ĠÃ¡kveÃ° nu
ĠY ng
ĠheilbrigÃ°is starf
ĠgrÃ¦ nt
ĠBr ag
Ġkirkj ug
ĠG era
ĠSn Ã¦r
ĠtjÃ¡ Ã°
ĠGrein in
Ġeig endum
man ak
Ġsla ka
ĠtÃ¶lv ur
ĠHalld Ã³ra
ĠfrumkvÃ¶Ã° la
G UR
ĠG all
ĠGuÃ° br
Ġvernd un
ĠAnt on
ĠhÃ¡ riÃ°
j o
ĠHalldÃ³r s
ĠU NIC
ĠaÃ°al skipulagi
Ġsykur sÃ½ki
ĠÃ¡ramÃ³t in
I K
Ġv eiti
Ġt Ã¶
viÃ° skipti
ĠHel lu
ĠKra bbameins
ÃŃsk ri
Ġleidd u
Ã¾ egi
Ġlau saf
ĠtÃŃÃ° kast
gef andi
ĠHoll y
k Ã¶ll
v ettvang
ĠR es
Ġgam lar
ĠrÃŃs a
Ġheim an
ĠÃŃslensk ur
Ġn au
ĠnÃŃ unda
Ã¦ kk
ag o
Ġvand lega
E M
ĠjÃ³la trÃ©
Ġfar Ã¾egar
ĠEin ungis
Ġlands vÃŃsu
Ġl ins
ĠiÃ° ulega
ĠhvÃŃ ta
k orn
Ġg il
Ġra uÃ°a
ning ja
Ġs Ã¶fnu
boÃ° iÃ°
Ġkirkj una
slÃ¶greglu stjÃ³ra
ĠrÃ¡Ã° uneytinu
Ġflug elda
ĠfiskveiÃ° istjÃ³rn
d en
Ġde tta
ĠVel ferÃ°ar
jÃ³ la
ak ort
rÃ¦Ã° iÃ°
Ġbygg inga
ĠframtÃŃÃ°ar sÃ½n
ĠsviÃ° inu
Ġtilfinn ingu
Ġ195 9
m eistari
Ġhim in
Ġh ra
and yra
Ġst Ã¶ndum
Ġ19 00
ĠÃ³sk ir
Ġsterk ur
ĠRÃ¶gn vald
Ġst Ã¶ng
ĠviÃ° tÃ¶kur
ast ur
ĠGre en
ĠsÃ³s ÃŃ
ĠÃºt af
Ġflug vallar
Ġloft inu
ĠV ÃŃf
ĠsiÃ° ferÃ°
kom ur
vÃŃsind um
Ġkort iÃ°
Ġp Ã¶r
Ġhag vÃ¶x
ĠKlukk an
en nis
rÃ³ s
Ġflokk inn
ĠaÃ° gerÃ°ar
Ġfl ogiÃ°
ĠÃ³s Ã¡tt
ĠSind ra
h ÃºÃ°
jÃ³n in
ĠpÃ¡ sk
an ema
Ġb all
ĠÃ¾Ã¡tttak andi
jum st
orÃ° s
Ġsak ir
ĠtÃ³nleik unum
ĠUM FÃį
Ġkomm Ãºni
eg und
ĠÃºr gangs
Ġgr jÃ³t
Ġkv Ã³ta
ĠstjÃ³rn lag
Ġal hliÃ°a
Ġlaun ak
8 00
Ġyfir valda
Ġat kvÃ¦Ã°agreiÃ°
Ġver st
Ġbir g
Ġbo Ã°ar
Ġop nast
infÃ³nÃŃu hljÃ³msveit
Ġfor f
20 13
eig ur
ĠtÃ¶l frÃ¦Ã°i
Ġfang els
ĠÃ½mi ss
ĠÃ¶kum enn
al eysi
Ġsleg in
ĠMagnÃºss onar
Ã³ ni
Ġm old
ĠS H
ĠE ina
ĠV eÃ°
Ãī R
Ã©tt indi
Ġbar ist
Ġauka verk
am mi
ĠD is
leik inn
Ġutan aÃ°
li e
ĠSk er
ĠViss ulega
E r
r elsi
v extir
ĠaÃ° far
Ġlyf jaf
ub ÃŃl
ĠSam hliÃ°a
20 12
ĠFrakk lands
h Ã³f
Ġv allar
Ġseg ul
ĠÃ¾jÃ³nust una
Ġvar aÃ°
Ã½r um
ĠHlut fall
Ġfagn aÃ°ar
Ġ19 30
ĠSam tÃ¶kin
Ġhring di
ĠK ort
ĠskÃ³g rÃ¦ktar
ĠHÃ¦star Ã©tti
amann i
ĠT rausta
ger andi
ĠK ost
Ġsag Ã°ur
Ġbank arnir
Ġrak iÃ°
ĠandrÃºmsl oft
stak ra
fram kvÃ¦md
Ġgam ans
ĠumrÃ¦Ã° una
s jÃ³nar
ĠIng Ã³lfur
l estur
ĠfjÃ¶l gar
ĠviÃ°hald s
ĠInter net
ĠplÃ¶n tur
sl Ã¡
sm ÃŃÃ°i
ĠS ala
Ġupp tek
Ġtiltek na
j Ã¶fn
ĠHlyn ur
ĠÃ¡ skrift
Ġstarfsm anni
ĠÃ¡grein ingur
Ġframhalds skÃ³lum
j uÃ°
Ġm aga
ĠS afn
Ġverk efnin
bl Ã¶Ã°um
Ġgreidd ar
k Ã¦r
k nattleik
bo x
Ã¾Ã³r sson
ĠS ec
f elli
fl Ã¦Ã°i
Ãŀ Ã¡
svÃ¦Ã°i s
ĠhÃ¦tt ur
Ġfyrirkomulag i
ĠMc C
ĠÃ¡r g
Ġs est
sn Ãº
Ġsk jald
ĠÂ ĸ
ĠmÃŃn s
nÃ¡m skrÃ¡
Ġsal ti
ĠhefÃ°bund in
t Ãºni
am i
ne sku
ĠKjartan sson
t na
ĠfrÃ¡ vik
skur Ã°i
ĠÃº l
ker fa
Ġvirk t
ĠfÃ¦ri st
st ÃŃl
ĠG old
Ġfram boÃ°i
Ġfund uÃ°u
Ġkenni tÃ¶lu
Ġs ungiÃ°
Ġef lingu
ĠSt aÃ°a
ĠuppfÃ¦r Ã°
Ġs mi
Ġb el
ĠK or
er n
Ġt af
Ã¶n sk
Ġeinhver ri
ĠhÃ³p s
Ġhugmynd in
ĠÃ¾ig gja
ĠmeÃ°li mir
ĠfÃ¶ stum
E D
ind ir
ĠD el
t ÃŃ
ri pt
ĠdÃ³m ur
ĠÃ¡gÃ¦ ta
jÃ¶l l
as yni
Ġverk in
ĠV ill
Ġgr ennd
Ġstarf rÃ¦k
ung s
h Ã©r
ĠK vÃ¶ld
Ġumhverfis mÃ¡l
Ġt ru
ĠÃŀ jÃ³nustu
ĠfÃ©lag anna
mÃ¶r kum
lf us
Ġork ug
Ġt ort
Ġk Ã¦
ĠstÃ¦r Ã°um
Ġafh endingar
ĠstaÃ°rey ndir
ĠbÃ½Ã° st
ĠS Ãºr
ĠnÃ½ tingar
ĠEirÃŃk sson
ĠSnap chat
Ġveg u
Ġrey kja
I M
Ġendur bÃ¦tur
stofn ana
ĠfjÃ¶lmarg ar
ĠNor Ã°austur
Ġerlend ri
Ġheims vÃŃsu
Ġtap aÃ°
Ġteg undar
el sson
ĠViÃ° skip
ĠbÃŃ llinn
ĠW al
ĠÃ¦tt ir
ĠNiÃ°ur staÃ°an
Ġ il
agn Ã½
h iti
p lÃ¡ss
Ġr enni
ĠrÃ¡Ã° in
ĠsniÃ° i
ĠRey Ã°
Ġmerk jum
ĠSkÃ³ gar
ĠUNIC EF
Ġupp sp
Ġfyrirl es
ĠjÃ³ g
ĠFyl g
ĠverÃ°mÃ¦ ta
Ġupp tÃ¶k
atn aÃ°i
ĠRe al
Ġundantek ningar
d am
ĠÃºt g
sn iÃ°
Ġm ed
sk aga
ĠO lÃŃ
ĠÃįbÃºÃ° in
ĠÃŀriÃ° ja
ĠfjÃ¡rmun i
gerÃ° in
Ã¾jÃ¡lf ara
ĠSÃģ Ãģ
Ġskil mÃ¡la
7 5
ĠumsÃ³k na
ĠsÃ©r hver
sÃ¶g num
U K
Ġh ik
ĠSkemm t
ĠT our
ĠÃ³ hag
hel m
hrey fingarinnar
ĠFrÃ©ttablaÃ° iÃ°
ĠsamrÃ¦m is
ĠÃºtivist ar
ĠmÃ¶rk uÃ°um
Ġrafmagn s
fyrirtÃ¦k ja
ĠboÃ° in
Ġefn inu
Ġors aka
as ala
4 00
ĠF yrirtÃ¦ki
ĠhÃ¡l end
Ġsty tta
hÃ¦ fi
ĠmikilvÃ¦g asta
I A
af und
ĠvÃŃ tamÃŃn
Ġtrygg Ã°i
ĠEig in
ĠB akk
ĠF aÃ°ir
Ġher naÃ°ar
ĠSÃ½r landi
Ġgag nast
sl Ã¡n
sl Ã³Ã°um
Ġein ir
ĠsjÃºkdÃ³m um
rÃ³ p
ĠHv ol
Ġforn leif
yr irkomulag
Ġflutning a
ĠgarÃ° inum
Ġe innar
Ġver uleik
ĠSjÃ¡lfstÃ¦Ã°isflokk s
ĠB ur
ĠsÃ©r t
ĠprÃ³sen tu
Ġk Ã¡l
ĠV ax
ĠP re
ĠfrjÃ¡l sum
Ġpla ta
u c
ĠbÃŃ ll
ĠÃºtlend ing
ĠÃ¶f ugt
S M
s agna
ĠD Ã³ra
vet na
Ġlof a
Ġdraum a
r on
Ġlag inu
ĠtilboÃ° s
veik i
sy kur
ĠsÃ¡ ust
E n
ĠrÃ¡Ã° gjafi
f andi
Ġh end
ĠPortÃºg al
ĠA b
ot ec
ĠÃĵ ttar
ĠSkipulag sstofnun
ĠinnleiÃ° a
ĠHn ÃŃf
Ġs ax
ss emi
ĠhÃ¶f Ã°a
20 15
ĠvÃŃÃ° s
ĠÃ¡n ni
Ġstarfsm anns
Ġlof orÃ°
ĠiÃ° gjald
ĠJÃºlÃŃu sson
ĠÃ¾r ey
ĠtÃŃ unda
steins dÃ³ttir
j ungur
af nar
Ġmann lÃŃf
af undur
Ġr Ã¶kum
is a
rei st
ĠGrÃŃm sson
ĠB ifr
Ġmeg um
Ġfast ur
ĠlÃŃk legri
Ġeinstakl ingi
Ġ19 18
ĠC ap
ĠD eild
ĠverÃ° brÃ©fa
ĠsÃŃÃ°astliÃ° iÃ°
vÃ¦g is
ĠstaÃ°sett ur
setur s
Ã°u Ã°um
ĠHÃ¡ kon
ĠfÃ©kk st
ĠJ Ã¶rÃ°
ĠAÃ°al steinn
ĠklÃ³ sett
Ġmat reiÃ°
Ġfyrra dag
ĠhÃ© Ã°an
ĠalÃ¾ingis maÃ°ur
ĠJ Ã³l
Ġaf gerandi
ĠC O
ĠdÃ½r alÃ¦k
Ġk Ã¶nnunar
ĠviÃ°bur Ã°um
ĠÃļtlend ingastofnunar
bur g
ĠHval fjarÃ°ar
ĠBifr Ã¶st
Ġsam spil
lÃ¶g Ã°u
Ġendur vinnslu
Ġ195 8
ĠStykkishÃ³l mi
f ug
ĠlÃ¦ kkar
Ġval inu
ĠauglÃ½s ingum
ĠGrÃŃm s
ar arnir
Ġh jÃº
ĠS endu
ĠE C
ĠStr Ã¶ndum
ĠUndir bÃº
ĠU nnur
Ġhugs unar
Ġhug bÃºnaÃ°
ĠGuÃ° finn
Ġkol efni
Ġp ari
ĠnÃ½ jung
ĠD yn
Ġlag fÃ¦r
ĠrÃº tu
Ġlung na
ĠBorgar leik
sk en
val i
ĠutanaÃ° komandi
at hug
ĠSkip iÃ°
Ġerind iÃ°
b Ãºs
Ã¡tt um
Ġfisk vinnslu
Ãģ r
Ġskip tin
Ġverk fÃ¦ri
ĠorÃ° sins
Ġmorgun inn
brot um
ĠFramkvÃ¦md astjÃ³ri
dyr i
ĠL eita
Ġlist ann
ĠprÃ³ tein
Ġgagn kvÃ¦m
ĠB Ã¦r
Ġnor sku
ĠÃ¾jÃ¡lf unar
as e
ĠrÃŃkisstjÃ³rn inni
ĠEd in
Ġs aka
Ġleik stjÃ³ri
L S
ĠÃºt lÃ¡na
ĠÃ© l
ĠT er
Ġhv a
ĠO kkar
jan leg
ĠEur o
ĠÃ¾ ema
ĠBar n
ĠEvrÃ³pum Ã³t
g Ã¶gnum
Ġst rÃ¦tÃ³
Ġd l
ska tti
ĠÃĸ lfus
ĠG i
ĠFjÃ¶l brauta
ĠheiÃ° ar
ĠSl Ã³
ĠaÃ° lag
Ġher ferÃ°
trygg ing
jÃ³ nir
ĠlÃ½Ã°rÃ¦Ã°i s
b reiÃ°
ĠneÃ° st
ĠL H
skil yr
ĠRich ard
ĠHr aÃ°
Ġbank i
hÃ³p um
ĠÃ¾yng dar
Ġs eldi
Ġver s
ĠL eir
arfÃ©lag inu
Ġbor Ã°um
ĠHÃ³l um
Ġk ara
Ġn eita
ĠÃ³ um
hald iÃ°
ĠsjÃ³ menn
Ġstr eng
ĠFramsÃ³knarflokk urinn
ĠaÃ°lÃ¶g un
ĠhvÃŃ tt
ĠL y
Ġdug leg
ĠGrunn skÃ³la
Ef tir
p andi
sk Ã¡k
ĠstaÃ° setning
hlut un
ĠVatn s
skjal asafn
Ġverk tak
ĠHer dÃŃs
ĠNorÃ°url anda
Ġell ilÃŃf
ĠÃ¡vÃ¶x tun
Ġris ast
w ard
Ġ jÃ¡r
Ġr jÃº
ĠH eild
Ġset u
nu Ã°ur
Ġdoktor sn
ĠKK Ãį
k eyr
ĠboÃ° skap
Ġbakv iÃ°
Ġc on
r aliÃ°
Ġyfir sÃ½n
ĠÃ¾ en
ey slu
ĠsÃ©rhÃ¦ fir
um l
ĠOp in
Ġhind ra
ĠM y
ĠEy ja
vak t
Ġo acute
ĠFjÃ¡r fest
ĠÃ¡kÃ¦r Ã°i
s ur
set ningin
Ġerlend ar
ĠumrÃ¦Ã°um ÃŀÃº
ĠSk Ã¡k
ĠnÃº gildandi
Ġeinang run
o gi
ĠR ef
Ġp oka
Ġsig la
vÃŃk ingar
ĠhÃ¡l s
ĠgrÃ³ f
Ġheimas ÃŃÃ°unni
Ġyfir standandi
Ġvefs ÃŃÃ°unni
Ġh al
ĠD anir
ĠÃ¡skor anir
Ġkl ÃŃn
ĠSigur bjÃ¶rn
ĠalgjÃ¶r t
ĠmikilvÃ¦g ar
ĠmetnaÃ° arfull
E vrÃ³pu
Ġt Ãºr
Ġaf sl
ĠÃĨ var
ĠfjÃ¡rfest inga
ĠT inna
Ġbyr juÃ°u
ĠGeorg e
Ġb i
ĠfÃ¡ rÃ¡n
Ġsameigin legum
ey inga
Ãºl kur
ĠstuÃ°ning smenn
Ġdyr um
Ġfl otta
mann sins
ett um
Ġkarl maÃ°ur
Ġfr eg
Ġbl aÃ°i
Ġlyf ta
ĠhefÃ°bund na
Ġeinken nist
eik ning
heim i
set ri
Ġeld i
ĠkÃ¦r lega
ĠVÃŃs i
ĠGam an
6 00
Ġp yl
ĠvÃŃ tt
ĠFor n
ĠSverri sson
ĠT rausti
Ġhug tÃ¶k
Ġsk art
Ġw as
U pp
eifl ur
Ġsveit inni
Ġlang varandi
ĠStjÃ³rn vÃ¶ld
ĠVilhjÃ¡lm sson
ĠRak el
tug t
hjÃ³ la
Ġbr enni
ĠkveÃ° ju
ĠflÃŃs um
h Ã³tel
sp rÃ³fi
ĠStokkhÃ³l mi
ĠtÃ³n listarf
Ġgreidd ur
ĠhÃº sm
s yni
al e
Ġheill andi
ĠskipulÃ¶g Ã°
Ġatvinn ut
ken narar
ker fum
Ġteik ningar
ĠTÃ¶l v
Ġtex ti
ĠlÃº x
ĠBla ck
vald s
s Ã©
ĠrÃ¡Ã° gjafa
Ġkyn ningarf
Ġborg in
Ġsann aÃ°
Ġmak rÃŃl
g andi
Ġung lingum
kl alyf
Ġri ta
ĠalÃ¾jÃ³Ã°a sam
afram kvÃ¦md
n or
ĠÃ¡ star
ĠB eiÃ°
ĠN Ã¦r
ol ÃŃa
ĠsnÃº ist
ĠT Ã©kk
Ġinn stÃ¦Ã°u
ĠsveitarfÃ©lag s
ĠpÃ¶n tun
ĠPÃ©tur sdÃ³ttir
Ã¾jÃ³nust unni
g rÃ³
Ġh ang
et iÃ°
ĠBÃŃ Ã³
Ġfagn aÃ°
s is
jÃ³ lu
sv ik
Ġ196 7
ĠskÃ¶p un
Ġpab ba
ĠkÃ¶rfub olta
Ġaf mark
Ġbygg i
Ġs Ã¶nnunar
Ġber ist
Ġtakmark aÃ°
ĠbrjÃ³ stakra
ĠalÃ¾ing isk
ĠfjÃ¶lmiÃ° l
Ġs onar
Ġley ni
Ġkra kka
ĠK nattspyrnu
pa c
s stjÃ³ra
ĠhÃ©r aÃ°s
veg um
ĠliÃ° anna
Ġtit ilinn
ĠstrÃ¶nd inni
ĠÃ¾rosk ast
s iÃ°
ĠO ne
ĠorÃ° nar
ĠdÃ³m nefnd
ĠskrÃ¡ Ã°ar
ĠklÃ¡r lega
ĠsekÃº ndu
Ġb Ã¶nnuÃ°
ĠÃ¾Ã¡tt tÃ¶k
Ġgrunn inn
Ġdans a
Ġmarg s
Ġinnan hÃºss
ĠdÃ½ pi
Ġst yle
Ġbreytt ist
ĠumferÃ° inni
Ġtakmark anir
ĠPÃ³l landi
Ġf Ã³
ĠE R
ĠÃŀaÃ° an
ĠAkur eyr
ĠSnÃ¦fell s
Ġbolt anum
Ġor kun
ĠG R
Ġleik skÃ³lann
f inga
Ġh u
ĠhljÃ³ ti
Ġf ingur
ĠfÃ¶ st
Ġhef i
stjÃ³r na
em p
el ja
ĠaÃ°al hlutverk
Ġkos inn
ĠÃļr slit
sÃŃ Ã¾rÃ³tt
ĠnorÃ°an verÃ°um
Ġstol iÃ°
Ġland lÃ¦knis
ĠNorÃ° menn
Ġstytt ist
Ġk Ã¦li
ĠleiÃ°bein ingum
ĠDagskrÃ¡ in
eg lur
Ġsam runa
ĠbÃº fjÃ¡r
stjÃ³rn endur
ĠB ra
Ġheil u
reg lugerÃ°
Ġï ¿
ĠM Ã³Ã°ir
ĠfÃ¶tl un
is ion
ak erfiÃ°
sv eita
ma ti
Ġskipulag ningu
g agna
m eÃ°
ĠS r
Ġfeng in
viÃ° rÃ¦Ã°um
ĠF undur
ĠG il
Ġfram vindu
str eng
Ġaugl jÃ³s
ĠviÃ° amik
ĠfjÃ¶l l
Ġaf skipti
verk efniÃ°
skyld um
Ġheil t
Ġvet ri
ĠÃ¡kÃ¦r Ã°a
ĠdÃ³s ent
lega sta
ĠmÃ¡l verk
tek jum
Ġvirk ur
ĠBorg arfjarÃ°ar
Ġodd vitar
borÃ° inu
Ã³m ynd
Ġg ol
ĠrÃ³m ant
Ġval ko
ĠÃ¾votta hÃºs
ĠÃ³t vÃŃ
ĠhÃ©r aÃ°i
ĠReg lur
Ġholl en
ĠmeÃ°hÃ¶nd la
Ġs h
ĠM us
ÃŃn an
ĠkveÃ° ja
Ġmark s
ĠtÃ¦p um
laus ar
Ġvin konu
R B
Ġg Ã³m
ĠM ax
br ug
ul eysi
ĠbÃºn aÃ°ur
vÃŃ u
ĠG B
of an
ja k
Ġaf skrif
ĠÃ¾ raut
al it
Ġk redit
ĠvÃ¶r urnar
Ġerind inu
E T
ĠS ur
Ġsy stir
ĠÃºrvals deildinni
ĠÃ³hef Ã°
Ġgri mm
Ġr ÃŃfa
Ġsal erni
samband iÃ°
Ġï¿ ½
ĠS afna
eÃ° lis
ĠM jÃ³lkur
ĠorÃ° inu
ĠlÃ© tust
ĠJÃ³n ssyni
Ġtit il
Ġinnl Ã¡n
Ġbein ist
ĠBygg ingar
ĠM est
ĠlÃ¶g maÃ°ur
Ġvirk um
Ġh rik
Ġb at
Ġskil ningur
Ãºr rÃ¦Ã°i
ĠW a
ĠVar nar
amiÃ° lun
ĠfjÃ¡rm unum
Ġb ri
ĠF rÃ¦Ã°slu
ka ss
fi mi
Ġsal num
Ġbygg Ã°i
Ġh opp
sk erÃ°
ĠtrÃº i
Ġtr ef
w ay
ĠL A
ĠReykja vik
lÃŃ fiÃ°
ĠpÃ³lit ÃŃska
Ġl Ã³Ã°a
ĠV ÃŃÃ°i
ĠG la
Ġ4 50
ĠÃ¶ sk
hÃ³p ar
ĠfyrirtÃ¦k janna
Ġh Ã¶nnuÃ°
an u
ĠB rey
Ġhn ÃŃf
v Ã¦Ã°a
ĠM eg
Ġvel tu
Ġkepp enda
Ã¡l s
Ġor ka
hÃ¦ fingar
ĠhvÃŃ la
ĠÃļt varp
saÃ° ilar
vÃŃ tamÃŃn
ĠG Ã¦
Ġreynd ust
Ġvott orÃ°
Ġv Ã¦rum
ĠJÃ¶kul sÃ¡r
ĠM ont
ĠEf na
ĠÃ¡l f
ĠHvÃŃ ta
ĠstjÃ³rn andi
m Ãºla
pl Ã¶n
afur Ã°a
ĠV inna
ĠEy glÃ³
ĠnÃ¦r ingu
Ġf ÃŃ
Ġb yss
afl Ã³a
sfÃ©lag a
ĠEyjaf jalla
Ġfl Ã¦k
ĠEgil sson
ĠTim es
er e
ĠMatvÃ¦ lastofnunar
Ġb ata
ĠS ann
ĠÃºt vega
ĠbÃ¦ n
fit u
g Ã³
ĠH rein
kom inn
ĠkjÃ¶r in
Ġend alaust
spek i
ĠRek strar
ĠHÃ©raÃ°sdÃ³m ur
or a
ĠfrÃ¦Ã°a st
ĠveiÃ° ig
Ġlands hluta
Ġtil ver
ĠhÃ¡tt semi
eind ir
rÃ¦Ã° an
ĠbÃº ning
Ġupp Ã¾
Ġyfir lÃ½singar
sh orn
Ġa ir
ĠHr un
Ġraunver uleik
ĠB leik
Ġfram komu
ĠBer n
ĠBÃį L
ĠrÃ©tt l
ĠS off
ĠrÃ¡Ã° un
Ġald ir
ĠmatvÃ¦ laf
as vÃ¦Ã°i
Ġfund urinn
Ġney ta
ĠEig i
Ġsamning urinn
om en
geng t
Ġl am
Ġdeild ir
ĠÃ¾Ãºs undir
Ġefnahag slÃŃf
Ġstarf sum
Ġfull n
ĠÃŀÃ¡tt taka
Ġst ak
Ġmynd aÃ°
Ġhl Ã¡
ĠferÃ° al
Ġhring t
Ġhar mi
Ġverkefna stjÃ³ri
ĠLauga veg
ĠB yl
Ġtilein ka
Ġb iÃ°ur
Ġend anleg
ĠJa va
ĠAtlant shaf
h en
ĠkjÃ¶r um
ĠHÃºs nÃ¦Ã°i
ag ga
Ġn Ã¦Ã°i
ĠsamgÃ¶ng um
ĠAftur eld
ĠSÃºÃ°a vÃŃkur
l Ã½
Ġopinber ar
ĠfrÃ¡bÃ¦r ar
Ġvarp aÃ°
ĠsvokÃ¶l luÃ°um
gjar nt
Ã¦ ddur
Ġupp skriftir
Ã³n list
Ġfisk im
ist ar
ĠÃ¾ing mÃ¶nnum
Ġyfir borÃ°i
Ġbygg Ã°ur
Ġli stak
ĠhvÃŃ tu
ĠMagnÃºs ar
ĠrÃ©tt ind
aÃ° ild
ĠLaugardal shÃ¶ll
Ã¡ hug
verÃ° iÃ°
sÃ¡ ri
v andamÃ¡l
Ġk Ã¶ku
ĠE inu
ĠF is
ĠsjÃ³ inn
Ġlegg st
ĠF L
Ã¶f nuÃ°
till Ã¶gu
Ġskip un
ĠÃģgÃºst sson
Ġinnif aliÃ°
Ġ ara
Ġum b
ang s
ĠÃ³g eÃ°
ĠÃĵ Ã°
Ġhlut afÃ©
borg ara
Ġkaup mÃ¡
ĠsÃ³knar p
ĠLS H
ĠstjÃ¶rn ur
v es
ilt on
Ġl at
Ã¾ urr
ĠÃģ sa
Ġheim sÃ³knir
Ġaf a
Ġfram farir
ĠhÃ¶fuÃ° stÃ³l
ĠgrÃ¡ Ã°ur
ĠÃģÃ¦tl aÃ°
ĠÃ³gl eym
h arÃ°
on u
ĠviÃ° l
Ġfal legur
Ġflutning s
ĠrÃ¡Ã° lagt
ow s
ĠsjÃºkra hÃºsi
Ã¾ arf
ĠÃ¶ld runar
ĠÃ³k unn
ĠtungumÃ¡l um
Ġgjaldker i
g rÃ¦Ã°
Ġreik ist
Ġtung umÃ¡la
ĠStjÃ³rnar and
ĠDrott inn
ĠbÃ³k ar
nast ofnunar
Ġvinnu stÃ¶Ã°um
Ġhugs anleg
ĠbÃºn aÃ°ar
ĠSigur Ã°i
Ġpen ingast
Ġ196 3
ĠNokk rar
ĠH Ã¶g
ild a
sk amm
Ġkost aÃ°i
Ġnor rÃ¦nu
S L
ĠÃ³ fÃ¦r
ĠEr na
Ã¸ r
Ġland bÃºnaÃ°i
ĠDal abyggÃ°ar
ĠÃ¡lyk tanir
Ġver z
ĠÃ³l st
ĠW ood
hlut ans
b Ã¦k
Ġkepp ninnar
Ġheimild a
ĠH eyr
l unnar
Ġt aum
ann sins
ĠB N
Ã¦r in
Ġskor ar
ĠkÃº lu
ĠfrÃ¡ kÃ¶st
ofn unum
dÃ³m ur
ĠV iÃ°ur
at ÃŃu
Ġ195 2
Ġf ÃŃna
inn ing
ĠH olta
ĠÃ³Ã¾ ol
ĠB ent
Ġall rar
ĠJ ar
Ġkl Ã¡
Ġor kum
Ġfeng ju
ĠÃįslen skir
Ġstof a
ĠR Ãºn
ĠlÃ¶g aÃ°ila
ĠAr k
ĠÃ¾rett Ã¡n
r anir
Ġh natt
Ġm innar
ĠH ill
sm Ã¡
amÃ¡l i
ĠÃ¡lag ningu
Ġt Ãº
at ÃŃma
Ġ196 5
ĠSkil yrÃ°i
ag ildi
Ġaf borg
Ġsveit arinnar
ĠlÃŃkam sÃ¡
sh yggju
Ġvil jiÃ°
ĠfjÃ³r tÃ¡n
j inn
ĠnÃ¡ms efni
Ġsvo leiÃ°is
ĠLista hÃ¡skÃ³la
ĠfjÃ¡rfest ingu
ĠThor odd
ĠV ÃŃÃ°
ĠP ass
ĠÃ¦ ru
h Ã³
en e
ĠsÃ©r tÃ¦k
slum iÃ°
ĠBÃ¦jar stjÃ³rn
ĠvÃ¶ll inn
3 00
Ġa c
ĠSÃ©r stÃ¶k
Ã½ slu
Ġsl yss
ĠHv amm
ĠtÃ¦ par
strey mi
ast aÃ°
ĠBandarÃŃkj afor
ĠMosfells bÃ¦jar
ĠhagkvÃ¦m ni
ĠgrÃ³Ã°urhÃºsaloftteg unda
ĠA TH
ĠJ e
Ġfull an
ĠFjÃ¡r hag
bÃºÃ°ir nar
ÃŃs gr
ĠAÃ°spur Ã°ur
ĠGuÃ°jÃ³n sdÃ³ttir
rÃ¦Ã° na
frÃ¦Ã° innar
Ġgjald daga
x ml
Ġb Ã½s
ĠS Ã¶r
a ch
Ġtil vÃŃsun
bank ann
ĠÃ¡kvarÃ°an atÃ¶ku
Ġfulln Ã¦gt
ĠpÃŃan Ã³leik
ĠM ore
Ġupp hit
Ġtv enn
ĠÂ ®
Ġminni hluta
Ġfullkom na
ĠaÃ° setur
Ġh reind
Ġr Ã¦Ã°um
ĠFjÃ¡r mÃ¡l
ĠKen narar
Ã¾ Ã½Ã°
ĠSt re
b elti
Ġef nt
ĠstÃ¶ Ã°ur
b all
leiÃ° ir
Ġatvinnul ÃŃfiÃ°
Ġheit um
ĠUms jÃ³nar
Ġgeg ndi
Ġendur skipulag
ĠlÃ¦kk aÃ°i
ei sta
ĠF la
eil is
ĠstjÃ³rnmÃ¡l amanna
m Ã¦tt
f rÃº
Ġl im
ĠviÃ° vÃ¶r
sam bandi
ĠFjÃ¶l miÃ°
mÃ¡ nuÃ°
ĠÃ¡kvar Ã°a
Ġvind ur
en z
ĠA B
ĠfjÃ¡r laga
ĠÃ¾r ef
jÃ³ tiÃ°
ĠKvik mynd
v ant
ĠsÃ©r kenn
rÃ¡Ã° uneyti
kyn s
Ġinnheim ta
Ġhald nar
ĠÃ¡ ferÃ°
ĠÃ¡ lita
ing anna
Ġst ri
Ġsp ort
Ġeftir fylg
ĠÃ³lÃŃk ra
Ġhim ins
ros oft
Ġvor i
Ġkost um
ĠHr Ã³k
ard e
v ent
ip l
Ġheild arf
ĠdÃ¦m t
ĠskÃ³l anna
ĠviÃ°hald i
ĠhÃ¡lf an
ĠaÃ°gang s
mÃ¦l endur
ĠHolly wood
Ġvinnu brÃ¶gÃ°um
skr Ã¶fur
or kum
ĠÃ¾jÃ³ f
Ġvott un
Ġvop na
gj Ã¶
byl gju
p all
Ġheima velli
ĠRannsÃ³k n
ĠdÃ¦m iÃ°
Ġb rÃ¡tt
sk y
ĠÃĵlympÃŃ uleik
Ġv andi
ĠG ist
ĠÃ³ vin
ĠFjÃ¶l ni
U S
iÃ° naÃ°i
Ġheim sk
kvÃ¦Ã° iÃ°
ĠHauk sson
ĠkÃ¦m u
sv ott
ĠGuÃ° rÃºnar
Ġkon urnar
Ġsp rey
Ġgef ast
Ġflutt ir
ĠvirÃ° ingar
Ġam er
Ġfry sti
Ġv oÃ°a
Ã¡Ã° herra
Ġhring inn
ĠSnÃ¦fell snesi
ĠIsa via
Ġund ang
ĠtÃŃma punkti
ĠhefÃ°bund nu
Ġrang ar
Ġleik stjÃ³rn
ĠW ar
ish eiÃ°i
ĠkvÃ¶ld mat
ĠflÃ³k in
ĠÃģsgeir sson
Ġfund ir
Ġlit ar
ĠSey Ã°is
Ġ10 9
Ġung men
ĠfÃ¦ra st
ĠReykjan esi
Ġaf nÃ¡m
p ark
ĠferÃ° amÃ¡la
Ġkaf l
Ġvins Ã¦lt
Ġ196 9
ĠendurhÃ¦ fingar
Ġv afi
lag ningu
ĠnÃ½ ting
ol e
ĠframleiÃ° sla
ĠHnÃŃf sdal
Ġtil hneig
Ġhald ist
Ġvan rÃ¦k
ot o
stof na
Ġalvar legum
Ġhlekk inn
EC D
Ã³l um
ĠSt einn
Ġkann aÃ°
ĠGuÃ°mund ssonar
Ġbreytt u
skÃ½r sla
ĠGuÃ° rÃºnu
Ġgr Ã¶mm
Ġbir st
Ġfal legar
eil u
ĠstÃ½r t
Ġs okk
ĠAll ur
Ġhjar taÃ°
ĠÃºtl Ã¶ndum
ĠFor m
ĠborÃ° iÃ°
Ġ194 5
Ġstill t
st Ã¶f
ĠaÃ° ventu
Ġmenn irnir
ĠvÃŃsind amanna
ĠhÃºÃ° inni
ĠW il
Ġs orp
ĠV eiÃ°i
Ġ3 000
if orn
ĠNÃ¡ miÃ°
qu e
Ġp ÃŃnu
Ġveg an
ĠhÃ¡ um
ĠrÃ¦k ju
ĠJ Ã¶r
ĠfÃ³rnarl amb
ĠNordi c
Ġum Ã¶nnun
Ġtal smaÃ°ur
Ġald a
ĠÃįslandsm eistari
ĠmÃ¶guleik um
g ilt
fÃ¦r um
lÃŃk t
ĠKr af
ĠreglugerÃ° ir
6 9
Ġh um
Ġsn jÃ³r
ĠNey Ã°ar
Ġfr eist
ĠBl Ã³Ã°
ĠjarÃ°ar innar
d y
ĠUm sÃ³knir
ĠFinn boga
ĠÃ¾ung t
Ġa um
sg jÃ¶ld
nÃ½ ja
ĠÃ¾Ã½ ddi
ĠO ECD
byrg Ã°ar
6 500
Ġvar nir
Ġfl Ã¦Ã°i
ĠD aÃ°i
Ġkepp ir
ĠkostnaÃ°ar lausu
Ġ ast
ĠsÃ½ klalyf
ĠAustur rÃŃki
Ġheit u
Ġb indi
ĠH um
Ġeld hÃºsinu
ĠrÃºmg Ã³Ã°
ĠUmboÃ° smaÃ°ur
ĠD jÃºpa
ĠSam gÃ¶ng
ĠHaf dÃŃs
Ġev rur
p ÃŃu
Ġupp ist
Ġhver fur
Ġhr yll
ĠvÃ¦ ng
ĠX X
ĠEurope an
ĠF i
ĠstjÃ³rn endum
Ġgrein ing
ĠEvrÃ³pu Ã¾ingsins
ĠÃ¾akk lÃ¡t
bÃŃ Ã³
al in
ĠB ill
ĠÃ¶ mur
Ġlang fl
ĠÃĸ ld
Ġlif Ã°i
reik ning
ĠlÃ¦g sta
kost naÃ°i
Ġundirrit aÃ°
v ing
Ġt bl
sk l
pl Ã¶tu
ĠsvÃ¦Ã°is skipulagi
ĠMic rosoft
ĠS infÃ³nÃŃuhljÃ³msveit
ĠFyrir lest
Ġendurspeg la
ĠbÃ¦k ling
jÃºk i
ĠSparis jÃ³Ã°s
u el
Ġk yni
Ġsumar sins
Ġfyrirspur num
ĠatburÃ°ar Ã¡s
ĠÃ¡nÃ¦g ja
ĠLyk il
ĠNÃ¦ sti
Ġundar legt
7 9
st Ã¦rÃ°
Ġtil greina
ĠslÃŃk s
ĠÃŃ sk
ĠhÃ¡ skÃ³lann
Ġeinkenn ir
ĠnÃ¡grann al
b eit
s ÃŃma
v Ã¶t
Ġheim urinn
ĠKr oss
hjÃ¡l par
ĠSkrif aÃ°
ĠÃ¡ m
ĠstÃ³r iÃ°ju
ĠsÃ¡tt ur
ĠrÃŃkiss jÃ³Ã°
ĠSeyÃ°is firÃ°i
Ġt eig
Ġsp jalla
Ġlag g
ĠtÃŃm amÃ³t
Ġkl Ã¡m
h und
Ġb ili
ĠglÃ¦s ilegt
ĠMad rid
ers on
j anir
Ġsig ling
Ġa v
ĠAr t
ĠhÃ¡l fur
ĠÃ¶nd unar
Ġumhverfis mÃ¡lum
ĠAndre a
Ġfram fÃ¦rslu
Ġfor varnar
brau tir
Ġvelkom na
Ġt est
ĠstÃ¦r Ã°ar
vist ar
i z
ĠL eig
ĠSkÃºla son
ĠÃ¾ Ã¶kk
eyt ingar
rÃŃ fa
Ġse ssi
ĠframleiÃ° endur
ĠframbjÃ³Ã° endur
Ġof ar
Ġfar veg
Ġflug vÃ©lar
Ġvak in
eftirlit sins
ĠGl ob
ĠjarÃ° hÃ¦Ã°
Ġpunk ta
ĠH re
Ġein tak
Ġhlut hafa
Ã¶rf um
ĠvinsÃ¦ ll
Ã¾jÃ³nust una
sl Ã¶gum
und iÃ°
Ġheim amanna
ĠsÃ©rstak s
Ġafur Ã°ir
Ġlek tor
Ġst or
ĠM inni
Ġbr jÃ¡l
Ã½s ingar
am erk
ĠÃºt boÃ°i
fall s
ĠhÃ¦kk unar
ĠEg yp
Ġkynn tu
ĠkartÃ¶f lur
ĠS or
hÃ¦ fur
Ġal Ã¾Ã½Ã°u
stig um
ĠniÃ°urstÃ¶Ã°ur nar
b et
Ġv anga
Ġp unda
Ġleik listar
ĠÃ¦t luÃ°u
ĠLÃŃ tiÃ°
ĠprÃ½ Ã°a
ĠO R
ĠÃŀing eyjar
ĠLiÃ° iÃ°
ĠbÃ¦r inn
ĠB ost
ĠÃ¡kv Ã¦Ã°a
Ġsamstarf ssam
ĠÃºtt ektar
Ġpress an
ĠÃ¾ekk ti
ĠaÃ°ferÃ° afrÃ¦Ã°i
Ġsner ti
Ġrefs ingu
Ã³ fer
ĠÃ¾ ÃŃnar
Ġinn gang
rÃŃ ka
skil um
Ġkveik ja
ĠB iskup
ĠhljÃ³msveit in
ĠHjar t
jÃ³ num
Ġa b
Ġfars Ã¦
li m
Ġkl of
ĠvÃ¶r una
f tum
Ġd ey
Ġvar anleg
Ġ195 3
Ġn ag
leik urinn
ĠHÃ¡ k
ĠHallgrÃŃm ur
ĠKepp t
K A
lÃ¶g reglu
ĠauÃ°veld ar
ĠRÃºss a
ĠAu ka
n Ã³tt
Ġ aga
ĠU S
ĠmiÃ° l
ĠÃļt gÃ¡
p ort
Ġk rÃ¦
rÃº mi
Ġandlit iÃ°
F yrir
Ġen gi
Ġfel i
ĠtillÃ¶g una
ĠEyjaf jarÃ°ar
k in
v Ã¶rÃ°
ĠP e
ĠkÃ¦r leika
ĠBorg arfirÃ°i
ĠÃĵsk ars
ĠK olding
ĠSig ga
ĠÃºt liti
Ġbor inn
ĠfrÃ¡bÃ¦r lega
Ġ2 20
ĠsÃ½ ningum
sh laup
ĠBaldur sson
ĠK Ãį
ang urinn
Ġsla pp
ĠÃļkra ÃŃnu
Ġs Ã³ma
ĠLau g
ĠhÃ¦kk andi
ĠvelferÃ°ar mÃ¡la
Ġg ÃŃ
Ġskip aÃ°i
ĠÃ¾Ã¦g ilegt
sl eysi
ĠnÃ½ tir
stjÃ³r um
Ġtr ans
ĠÃį ris
Ġaf greiÃ°a
eit um
fi eld
Ã¶ng ur
ĠfjÃ¡r mÃ¡last
Ġ10 3
ĠHÃ¡ skÃ³li
ĠstuÃ° st
bÃ³k in
Ġupps agnar
m andi
Ġsam tÃ¶kum
ang e
vÃŃk inga
ĠkjÃ¶r tÃŃmabili
ĠHrafn hildur
ĠÃ¶kum aÃ°ur
iÃ° naÃ°ar
Ġalmenn ilega
Ġborg um
Ġhugs anir
ĠfullorÃ° nir
Ġfasteignas ali
ĠstjÃ³rnskip unar
7 8
ĠstaÃ° greiÃ°slu
Ġgaf st
press an
ĠnÃ½ jungar
Ġsvar ta
Ġhygg jast
ĠviÃ°tÃ¶l um
ĠnauÃ°syn lega
ĠÃ¡grein ing
ĠF ro
Ġp df
ĠLo u
hrey fing
rit unar
ĠÂ ½
Ġfyrr greind
verÃ° ri
ĠhvÃŃ tum
ĠvÃ© la
ust ofa
smiÃ° jan
Ġsam sett
sm eÃ°ferÃ°ar
jÃ³Ã° sins
Ġlag Ã°ir
mÃ¡ nuÃ°i
ĠvÃŃs aÃ°i
Ġsumar bÃº
ĠÃºti bÃº
Ġkrist ni
ĠT R
Ġel skar
ĠReykjanes bÃ¦jar
ĠmÃ¡nuÃ° inum
ĠtÃŃm ans
n iÃ°ur
Ġskil ti
Ġundan Ã¾eg
ĠMenn t
ĠlÃ³Ã° inni
Ġhrun iÃ°
Ġyfirskrift inni
ĠHallgrÃŃm sson
kjÃ¶r dÃ¦mis
ĠYfir leitt
ĠT Ã¶lu
Ġbl Ã¦
reg lan
ĠfÃ¦ kkun
ĠpersÃ³n ur
yr kur
ĠrÃ©tt ri
ĠInd landi
Sc ript
ĠB ig
her s
ĠupplÃ½sing agjÃ¶f
ÃŃm abil
Ġland nÃ¡m
Ġf Ã³ta
ĠS ir
ĠviÃ° brÃ¶gÃ°um
Ġal manak
Ġbr eitt
el ig
ĠÃ¦ r
ĠmatvÃ¦ lum
ĠO ddur
Ġskemmtileg u
Ġp ap
Ġskor tir
fl jÃ³t
Ġvak naÃ°i
ĠBost on
Ġ z
Ġf Ã³st
ĠC lin
Ġsamanbur Ã°
Ġb endi
ĠT M
ĠStarf s
rest s
ĠAr g
Ġb oll
ĠgreiÃ° sla
op h
ĠÃģlf tan
G uÃ°
ĠÃį bÃºar
Ġmann ÃºÃ°ar
ĠFlokk ur
Ġsend ingar
ĠÃ¡horf enda
ĠÃºtl anda
Ġfyrir sjÃ¡
hÃ¶f Ã°
sferÃ° ir
ĠrÃŃk ari
Ġskemmtileg ra
ĠÃŀork ell
Ġeldsv oÃ°
f Ãºs
Ġv as
flokk sins
ĠAnd ersen
ĠSam ningurinn
ĠÃĵlaf i
ĠLei fur
kom iÃ°
Ġrek inn
ĠLÃ¦k n
ĠumrÃ¦Ã° an
ĠFjÃ³r ir
ĠAD HD
ĠJava Script
ĠÃ¡rs byrjun
ĠÃŃ hug
Ġfyrir sÃ¶gn
ĠLands bankanum
Ġundang eng
laust ri
afur Ã°ir
in ho
ĠS Ã¶g
Ġhand knattleik
ĠsÃŃt rÃ³nu
ĠmeÃ°al lagi
Ġskrif uÃ°u
Ġst rÃ¦ti
eng ju
ĠÃ¾Ã¡tt arÃ¶Ã°
sem d
Ġgrunn ur
ĠStur lu
ĠsÃŃman Ãºmer
ĠÃįsland ss
ĠÃŃÃ¾rÃ³tta hÃºsinu
Ġskref iÃ°
ĠsÃ¦n sku
Ġendursk o
ĠbÃ¶n kunum
ĠVÃŃsind amenn
ĠB Ã³
Ġfors ÃŃÃ°u
ĠRo y
Ġminnk andi
Ġn as
lu p
ĠhlÃ½ Ã°a
ĠÃ¾ung a
Ġbrott fÃ¶r
Ã¡Ã¦tl anir
ĠTil boÃ°
ĠMynd irnar
jÃ³ tum
Ġum boÃ°i
Ġdug ar
ĠÃģsm undur
ĠH Ã©Ã°
ĠhÃ¶r ku
ĠÃĵ heimilt
ĠjÃ¡kv Ã¦Ã°ar
sv it
ĠH enni
Ġupp Ãºr
ĠhÃ³tel iÃ°
ĠrÃ¡Ã°stefn unnar
Ġr est
Ġatvinnul ÃŃfi
ĠgÃ¶ng ust
Ġv og
Ã¡ st
ĠfÃ©lag asamtÃ¶k
Ġkynn st
ĠÃŀorg erÃ°ur
Ġb uÃ°u
Ġsp rau
Ġfinn um
ĠgagnrÃ½ n
aÃ° il
Ġh at
ĠS uper
Ġt Ã¦r
ag jÃ¶ld
Ġhlu staÃ°
Ã¶gn unar
Ġkvikmynd um
ĠGrÃŃm ur
ĠsÃ©rstak ra
ĠprÃ³f aÃ°
Ġfit us
ĠB el
ĠhjÃ³na band
ĠÃ¡kvÃ¡ Ã°um
ĠSe inni
ĠtvÃ¶f alt
ri ch
di o
hÃ¦ fa
Ġhring ir
ĠaÃ°far anÃ³tt
vÃ¶r slu
laus ra
ĠrÃº ma
ĠlÃŃk urnar
ĠHÃ¡ skÃ³linn
trygg ingu
ĠRÃŃk i
af slÃ¡tt
b aÃ°
beiÃ° ni
m ingar
Ġhl aÃ°a
ĠB esta
ĠÃ¾jÃ¡lf ar
g mail
yfir lÃ½singu
ĠBreyt ing
Ġfull ur
ĠÃ³viss a
hÃ¶f Ã°a
ĠT vÃŃ
ĠbÃŃ Ã³mynd
v andi
Ġv eist
Ã¦ sk
ĠSam tÃ¶kum
ĠviÃ°bur Ã°ur
Ġafn ema
Ġmun inn
ĠatvinnulÃŃf s
ar Ã¡Ã°i
ĠÃ¾ em
Ġfram tak
sv atn
ĠNeyt endast
v eÃ°ur
mann inum
Ġalvar legar
ĠstÃ½r Ã°i
Ġb olta
ĠNÃ½ ju
ĠlÃ½s i
ĠvandamÃ¡l um
Ġmel tingar
Ġhver finu
var ar
ĠÃ¶r t
ald s
ĠSam eigin
ĠÃĵlaf ssonar
ĠgarÃ° inn
ĠÃ¦ Ã°ar
Ġopinber t
ĠÃģ byrgÃ°
Ã½r u
eig nas
sh Ã³pa
ĠÃģr angur
ĠÃ¡her slum
ĠblÃ³Ã° Ã¾rÃ½st
Ġfars ÃŃm
ĠKri stur
ĠsnjÃ³fl Ã³Ã°a
ĠleiÃ°in legt
hlaup i
asÃ¶m um
ĠF e
ĠL inda
ĠHa arde
Ġforsvar smenn
H ver
ra sk
ĠR om
ÃŃs ar
ĠreglugerÃ° um
ĠgÃ¶gn in
F A
Ġb og
ĠviÃ° varandi
Ġmill jarÃ°
vÃŃs ir
ĠAllt af
afjÃ¶l di
ĠBergl ind
Ġbir tust
ag Ã¶tu
til boÃ°
ĠframleiÃ° anda
ĠStjÃ³rnar tÃŃÃ°
ĠStaÃ° fest
ĠKal iforn
s d
ĠSt el
ĠUm rÃ¦Ã°ur
ĠLands banka
ĠviÃ°skiptarÃ¡Ã° herra
Ġfor na
ĠaÃ°geng ilegt
L I
eg Ã°un
af ulltrÃºa
Ã³l s
ĠJ Ã¦ja
Ġskil mÃ¡lum
Ġmill ig
deild in
asem da
Ġkref ur
n ota
skip um
if t
ĠfjÃ¡rmÃ¡l um
ĠÃ¶flug ri
ĠV Ã©
ĠK ap
Ġsal at
Ġraf rÃ¦num
rek stur
ĠHeim il
ĠBlÃ¡ a
v Ã¡
or ti
ĠBr o
ĠHn yÃ°ju
8 9
ĠÃ¡ Ã°an
ĠH ita
lag na
ĠhÃ¡ gÃ¦Ã°a
ĠskoÃ° ana
ĠHeim ir
Ġfall in
Ġdreng ja
ĠÃĸg mundur
ĠB akka
ug erÃ°
Ãºr inn
Ġbe inu
ĠmÃ¦ld ust
Ġundantek ning
Ġtil boÃ°a
ĠB anka
ak i
Ġmynd skeiÃ°
Ġvik urnar
ĠSjÃ¡lf ur
ĠLÃ¡ tiÃ°
p unni
Ġsp enna
Ã¡tt unni
Ġteng ir
Ġmilli bili
Ġhugs ar
ĠVil borg
ĠfrÃ¦g a
tugs aldri
Ġr Ã¶Ã°um
ĠE A
sm aÃ°urinn
unn inn
ĠBygg Ã°a
t Ã³k
Ġm Ã¦ti
am en
ĠÃ¾jÃ³Ã° frÃ¦Ã°ingur
ĠdÃ¦m ig
ĠStjÃ³rn mÃ¡l
ÃŃ d
Ġleik stÃ½r
lÃ¶g in
Ġmis notkun
ĠVil tu
ss ins
ĠBl Ã³m
aÃ°st Ã¦Ã°ur
Ġbisku ps
ĠH ÃīR
Ġat riÃ°
Ġbund inn
ĠAngel es
ĠfrÃ¡ brug
Ġkon unnar
ĠGlit ni
k alla
ĠG Ã³Ã°ur
gar Ã°ur
ĠBS RB
Ġhlut afjÃ¡r
ĠÃĿ mis
E in
s in
Ã¡r in
ĠUpp lÃ½sing
Ġmyndband iÃ°
Ġborgar stjÃ³ra
ĠstjÃ³rnarskrÃ¡ nni
ĠSkot landi
Ġd ygg
ĠSÃ½ ningar
Ġsparis jÃ³Ã°s
Ġg Ã¡m
Ã°an ir
ili pp
ĠSk el
ĠO n
ĠGl Ã¦s
Ġvi ka
ĠÃºt skrift
Ġhv ass
Ġgist ist
Ġslys iÃ°
Ġk olt
ĠEig nin
ĠskjÃ¡lf ta
len ska
aÃ°gerÃ° um
ĠbÃ³kmenn tir
Ġheilsug Ã¦
Ġafrak stur
F or
eftir liti
ĠÃ¡l ver
ĠNeskaup staÃ°
Ġm l
Ġvand rÃ¦Ã°
ĠalÃ¾jÃ³Ã° legri
Ġtillit s
Ġg eir
Ġfr Ã¦Ã°um
Ġheg Ã°unar
Ġsp rett
ĠBorg art
Ġpl Ã¶tur
Ġein inga
ĠÃ³ tÃŃmab
ĠÃ¾r em
ĠNew s
Ġbreg Ã°a
ĠKri sti
r ÃŃÃ°
ĠR agna
ber ja
starf a
heimil iÃ°
Ġramm asam
Ã¾ Ã³l
veg gja
oss i
v agn
Ġatvinn um
ĠInni f
F yr
Ġh Ã¶ll
it e
Ġverk taka
ĠbÃ½s na
k Ã¶nnun
ĠP aradÃŃs
Ġmill il
Ġung menn
ĠIS O
Ġh Ã¶rÃ°
Ġein skonar
Ġsl Ã¦r
rei f
Ġatvinn ust
ĠNÃº verandi
ĠhÃ¡lf s
Ġrig ning
Ãŀ essi
ĠfÃ©lags skap
Ġs afni
ĠÃ¾ ok
ey Ã°u
Ã¶r kun
tu s
ĠSp Ã¡n
ĠGl er
ĠThorodd sen
ar Ã©tt
nar Ã¡Ã°
starf sins
ĠVerk alÃ½Ã°
al ÃŃn
ĠÃ¾ vo
Ġsk ert
ĠÃ³ vÃ¦n
men ningar
Ġney Ã°
Ġvef ur
Ġbreytingar nar
Ġframhald sn
Ġaf drif
Ġupp h
Ġleik ara
Ġlag aset
ĠrÃ¡Ã° andi
sl ÃŃk
ok e
ĠlÃŃf skjÃ¶r
ĠlÃŃk um
Ġlok un
ĠfÃ¦r u
ad min
ĠLauga vegi
su Ã°u
ĠsjÃ³ Ã°i
OR G
Ġneit aÃ°
c er
at ali
Ġku lda
ssam band
ĠTÃ³nlistar skÃ³la
ĠFÃ©lags vÃŃsindastofnun
ĠBÃŃldu dal
Ġgjald i
ĠbÃ¡ ga
Ġeinfald ar
Ġfars ÃŃma
ĠÃºtil oka
Ġspjald tÃ¶l
ĠA M
ĠK emur
Ġdrei fingar
ĠÃ¡vax ta
Ġkara kt
Ġfram sÃ³knar
Ġy ou
Ġminn ingu
Ġreglug erÃ°arinnar
ĠG rÃ¡
Ġ196 6
ĠÃŀing vÃ¶llum
Ġvenju legum
Ġrig ningu
af erli
Ġkanna bis
Ġm Ã¶tun
em b
miÃ° a
ĠFÃ©lag i
Ġvan lÃŃÃ°an
ĠkÃ¶rf uknattleik
Ġhaus inn
jÃ¶l lum
Ġfer liÃ°
Ã¶rÃ° unar
Ġlit rÃŃk
Ãŀ ann
Ġbrey tti
Ġheimilis fang
sjÃºkdÃ³m um
ĠskjÃ¡lf tar
ĠTak iÃ°
N V
ĠHÃ¡ mark
ĠFrÃ©ttablaÃ° sins
Ġinnflytj enda
ĠÃ¾akk aÃ°i
Ġdreng ur
ĠstjÃ³rnmÃ¡laflokk a
ĠBlÃ¶ndu Ã³si
Ġann ara
Ġland sleik
mann inn
ĠÃ¾yr lu
ĠÃ¶ku tÃ¦k
F ram
h rygg
Ġein sk
ĠnÃ¡ttÃºru frÃ¦Ã°i
ĠsamtÃŃm ans
ĠÃ³ hÃ¡
fÃ©lag ar
ĠSÃ¦ bjÃ¶rg
sk Ã¡la
ĠbÃ³k aÃ°
ĠÃ¡st rÃŃ
Ġstarfsem ina
i kk
Ġk jaf
ĠF rÃ¦
Ġp rÃ©
Ġjafn rÃ¦Ã°i
gang ast
Ġalmannatrygg ingar
ĠN au
Ġfund arg
sveit in
unefnd ar
ĠstrÃ¡k arnir
ĠSÃºÃ°a vÃŃk
ĠÃ¡h Ã¦tta
ĠaÃ°al hlutverki
kr em
h jÃºkrun
Ã¶l lur
Ġker fisins
of unni
mun ur
Ġaldur shÃ³p
ĠArnar son
Ġh rak
Ġmill jar
ĠTÃ³n leikarnir
ĠvÃŃmu efna
ĠPep si
7 6
J A
et s
Ġmest i
ĠKÃ¡ra hn
jÃ³ smynd
Ġfor varnir
ĠÃºrskur Ã°ur
eÃ° in
Ġvins amlegast
ĠHin rik
ĠBrjÃ¡n sdÃ³ttur
a i
Ġfor skot
Ġheil la
sb Ã³ta
Ġfla tar
ĠFlest ar
sst jÃ³rnar
ĠhljÃ³Ã° fÃ¦ri
ĠvÃ©l in
Ġmorg nana
ĠinnrÃ©tt ing
Ġg rÃ¦Ã°
ĠskoÃ° aÃ°ar
Ġeinb eitt
Ġm jÃ³
ĠverÃ°bÃ³l ga
Ġv ot
ĠÃ³ rÃ©tt
ĠÃģr ness
ĠstjÃ³rnar manna
s Ã¶fn
Ġfr estur
Ġkeyr t
Ġpark eti
in ja
Ãŀ ar
Ġs jer
ĠplÃ¶t unni
ĠE iÃ°
ĠV E
ĠK ÃŃn
ĠÃ³ form
ĠI C
if Ã¦ri
Ġkost aÃ°
ĠrÃ¦ ddu
ĠMo sk
Ġf Ã¶rÃ°un
ĠH jÃ³l
ĠO slÃ³
Ġdrykk jar
ĠKF UM
Ġsam vinna
ĠhÃ¶r m
ĠskaÃ°a bÃ³ta
ĠBu bbi
g us
ust Ã½r
Ã¡tt mÃ¡la
iss viÃ°
ĠmikilvÃ¦g um
Ġvon brigÃ°um
ĠlÃŃtil lega
ĠJ Ã³r
Ġof arlega
Ġfagn aÃ°i
Ġhug ur
ĠÃĵsk aÃ°
heimild a
ĠSkal lagrÃŃm
Ġm eidd
Ġe kk
nu Ã°ust
Ġfor nu
ĠvÃ©l inni
Ġk Ã¶l
ĠLÃ¶g reglu
ĠTel ur
ĠrÃ¡Ã° gjaf
Ġvet r
ĠBrasil ÃŃu
arf lokk
ĠL eg
ĠT aka
ĠmÃ¦ ting
Ġminn stu
ĠHjÃ¶r dÃŃs
herberg iÃ°
ĠhÃºm or
Ġn afna
ĠU FC
Ġel sku
Ġkirk jum
ĠÃŀjÃ³ Ã°ar
c m
Ġd imm
Ġken ningu
ĠDal vÃŃk
ĠrÃ¡Ã°stÃ¶f unar
ur e
Ġ10 6
ĠnÃ¡mskeiÃ° a
Ġfram setningu
Ġgetur Ã°u
ĠStÃ¶Ã° var
ĠÃºtilok aÃ°
U G
rÃ¦n an
um sjÃ³n
Ġlagg irnar
Ġfl ÃŃk
eit anlega
b akk
ĠV Ã¡
Ġflug vÃ¶ll
ĠUng ver
ĠraÃ° aÃ°
ĠSÃ³k nar
ĠS yst
ĠMeÃ° an
l aÃ°i
Ġp Ã¶kk
Ġst afa
Ġinn byrÃ°i
Ġtann lÃ¦k
ĠGau ta
ĠC lass
ĠgjÃ¶r samlega
ĠK an
ĠÃģ sb
greiÃ° slum
ĠÃ¾jÃ³Ã°arat kvÃ¦Ã°agreiÃ°
Ġvelkom iÃ°
ĠaÃ°al maÃ°ur
ĠVer tu
ĠSÃ½ slum
ĠRÃºm lega
Ġh Ã¦Ã°a
Ġver r
dag sins
ĠSÃ³l ey
ĠRÃŃkis stjÃ³rnin
ĠÃ¡ na
Ġn oti
vi c
ĠhÃ¶nd unum
ĠbifreiÃ° a
Ġholl t
t eig
Ġsam fellt
Ġlands framleiÃ°slu
Ġheil sa
ĠÃ¡f Ã¶ngum
ĠvÃ¶rum erki
yfirvÃ¶ld um
ĠÃ¡tt ir
Ġset ji
s jÃºk
ĠH ot
ĠT eng
Ġ195 6
Ġk nÃº
ott en
ĠÃĸ kum
deild um
ĠFl eira
Ġeignar hlut
Ġkv Ã³t
ĠOdd nÃ½
ĠdÃ³mstÃ³l um
ĠÃĸn und
y ti
st eyp
re sti
Ġfor dÃ¦mi
dÃ³m ar
ĠEngl ands
ÃŃ ll
Ġald raÃ°a
ĠnÃ¦g ja
Ã¾ Ã©tt
ĠK Ã¶nnun
ĠÃŃs skÃ¡p
ĠPr ent
ĠK yr
Ġpr enta
ĠrÃŃki slÃ¶greglustjÃ³ra
K r
Ġaf lands
sh afi
ĠKrist Ã³fer
ic al
s eg
Ġs eldur
nefnd um
vo gur
Ġalmenning ssam
Ġbyggingarf ulltrÃºa
7 00
j e
Ġraf magni
Ġeinf Ã¶ldum
Ġgreidd i
Ã¶tt um
Ġors akir
ĠK n
ĠsekÃº ndur
ĠhÃ³l mi
ĠfjÃ¡rlag afrumvarp
s er
ĠD em
Ġ10 2
ĠBeiÃ° ni
ĠÃ¾ Ã¶gn
Ġau Ã°u
Ġeinhver skonar
nas afn
ĠJÃ³hannes dÃ³ttir
Ġfram gang
sam ur
ĠgÃ¦ lu
ĠalÃ¾jÃ³Ã° legt
uf f
avÃ© lar
ĠM ÃŃn
Ġtil vit
ef i
ĠE ddu
B S
Ġn o
ĠmeÃ°al tal
ĠleiÃ°to gi
ĠjarÃ°skjÃ¡lf ta
Ġsig urinn
ĠOr ri
vÃ¶r Ã°u
ĠÃ¾rÃŃ fa
ĠBu sh
g uÃ°
Ġf Ã¶l
Ġleik ari
Ġundir skrif
Ġli tir
Ã³k us
Ġendur taka
ĠsÃ¡ um
ic s
Ġyfir stjÃ³rn
asam band
Ġums agnir
Ġveitingast aÃ°
ĠframkvÃ¦mdastjÃ³rnar innar
Ġs Ã³lk
sk jÃ¡
ĠÃŀ yr
ĠÃºr gang
ĠAth ygli
p urnar
ĠB Ã³nu
ĠhÃ¡mark s
ĠRey nsla
Ġand dyri
fÃ¦r sla
ĠI P
gja st
og y
Ġtilfinn inga
ĠD ana
ĠSlÃŃk ar
ĠlÃ¡t nir
ĠvÃ¶x tur
Ġherberg jum
ĠSmell iÃ°
ĠLÃ³Ã° in
ĠeldsvoÃ° ann
Ġfjall iÃ°
Ġst k
ĠB ang
ĠBygg Ã°ast
ĠOl ÃŃs
ssviÃ° s
ĠrÃ³tt Ã¦k
Ġgr ann
Ġeld ur
Ġmorgun mat
Ġbyrj uÃ°um
ĠfjÃ¶lmÃ¶r gu
Ġbind andi
r of
Ġk Ã¶kur
ĠV ind
ĠÃ³ lÃŃ
Ġopinber u
Ġborgar stjÃ³rn
ĠvinsÃ¦ lustu
ĠvandamÃ¡l iÃ°
Ġstefn an
ĠS I
Ġsk af
Ġald arinnar
ĠSpÃ¡ nar
Ġafskekk tu
Ġum h
Ġhandtek nir
ĠSind ri
sly sa
Ġk ÃŃsil
ĠbÃŃl sins
Ġkaffi hÃºs
ĠmÃ¡naÃ°ar ins
ĠfrÃ³Ã°leik s
ak sÃ³knara
ĠslÃŃk rar
ĠUng menn
Ġf i
Ã¦ st
ĠÃºt breidd
Ġsl ÃŃm
ĠSn jÃ³
ĠA ÃĲ
ĠMen ning
ĠhrÃ¦ dd
Ġven ja
ĠskÃ¶mm um
ĠÃĸrygg is
bÃ¦ ndur
Ġatbur Ã°um
Ġsk ep
frum ur
ĠiÃ°k endur
i ch
Ġsv Ã¡
ĠsambÃ¦r ilegt
Ġstefn andi
ĠRÃŃkisÃºtvarp iÃ°
Ãºt veg
ĠvinsÃ¦la sta
Ãºb bur
ĠHÃ©r aÃ°s
ĠÃ¾ung lynd
er g
Ġhl eypt
Ġkepp tu
raun ir
Ġrak in
ĠTill Ã¶gur
Ġl otu
sl urnar
Ã°a ustan
Ġkos nir
Ġr unniÃ°
ÃŃÃ° andi
Ġverk smiÃ°ju
fer lis
Ġsend iÃ°
ĠstaÃ°ar ins
ĠÃ¡hÃ¦tt um
ĠK Ãº
ek ju
as afni
Ġv onar
ĠKrist ÃŃnu
ĠskÃ½r ar
ĠÃ¡b endingum
ĠfrÃ¦ n
ĠGolf klÃºbb
ĠBirk ir
ĠflÃŃsalag t
Ġe ggja
Ġvak nar
ĠÃ³lÃ¶g mÃ¦
ĠAg nar
ĠFyll sta
ĠP ost
ĠSk oÃ°a
ĠviÃ°hor fum
Ġhef jist
ĠMennta skÃ³lanum
n est
Ã© t
ĠO li
ĠÃ¶f g
hef Ã°
fi skur
Ġsaman lÃ¶gÃ°u
ĠhÃºs in
Ġvenju legt
is on
ĠSam ningur
verÃ° mÃ¦ti
ĠÃºtreik ning
Af rÃŃku
Ġhva tti
Ġb ug
ĠrÃŃk t
Ġa kk
Ġvirk ir
Ġendurspeg lar
ĠE N
Ġfal legri
L eik
Ġm Ã¦Ã°
ĠH Ã¶nnu
ĠÃ¾yr ftu
Ã³ num
ĠGuÃ° bjar
ĠtjÃ¡ ningarf
ĠbÃ¦k urnar
J Ã³n
af h
bandalag sins
ĠfÃ³rnarl Ã¶mb
v or
ĠÃ¡hrif in
Ġsam bands
ĠmÃ¡l m
ĠfÃ¶ tum
Ġsveitar stjÃ³ra
esti val
ĠTÃ³m asson
n ema
t d
Ġh em
ĠA li
ĠdÃ½r mÃ¦
Ġumhverfis vÃ¦
ĠAg nes
Ġaf p
Ġskip tum
Ġhen ti
ĠÃ¾Ã½ tt
Ġskemmtileg ri
Ġ10 4
Ġnefnd um
Ġmannesk jur
l ana
ĠstjÃ³rn inni
Ġkos in
Ġmenning ars
and ina
ung inn
rÃŃk ja
ĠRagnar s
ĠKaupmanna hafnar
Ġv a
ik il
Ġkepp nist
ĠiÃ°naÃ°ar ins
ĠsviÃ° sstjÃ³ri
ĠrÃ¦k ilega
ĠK ing
ĠSk jÃ¡lf
Ġkeyp tu
ĠEll iÃ°a
ĠÃ¡s ak
ĠLax ness
admin ton
s o
ĠÃŀ jÃ³nust
Ġhef Ã°ir
nefnd arinnar
Ġheimil aÃ°
Ġfyrirlest rar
ĠKaliforn ÃŃu
ark ostnaÃ°ur
ĠÃ¦tt ingja
ĠÃ¡kÃ¦r Ã°ur
Ġeinstakling sins
ĠflÃ½ ja
ĠevrÃ³p ska
Ġk Ã¶nn
sl eyfi
rey nd
Ġskemm dir
ĠmarkaÃ° inn
Ġgeym ir
ĠmargvÃŃ slegum
ĠafÃ¾rey ingu
Ġbl Ã¦Ã°
rÃ¡Ã° gjÃ¶f
sh Ã©r
ĠÃŃ r
Ġupp skrif
ug h
Ġvit naÃ°
Ġvirk jun
ĠsÃ¦ tum
Ġkvikmynd agerÃ°ar
ĠundirbÃº nings
ing er
ĠT als
ĠT indast
ĠlÃ¶g manns
Ġhl eÃ°slu
skrÃ¡ nni
veld is
Ġhar Ã°a
ĠhlutabrÃ©f um
ĠHÃ¡ tÃŃÃ°in
ĠPÃ¡l ma
Ġdeildar stjÃ³ri
ĠmiÃ°bÃ¦ num
ĠGuÃ°na son
s und
Ġa elig
rÃ¦ m
stÃ¶ kki
ut ÃŃmi
ĠbÃ¡ tar
e inda
Ġsl Ã³Ã°ir
Ġvirk junar
Ġkross ins
ĠbjÃ¶r t
varp i
ĠsamÃ¾ Ã¦tt
Ġfe ta
ĠyfirvÃ¶ld um
ĠfiÃ° lu
ĠviÃ° ar
Ġset ningar
gerÃ° um
Ġ196 2
kost naÃ°ar
ÃŃ da
ĠM Ã¦li
ĠferÃ° alÃ¶g
ĠÃĿ r
x em
Ġeld f
ĠÃ³h epp
Ġflutt ist
ĠSiglu fjarÃ°ar
Ġkr ans
haf s
ĠfullorÃ° num
ĠÃ³Ã¾Ã¦g indum
ĠWilli am
Ġl entu
ĠÃ¶ kur
Ġborg ir
ĠstaÃ°fest ing
ĠviÃ°urken ning
ĠSkipulag sstofnunar
ĠSuÃ° vestur
Ġskil ab
rannsÃ³k n
ĠÃŀorlÃ¡k shÃ¶fn
Ġsnert ingu
h epp
lu gi
ĠsjÃ³Ã° fÃ©laga
ĠviÃ°bur Ã°ar
ĠS uÃ°a
Ġtek nu
rÃ¡Ã° sins
ĠHaf Ã¾Ã³r
ĠStarf smaÃ°ur
ĠhÃ© ldum
v eir
hver fiÃ°
Ġflugelda verksmiÃ°ju
Ġm unar
Ġgr eip
skil in
sm orgun
ĠsjÃ¡lf bÃ¦ra
Ġgef nu
Ġhand bolta
k arl
ĠÃ½ tt
ĠnÃ¡ttÃºru verndar
s el
Ġleik list
sv Ã¦Ã°a
menn ska
Ġhendur nar
ĠblÃ³m a
w e
Ġleik hluta
ĠC ru
Ġri tar
ĠFÃ© sbÃ³k
d ist
ĠK af
ĠniÃ°ur fell
as i
rÃ¡Ã° iÃ°
ĠhÃ¦Ã° inni
ĠAuk in
ĠeyÃ° il
ĠF in
Ġflug u
Ġr es
ĠfjÃ¶l menna
sÃ¦ ta
ĠÃ¶flug a
Ġundirrit un
Ġku ld
ĠInnif aliÃ°
s agnar
Ġhand an
ĠlÃ¡n shÃ¦
Ġvel gengni
tl y
fest u
ĠSum ariÃ°
Ġ194 6
ĠBÃº Ã°ar
ĠBH M
Ġafh en
ĠStefÃ¡n s
ĠEnd ilega
sv irkj
Ġskuld um
ĠHar ry
ĠlÃŃkamsÃ¡ rÃ¡s
Ġn aum
rar i
Ġgl aÃ°
ĠSvÃŃ na
ĠsamÃ¾ykki s
ĠB Ãºr
Ġfimm tÃŃu
Ã¡kv Ã¶rÃ°un
ĠStofnun in
ĠFimmtu daginn
ĠSlÃ¶kk viliÃ°
ĠSch ool
f rÃ¦Ã°a
ĠH iti
ak l
Ġvit na
ĠnÃ¡ nustu
ĠnÃ½ Ãºt
ell e
Ġleg a
Ġsamstarf iÃ°
ĠKjar tans
Ġs Ã¶fnunar
Ġg rÃ¦na
ĠA sk
Ġ195 7
ĠprÃ³sen ta
Ã¡ rum
m yn
Ġh ark
ĠKon rÃ¡Ã°
ĠSveit arfÃ©lagiÃ°
Ġf laug
Ã¡l um
ĠÃ¾r ota
ĠembÃ¦ttis menn
ĠR ed
ĠJ os
ĠhÃ¡ a
jÃ¶ ti
Ġbotn inn
Ġkor ta
ĠÃ³nÃ¦m isk
Ġst eig
ĠljÃ³s iÃ°
ĠauÃ°l inda
samning sins
Ġmark tÃ¦k
Ġlos unar
8 6
Ġver ald
ĠNor dal
ĠfjÃ¡rhag sÃ¡Ã¦tl
skatt ur
Ġrekstur s
ĠSÃŃm ans
Ġp ra
ĠSk yld
Ġs Ã¶nn
ĠG eÃ°
ĠhÃ¡ skÃ³lans
tak mark
rÃ©tt ind
vef ur
ĠÃ¦skulÃ½Ã° s
Ġein kun
Ġtiltek nu
u la
Ġbl Ã¶Ã°um
Ġsyn jaÃ°
ĠklÃºbb sins
b ita
t la
Ġfram iÃ°
ĠskÃ½r slum
ĠfjÃ³r Ã°u
ĠpersÃ³nu leg
ĠbÃºs ett
ri ka
est ar
Ġmenn tast
ĠhÃ¡tÃŃÃ° in
Ġknattspyr num
ĠSig rÃŃÃ°i
ĠnÃ¦ sti
ĠdÃ¦m d
ĠHallgrÃŃm skirkju
ĠSamfylk ingar
Ġs lak
ĠskoÃ° aÃ°i
Ġathug unar
Ġframhald iÃ°
Ġmeistar aflokk
Ġhlutir nir
ĠÃ¾jÃ³Ã° frÃ¦Ã°ing
Ġskemmtileg an
Ġt am
Ġbl Ã¡s
arÃ¡Ã° uneyti
vax ta
ĠN otkun
Ġley n
Ġun s
ĠfÃ³l gin
ĠKjal ar
ĠÃ¡r eiti
men ning
Ã¶t lu
ĠbÃ³kmenn tum
k Ã¶kur
Ġt eym
mÃ¡l s
ĠdÃ³m nefndar
Ġvin Ã¡ttu
Ġfeg ur
ĠfrÃ¦Ã° sla
ĠfiskveiÃ° a
ĠÃ¦ ft
ĠferÃ° amÃ¡l
ĠslÃŃk ir
Ġneyt end
Ġuppl Ã½
Ġn Ã¦m
ĠnÃ¡ ist
ĠhrÃ³ s
Ġlag Ã°ist
ĠmiÃ° stÃ¶Ã°
Ġhr ÃŃsgr
ĠsamrÃ¦ ma
ĠÃ¶ku tÃ¦kja
ĠHljÃ³msveit in
ĠE KK
ĠleiÃ° tog
Ã¦ si
ĠHÃ©raÃ°sdÃ³m i
ĠOb ama
v on
vÃŃ gi
Ġundir ri
ĠsambÃ¦r ilegum
Ġ195 5
ĠSm ith
ĠvÃŃsit Ã¶lu
Ġh ek
Ġnefnd a
ĠnÃ¡kvÃ¦m ni
Ġteik na
m Ã¶guleik
Ġ amma
um sÃ³kn
ĠaÃ° fanga
Ġlag er
Ġauk nar
Ġbe ing
Ġforset inn
ĠBelg ÃŃu
um ferÃ°
ÃŃm ann
Ġund ur
Ġfors jÃ¡
ĠmÃ¡nu Ã°ur
ĠFl Ã³r
ox ÃŃÃ°
ĠLandsnet s
Ġst inga
ken nar
Ġstof unni
ĠlÃŃfsh Ã¦ttu
Ġleik tÃŃÃ°
Ġsit ji
ek i
Ġtrey sti
l und
sku lda
ĠTil gangurinn
grein ingu
Ġkall aÃ°ir
ĠSA M
ĠsÃ½slum aÃ°ur
Ġbein ir
ĠEng lend
asviÃ° s
ĠAF P
Ġm Ã³Ã°
ĠH an
ĠÂ °
ĠrÃŃkis fjÃ¡r
Ġathug asemda
Ġbrug Ã°iÃ°
Ġb otni
Ġvinn utÃŃma
rÃŃk janna
Ġveitingast aÃ°i
sg reina
ĠverkalÃ½Ã° shrey
j enda
k Ã¡l
Ġk ok
Ġal a
ĠC al
ĠvÃ¦g ast
ĠvÃ¶nd uÃ°
Ã¶f lunar
ĠÃĵ hÃ¦tt
Ġaugl Ã½
ĠÃºrslit in
ĠÃ¡hugasam ir
Ã¶ss um
s ÃŃÃ°a
am eistara
Ġeinstak ar
ĠhÃ¶r Ã°um
ĠlÃ¶g gjaf
Ġvir tust
ĠKristjÃ¡n s
ĠlÃ¶g gild
rannsÃ³k nar
ĠskÃ¶p um
Ġgjald eyri
20 11
ĠÃ¡huga verÃ°a
ĠtÃ³nlist ark
ĠgagnrÃ½ nt
Ġfram lagi
Ġgjald tÃ¶ku
ĠkynferÃ°i slega
ĠÃŀrÃ³ unar
H Ãºn
Ġsaman lagt
ĠÃ¾riÃ° jung
ĠBreiÃ° holti
Ġhel vÃŃ
Ġr Ãºt
Ġr Ãºl
ĠD agnÃ½
Ġra pp
ĠÃ¶r yrkja
Ġkarl mann
ĠGrikk landi
F R
Ġf a
am agn
Ġfl Ã¶t
Ġfor mennsku
Ġeigin kona
bÃŃ lar
Ġfr elsis
Ġstyrk leika
ĠSveitar stjÃ³rar
er nis
Ã¶kk unum
Ġbre sku
ĠkrÃ¶fu hafa
amark aÃ°
bÃ³k inni
ĠiÃ° naÃ°
ov ision
Ġeinb eita
ĠAndrÃ© s
ĠS jÃ³Ã°
ĠO tt
Ġra ss
un num
af undar
ĠstrÃ¡ kar
ĠBarna verndar
ey su
ĠSmell tu
A M
Ġ jarÃ°a
ĠkjÃ¶ ri
Ġvanga vel
ĠfÃ©lags Ã¾jÃ³nustu
ĠviÃ°bur Ã°a
Ġpass ar
ĠsjÃ³Ã° inn
ĠtÃŃÃ° indi
ĠÃ¾votta vÃ©l
ĠNeÃ° st
Ã¾ rif
ĠÃ³ d
ĠW hit
ĠsÃ©rstak rar
Ġspil uÃ°u
ĠÃ¾akk lÃ¦ti
ĠLandspÃŃtal anum
ĠStra x
m on
ĠlÃŃ Ã°i
ĠveiÃ° ist
ĠsÃŃm anum
ĠÃ¾jÃ³nust an
Ġv Ã¶n
sl yf
ĠbÃº nar
Ġval kost
kvÃ¦m i
ĠHug mynd
nÃ¦g jandi
verÃ°laun anna
jam eÃ°ferÃ°
ra ph
ĠÃĨ vint
ĠÃģrness Ã½slu
ĠSk riÃ°
ĠÃ³n eitanlega
ĠG et
Ġgrein ilegt
ĠD on
stof una
shÃ³p ur
ĠS ett
ak sÃ³knari
hÃ¡tÃŃÃ° ina
ĠÃ³l jÃ³s
ĠTyrk landi
F S
ĠlÃ¦ t
ĠnÃ¡ttÃºr lega
ĠHjar ta
al eit
ĠJohn son
ĠÃ¡s Ã¦tt
ot um
Ġaug unum
ĠsÃ³l inni
Ġatbur Ã°
fli x
ĠHann esson
ĠsÃ©rfrÃ¦Ã° ingum
al est
ĠA C
Ġnot uÃ°u
ĠhÃ¡l ku
sk e
Ġ19 20
Ġmann anna
rÃŃk jum
hÃ¦ tta
ĠÃ¦tl aÃ°ur
ĠuppÃ¡ hald
Ġand lÃ¡t
ĠVÃŃs aÃ°
k iÃ°
ĠÃ³ dÃ½ra
ĠÃ¾Ãºs unda
Ġlands vÃ¦Ã°i
ĠÃ¾urr t
ĠlÃ¦kk unar
ĠÃĿms ar
ĠsveitarfÃ©lag i
ĠnÃ¡mskeiÃ° sins
ĠReyk hÃ³lum
Ġtiltek inn
Ġgreidd u
Ġpist il
ĠRÃ¡Ã° stefnan
Ã¡ tak
ĠM eistar
agn aÃ°ur
her ji
ĠFÃ¶stu daginn
kvÃŃ sl
en num
Ġum burÃ°ar
ĠG Ã¶gn
ĠR u
Ġp ort
ĠT ÃŃ
Ġeig inn
Ġber ja
Ġkepp endum
ĠfjÃ¡rm agni
ĠfjÃ¡rhÃ¦Ã° ir
ar annsÃ³k
ĠF ur
ĠÃŃsl am
ĠinnbyrÃ°i s
Ġfyr ram
ark erfi
deild ir
ĠKÃ¦r Ã°i
ĠmÃ¡tt u
ĠÃ¡t jÃ¡n
al eiti
ĠS unna
ĠskÃ½r slunnar
Ġskyn semi
ĠAir b
Ġrey num
bÃŃ ll
Ġsker Ã°a
ĠÃ¾v ott
Ġr o
ĠÃŀ Ã©r
ĠE ist
bol ti
aÃ°ferÃ° um
virk t
ĠframboÃ° s
ĠN u
Ġhug bÃºnaÃ°ar
ĠW ind
Ġskipulag slaga
ĠHins vegar
Ġkass a
ĠSku tul
Ġframs Ã¦k
Ġk Ã³
Ġtil tÃ¦k
Ġ195 4
jar n
sh ygg
sst aÃ°ar
Ġkon una
ĠVi ew
d o
Ġh undar
Ġfer Ã°ar
ĠviÃ°tal inu
Ġeinb eit
Ġstarfsum hverfi
c ed
ĠsÃŃ Ã°um
Ġheim sf
ĠlÃ½ stu
arfrÃ¦Ã° ingur
ĠStjÃ³rnarand stÃ¶Ã°u
ĠbÃ¦ ndum
ĠHeim a
ĠStur la
Ġveig amik
leg heit
var pa
ĠPh il
ĠB R
ast Ã¶Ã°
ĠD ans
ĠfÃ³l st
Ã¾jÃ³n n
ĠDan mÃ¶rk
ar di
ir it
ĠBjar nar
ĠÃ¾riÃ° jungur
ĠneÃ° ar
ĠJafn rÃ©ttis
ĠrÃŃkisstjÃ³rn ina
Ġ194 9
oo oo
ĠBirgi tta
Ġg Ãºm
Ġum bÃºÃ°um
Ġ194 7
Ġhreins un
sk rar
Ġkaup endur
ĠPÃ¡l mi
od e
svÃ¦Ã°i sins
Ġlof aÃ°
ĠtillÃ¶g unni
ĠÃ¡rsreik ninga
ĠÃºtflutning s
F rÃ¡
Ġhl eypa
ĠviÃ°bur Ã°ir
Ġsam staÃ°a
ning num
ĠL Ãºt
Ã°ar a
Ġmun t
Ġhn eyk
ĠaÃ°stoÃ° aÃ°
ĠM amma
Ã¾ or
ĠliÃ° nu
ĠauÃ°lind ir
lif andi
ĠÃ³Ã¾arf a
ĠV aÃ°
mÃ¡l ans
Ġfel li
viÃ° skiptum
ĠMik lar
ĠmÃ¶gu legum
Ġvegg jum
skyn s
ĠfrÃ¡ gang
ĠdÃ½r t
ĠmÃ¡naÃ°ar lega
drÃ¦ tt
Ġbr yggju
Ġland aÃ°
ĠstjÃ³rnar maÃ°ur
Ġ193 8
ĠfullnÃ¦g ja
ĠOl sen
ĠP Ã¡
ĠborÃ° inu
gef iÃ°
h at
bl Ã¡s
Ġ16 1
ĠendurnÃ½ jaÃ°
Ã©tt u
ĠÃºr bÃ³ta
Ġley s
Ġfal in
Ġstyrk jum
Ġbrag Ã°i
Ã¶g unni
ĠÃ¾Ã½Ã° ing
ĠLÃ¶greg la
Ġtutt ug
ĠlandsliÃ° inu
ĠÃŀÃ½skal and
Ġsig ruÃ°u
Ġvit undar
ĠgagnrÃ½ nir
Ġl eÃ°ur
hver ju
os iÃ°
Ġpre sta
ĠÃ¾ekki st
Ã¶g unnar
Ã¶r kur
ĠÃºtgÃ¡ fur
m us
ĠW i
Ġminni st
Ġhvat ning
D ag
au gu
Ġdreg ist
ĠrÃ¡Ã°ning arsam
E Y
ĠÃ¾ agnar
Ġb if
ĠS jÃ³n
Ġbrot in
ĠaÃ°ild arfÃ©laga
Ġkveik t
Ã¾ oli
ĠpÃ³ sti
ĠEyjÃ³l fsson
hÃ¡l si
h Ã³lf
m arsdÃ³ttir
ĠF a
Ġor gel
Ġsum t
ĠÃ¶r yrk
ĠFjÃ¶l skyldu
ĠbÃ³ka safn
ĠÃįr landi
ver jum
unn in
ĠlandsliÃ° iÃ°
ĠMennta vÃŃsindasviÃ°
Ġh jÃ¶r
ĠHaf Ã°i
ĠOf tast
ĠRann veig
ĠS Ã¶lu
ĠÃ³ jafn
Ġheim ur
Ã¶k uÃ°
hver finu
ĠskÃ½r ir
Ġsameigin legri
ĠpersÃ³nu upplÃ½singa
Ġendurgjald s
Ġheimsstyr jÃ¶ld
ing jum
ĠlÃ¶g mÃ¦
ĠfjÃ¡r fram
ĠnÃ¡m sins
Ġefni slega
ĠÃ¾or ra
ĠEfna hag
Ġl Ã³Ã°ir
ĠÃ³ vÃŃst
ĠMeÃ° fylgjandi
ĠprÃ³ fiÃ°
he ill
ĠGunnar i
ĠEx press
ĠsÃ¡rs auka
ab Ã³k
smiÃ° ja
ĠNokk uÃ°
ĠHam ra
ĠHÃ©raÃ°sdÃ³m s
h ygg
Ġum hyggju
Ġgrund vÃ¶ll
ĠsvÃ¶r uÃ°u
ĠHjÃ¶r tur
ĠÃ¡ verka
ĠfrÃ©tt inni
Ġfrumvarp s
ĠskjÃ³ li
Ġm Ã¶nd
ĠH y
ĠSmÃ¡ ral
f ri
leiÃ° ingar
ic an
h one
Ġe mail
ĠV enju
ĠC re
Ã¡r sins
Ġkepp nin
Ġvirk i
ĠStarf semi
ĠmeÃ°li mur
ĠÃ³sam mÃ¡la
sm un
Ġdag legt
sv ald
im i
ĠSam Ãº
eÃ° a
ĠV og
ĠV ic
ĠGr ind
ĠÃºtl Ã¡n
ĠR os
ĠÃ¾Ã¡tt unum
garÃ° s
ĠÃŃsl and
ĠverÃ° andi
ĠlÃ¦k ninga
ĠjÃ¶rÃ° in
ĠRa un
Ġf ol
es ar
ĠfÃ¦r Ã°ar
Ġuppf Ã¦ra
sv einn
dÃ³m a
Ġsak sÃ³knara
ĠsjÃºkdÃ³m inn
ĠSpur ningin
h lÃŃÃ°ar
sk aut
ĠlandsliÃ° sins
ĠÃĨt li
Ġund ra
ĠHaf iÃ°
Ġs Ã¡Ã°
Ġf Ãº
ĠJ ac
Ã¡ sum
Ġsk ÃŃ
ĠB M
ĠSigur laug
Ġhor ni
ĠsauÃ°fjÃ¡r bÃ¦nda
r and
sk ÃŃf
ĠT oy
ĠÃģ kÃ¦r
yn num
Ġgr en
ĠSv and
tar innar
Ġlaus num
ĠÃ³dÃ½r ari
Ġg aum
ĠG ild
frÃ¦Ã° ilegum
ĠW ill
Ġheit inu
ĠbrjÃ³stakra bbamein
em ar
ĠstaÃ° ist
sÃ½ nd
Ġkaf fist
Ġloft h
ĠgrÃŃÃ°ar leg
Ġeftirt Ã¶ldum
ĠÃ¡kveÃ° inni
Ġsamein ingar
ĠRaf magn
ĠF ir
Ġ11 5
tal in
Ġeink alÃŃf
Ġkjar a
Ġborgar ar
ĠMann rÃ©ttinda
ĠÃ³ merk
Ġhor fur
ĠjÃ³ lum
ĠSte ind
Ġtilnef ningu
k uÃ°
r ans
ĠLÃŃ fiÃ°
ĠviÃ°l eitni
ar Ã°anir
frÃ¦Ã° slu
ĠÃŀorvald sson
Ġmisjafn t
ĠsjÃºkraf lutning
g ram
ĠrÃ©tt an
ĠAl manna
ĠmÃ³t mÃ¦li
Ġheims Ã¦k
ĠvÃ¶rum erk
ĠÃ¡vÃ¶x tum
Ġstund ina
ĠReykjavÃŃkur flug
Ġbo x
ĠgrÃ¦ Ã°a
afÃ©lÃ¶g um
Ġtilfinn ingum
ĠflÃ½ ta
ĠhÃ³tel i
arf a
ĠSt Ã¶Ã°u
ĠSig rÃŃÃ°ar
ĠbÃ¡ tinn
ĠBÃ¦ tiÃ°
Ġtug i
Ġtey mi
g ast
k affi
ĠrÃŃk ti
ĠtÃ¦k nin
Ġsex tÃ¡n
ĠKF Ãį
Ġleyf ilegt
Ġrisast Ã³r
Ġst aÃ°urinn
ĠS ili
Ġat riÃ°a
ell ir
ĠsjÃºkdÃ³m ur
gir ni
EF A
ĠÃ¾ykk t
Ġsamsvar ar
ĠN r
Ġland nr
ĠÃŃsl andi
ĠJÃ³n ÃŃna
ĠFÃ³lk iÃ°
Ġfermet rar
Ġlausaf jÃ¡r
ĠKrist insdÃ³ttir
reik ningur
ĠBenedikt ssonar
Ġbyl ting
ĠvirÃ°isaukaskatt s
st ÃŃmi
ĠF lutning
Ġverk lags
ĠEy jum
alt h
Ġel li
ĠrÃºmg ott
ĠaÃ° sÃ³kn
Ġb Ã¶l
reiÃ° slur
ĠSvar iÃ°
ĠHo lu
Ġalmannatrygg inga
Ġs yÃ°
Ġg ÃŃr
sm ÃŃÃ°a
Ġinn tak
brÃ©f um
ĠrÃº mi
Ġst Ã¶ku
Ã¾ rÃ¦Ã°i
Ġfyrirhug aÃ°a
Ã¶pp um
Ġfyrirbygg ja
ĠHeils ug
vettvang i
ag eymslu
Ġrit stjÃ³rn
ĠlÃ¦k num
ĠSjÃ¡lfstÃ¦Ã°isflokk inn
ĠfÃ©lags starf
ĠfjÃ¡rmagn s
ĠKyn ning
ĠkÃ³r inn
Ġfyrram Ã¡liÃ°
ri sta
ĠorÃ° anna
otten ham
r aÃ°ur
Ã¦ ling
ĠgerÃ° inni
sÃ¡ riÃ°
al ok
Ġk urt
ĠKrist ÃŃnar
ĠBerg mann
ri ck
gar Ã°a
Ġsyn jun
Ġbeit ingu
A tl
h al
arÃ¡Ã° uneytis
ĠleiÃ°bein andi
ĠsjÃ¡lfst Ã¦Ã°a
ĠJakob sson
ĠSt rÃ¦tÃ³
sst efnu
ĠHeilbrigÃ°i sstofnun
Ġfj Ã¦r
Ġsynd a
ĠB aug
Ġvatn sb
m eÃ°li
ĠGer Ã°ar
O L
ut ÃŃu
ĠÃ¡horf endum
ĠhÃ¶g gi
ĠR y
ĠHÃ©r aÃ°
Ġathug iÃ°
ĠRÃŃk isk
ĠStÃ³r u
ĠlÃŃt illi
ĠL ars
Ġfar nar
Ġvir t
Ġkost ir
Ġri ti
er kja
Ġof fitu
ĠHÃ¡ skÃ³l
ĠVatnajÃ¶kuls Ã¾jÃ³Ã°
sk oti
Ġmann virkja
bygg Ã°um
Ġheit ar
Ġstefnum Ã¶rkun
ĠafslÃ¡tt ur
ĠBÃ¦r inn
ĠÃºt ÃŃ
ram leiÃ°
fr jÃ³
Ġpen ingar
Ġap Ã³tek
ĠafleiÃ° ing
Ġdval iÃ°
ĠHin ir
ĠtÃŃma bÃ¦rt
Ġhlut haf
Ġk ipp
Ġn ÃŃt
Ġein tÃ¶k
Ġleg u
ĠWilli ams
s skÃ³la
ĠSk ila
Ġfel ist
ĠframleiÃ° andi
kirkj unni
Ġkr Ã³k
trÃº ar
Ġdr agi
ĠUpp l
sb raut
ĠOp nunar
ĠrÃºss nesk
h jar
ĠU SA
ĠrÃ©tt hafa
Ġ11 1
hÃ¦ fingu
m ing
Ġinn tÃ¶ku
Ġse inu
ĠfrÃ³Ã° legt
ĠMÃ½r dal
Ġsp ari
ĠgÃ¶t unni
ĠfjÃ¡r veit
heim ilum
saÃ° ili
ĠM jÃ³
Ġfeng inni
ĠFl Ã³a
ĠFjÃ¡rmÃ¡laeftirlit inu
ĠB og
ĠFjÃ¶l breytt
Ġkapp i
ĠS Ãŀ
sf undi
ĠÃŀr jÃº
Ġl jÃºki
ĠS agt
Ġend ingu
Ġbey g
ĠSka tt
rÃ¡ Ã°um
sÃ¶g nin
s Ã¦ti
bl ind
liÃ° inn
Ġums jÃ¡
ĠBen jam
Ġlest ri
miss andi
ĠF undi
of andi
Ġra sk
ĠtvÃŃ bur
Ġsigurvegar i
Ġtil greint
stÃ¶ kk
Ġand ar
ĠBir gis
ĠKr Ã³k
Ġseld ar
ar ann
tÃŃÃ° ni
Ġfisk eldi
ĠNet fang
ĠÃ¾arf tu
ĠÃŀjÃ³Ã° verjar
ĠSjÃ³ Ã°urinn
ĠT ottenham
ĠbrÃ¡ st
kv eit
ĠSt af
ĠsÃ½ num
Ġbl okk
sp urnar
ell ur
ĠRagn hildur
ĠK rakk
Ġkvikmynd agerÃ°
ĠlÃ¦r ir
ileik i
ĠÃ³eÃ°l ilegt
ĠbÃ³kstaf lega
f at
ĠÃ³ Ã¦sk
ĠsjÃ¡ varf
set ningum
Ġfast an
ĠÃŀrÃ³ un
ĠL il
ÃŃk an
ĠlÃŃf rÃŃki
ĠmÃ³ del
Ġflug vellinum
Ġher menn
ĠbÃ¦jar rÃ¡Ã°
ĠMennt amÃ¡l
ĠH olt
on ey
Ġgr Ã¶f
Ġflokk ast
Ġheyr ist
Ġfullkom iÃ°
ĠS at
ĠNÃ½ heimum
osning unum
Ġh napp
es a
ĠsmÃ¡ bÃ¡ta
ĠÃįsafjarÃ°ar bÃ¦r
ĠJÃ³s ef
D F
Ġsk all
ĠhÃ¶f nina
ĠfordÃ³m a
ĠAlÃ¾ing isk
ĠskjÃ¶l um
Ġsvak alega
M ynd
g s
etur s
Ġkaup in
stjÃ³r ann
jaf ir
ĠlÃ©tt ar
ĠnÃ¡gr enn
ĠMennta skÃ³lans
am ati
ĠP lus
Ġdr Ã¶gum
ĠLÃ¦k na
er o
ÃŃ bÃºÃ°
Ġrek sturinn
sb ar
ĠhÃ¦ttu leg
ĠKom i
ĠÃ¾yng ri
ĠfÃ©lÃ¶g in
Ġstarfsem inni
Ġl und
on n
frÃ¦Ã° ingi
ĠVer a
ĠKom du
Ġseinu stu
ĠkrÃ³n an
ĠSkÃ¡l holt
k la
l iÃ°ur
Ġleig um
ĠBerg Ã¾Ã³r
stjÃ³rn unar
ĠstÃºlk an
Ġopnunar tÃŃma
h eiti
l ine
ĠÃŃ tÃ¶l
ĠS alt
ĠÃĨ gi
ĠSkaft Ã¡r
ĠhÃºsn Ã¦Ã°iÃ°
s agnir
vÃŃ a
ĠSt rÃ¡k
eld um
Ġverslunar manna
ĠÃŃ huga
mÃ¶r g
fÃ³lk iÃ°
alÃ¦k nir
Ġra utt
Ġeigin leikum
amenn tun
ÃŃsk ir
ĠKF UK
ĠBrag ason
Ġkarakt er
Ġskip s
els en
Ġvar anlega
as Ã¶lu
Ġkl Ã¦dd
Ġ10 7
ĠbÃ¡t num
g Ã¦Ã°i
ĠM ir
braut inni
Ġmats eÃ°
Ġathyglis vert
ĠÃ¡kvarÃ° ana
ĠA la
Ġyfir lÃ½sing
ĠÃŃslensk i
ĠstÃ©tt arfÃ©lag
afur Ã°um
var Ã°a
ĠstjÃ³rnar innar
ĠP S
ĠKrist in
Ġraf rÃ¦nu
Ġhor fast
ĠGer Ã°u
Ġkunn Ã¡ttu
Ñ Ģ
Ã½r ar
ĠhÃ¡ ar
ĠSig trygg
Ġborg aÃ°
ĠrÃ¦ st
ileg s
eig endum
sem bÃ¦tt
Ġh Ã¶m
sleg ra
ĠF jÃ¶r
Ġeigin maÃ°ur
sker fiÃ°
ĠuppÃ¡ haldi
Ġveru legar
ĠÃ³l jÃ³st
Sk aft
Ġgif t
Ġneit aÃ°i
kor ti
h ildi
h engi
am pa
Ġfram kvÃ¦mt
ĠP lan
Ġkon unni
Ġlei kv
Ġreikning inn
sv egi
ĠNiÃ°urstÃ¶Ã°ur nar
r eit
Ġtil mÃ¦lum
ĠsjÃºk raliÃ°
Ġheyr i
Ġneyt endum
ĠHag kaup
ĠÃ³breytt u
ĠsÃ½slum anns
ĠlÃ¶ggil tur
ĠVeÃ° riÃ°
N S
an leika
ĠR ob
ĠlÃ¡ nt
Ġar e
ĠBretl and
ĠKen nara
LA ÃĲ
ok i
tÃ³n leikar
Ġeinkar ek
Ġeftirfylg ni
ĠJ ust
skip ting
sp ili
bo gi
ĠstÃ¶Ã° vaÃ°
vir ka
ĠEur ovision
astarf i
berg sson
veiÃ° um
ĠRÃºss ar
Ġofn Ã¦mi
ĠSey Ã°i
ĠFljÃ³tsdal shÃ©r
ĠV illa
ĠveiÃ° il
Ġst jÃ¶rnum
ĠMar ta
Ã¦r ni
ĠT H
ĠHÃ¶f undar
ÃºtgÃ¡ fan
ĠSpur ning
ĠLauf ey
Ġr Ã¡n
ĠL as
bl and
sviÃ° iÃ°
ĠsamtÃ¶k unum
Ġspill ingu
Ġbylt ingar
ĠG estir
Ã³tt Ã¶ku
Ġvin Ã¡tt
ĠFjÃ¶l margir
versl unum
ĠstÃ©tt arfÃ©lÃ¶g
ĠljÃºf feng
Ġf lag
Ġauk ins
asam t
ĠferÃ°alag i
ĠmÃ¦likv arÃ°a
m as
Ġs eÃ°
Ġ5 000
ĠSk r
bur Ã°ir
Ġth at
Ġbr ugg
ĠC or
ĠmeÃ°al stÃ³r
ĠhljÃ³Ã° aÃ°i
ĠfjÃ¶l lum
ĠSig mundar
Ġskor uÃ°u
Ġkirk jur
ĠKepp nin
ĠkynferÃ°is brot
! !
j Ã¶Ã°
Ġum Ã¶nnunar
ĠU EFA
ĠtÃŃmabil sins
ĠMosf ell
V A
Ġsk ÃŃn
at es
Ġlist amaÃ°urinn
ĠhljÃ³ ma
ĠJÃ³nas ar
Ġmi sl
gl er
ĠhljÃ³msveit inni
ĠBlÃ¡skÃ³ga byggÃ°ar
Ġd jÃ¶f
Ġgild um
ĠbÃ¦tt um
Ġlykil atriÃ°i
sk eyti
ĠÃŀÃ³r berg
Ġfrum ur
Ġlist um
ĠfljÃ³t andi
ĠÃ¦Ã° stu
ĠSverri sdÃ³ttir
Ã¶ skur
ĠS jÃ¡l
Ġsum ra
ĠÃŀess um
ĠM bl
ĠA fl
da y
breyt ni
Ġjafn rÃ¦Ã°is
er ra
Ġver Ã°u
reg la
ĠNÃ½ jar
ĠgrÃ¦ num
ĠInst it
ĠB Ã¡Ã°ir
Ġ19 17
ĠÃ¡kv Ã¦Ã°inu
Ġbl aÃ°a
ĠsjÃ¡ iÃ°
ĠHag stofu
P M
Ġundir stÃ¶Ã°u
sf Ã©lÃ¶g
flokk a
ĠrÃ¡Ã°st efna
Ġvist vÃ¦
agrein ar
v Ã¶Ã°
ĠlÃŃk an
ĠY o
ĠlÃ½Ã° heilsu
jÃ¶k ull
ĠlÃ½Ã°veld isins
Ġr ÃŃm
ĠH K
ĠN Ãºmer
ĠFrjÃ¡l sÃŃÃ¾rÃ³tta
ĠH alda
Ġop naÃ°ur
Ġhugmynd ina
heimild um
h Ã¶m
Ġsk ugg
ĠÃį ran
ĠD NA
ĠlÃŃk ja
Ãŀ ing
ĠhvÃŃ ldar
flokk ur
samning inn
ĠEyjaf irÃ°i
Ġregl urnar
ĠL amb
ĠT rÃ©
ĠÃ¡huga verÃ°ar
ĠslÃ¡ t
ĠSo ut
Ġteikni mynd
Ġhor fum
ĠfrÃ¡bÃ¦r an
ĠTh is
9 8
ĠF Ã¦Ã°ingar
Ġlit ur
ĠrÃ¡Ã°stefn una
amynd ir
ĠvÃŃg slu
ĠStokk seyri
Ġdram at
k nÃº
Ġl Ã³Ã°um
ĠH eldur
ey nslu
ka ssa
ĠP art
ĠI ce
ĠHen ry
ĠM u
Ġgef ist
ĠLjÃ³ sm
ĠÃŀorg rÃŃm
ĠÃ¦Ã° sta
n unum
Ġn esti
Ġteng da
ĠÃ³full nÃ¦gjandi
ĠHÃ¡k onar
Ġvar ast
ĠM Ã³s
of ur
ĠrÃ¡Ã° ningar
re t
Ãºs a
Ġverkefni sstjÃ³ri
ĠMiÃ° a
Ġfug lar
ĠF u
ĠlÃŃk nar
ĠÃ¶r lÃ¶g
ĠAnd ra
ĠMat ÃŃs
kall aÃ°
Ġbjart sÃ½
Ġt reg
ĠstjÃ³rnar fundi
Ġbor nar
Ġ193 6
Ãº num
ĠG PS
ĠGuÃ°mund sdÃ³ttur
ĠLit hÃ¡
ĠblÃ¶Ã° ru
c ia
stjÃ³rn andi
ĠdÃ³m arar
ĠHr afni
Ġbekk num
âĢ ĵ
ĠP C
ĠsjÃ¡lf ra
tak erfiÃ°
Ġfjall inu
ĠFÃ©lag smenn
Ġmal bik
ĠSÃŃldar vinn
al an
ĠtÃ¦kn ilega
ĠFrÃ¦Ã° slumiÃ°
ĠÃ³ end
ĠD y
ĠI r
Ġskatt greiÃ°
v ill
Ġst eins
Ġlit li
Ġc lass
Ġsterk ar
Ġsamsvar andi
st jÃ¶rn
Ġaf mÃ¶rk
Ġland smÃ³t
ĠNor rÃ¦nu
ĠkjÃ¶ ti
ĠdauÃ° sf
ĠspÃ¦n sku
ĠStjÃ³rnarandstÃ¶Ã°u flokkarnir
b en
Ġo uml
ĠfÃ©lag slegum
ĠbÃ¦ st
Ġey junni
laus nir
v opn
Ġdraum ur
k repp
ss jÃ³Ã°i
ĠT Ã¦p
ĠhÃ¦ kki
nefnd ri
ÃŃsk an
Ġflutt ar
ĠKen nari
Ġkrabbamein i
ĠÃŀ angaÃ°
ĠEf niÃ°
ga ta
fl Ãº
vÃ¶ld um
til inn
ĠÃ¾jÃ³ Ã°um
Ġdeil ur
ĠHjÃ¡l p
Ġtilh Ã¶gun
h vel
Ġsk oÃ°ar
grein ing
Ġ195 1
ĠSkipulag s
ĠV Ã¦ri
ĠÃģ f
Ġj Ã¶fnum
tl um
veg g
ĠÃ¾ak i
p una
Ġeftir vÃ¦nt
ol ogy
lÃ¡ num
afell ssÃ½slu
Ġmat argerÃ°
ĠFors Ã¦tis
ĠÃ¾ver fag
ĠÃºtskÃ½r ir
ĠHverfis gÃ¶tu
ei far
bur Ã°urinn
str ÃŃÃ°
ĠpÃ³litÃŃsk um
yrirtÃ¦k jum
ĠUndirbÃº ningur
Ġsk ildu
ĠG yÃ°
ĠiÃ° gjÃ¶ld
tÃ³n list
ĠLag iÃ°
ĠSoff ÃŃa
f ulltrÃºa
eir anum
ĠSv ip
ĠSp yr
ĠaÃ°dÃ¡ endur
ĠF el
ĠR am
Ġfull nustu
ĠLÃŃk am
l Ã¦gt
Ġg ilt
ĠF ÃŃ
ĠL jÃ³Ã°
Ġkv Ã¦Ã°i
Ġlang s
ĠhÃºs aleigu
ĠsviÃ° iÃ°
ĠCh risti
Ġfullkom in
Ġuppsker u
ĠÃºtboÃ°sg Ã¶gnum
ĠÃįsafjarÃ°ard jÃºpi
ĠG estur
ĠN ic
Ġhen t
pa kk
Ġmerk ilega
ĠblaÃ° amenn
ĠbrÃ½ tur
ĠlÃ¶g mÃ¡l
sÃ¡ kv
Ġhitt ir
ĠmenningarmÃ¡l arÃ¡Ã°herra
ĠDani el
Ġhegningar laga
f f
f ingum
Ġs endum
Ġh ert
Ġb au
Ġbrot um
ĠOrku veitu
ĠÃ¾Ã³k nun
Ġd j
Ġd ottiÃ°
ĠK eppni
verk frÃ¦Ã°i
Ġald amÃ³tin
Ġhand kl
ĠÃ¾jÃ³nust umiÃ°
ĠIngvar sson
Ġk alda
sst aÃ°ir
Ġeinka hlut
ĠFax aflÃ³a
Ġkvar ta
at hÃ¶fn
Ãį slen
20 10
flutning ur
Ġkunn ug
Ġsjald nast
ĠSam fÃ©lag
ĠtakmÃ¶rk uÃ°
ĠKring lunni
ĠL Ã³n
ileg ast
ĠkjÃ¶r dÃ¦mi
Ġspor na
sam ningar
rÃ¡Ã° gjafa
gj endur
ĠÃ¶r ugga
aleg an
ĠSÃŃÃ°a sti
ĠLÃ¡g mark
bÃº sins
ĠMiÃ° jarÃ°ar
ĠvirÃ° ing
ĠLista safni
ĠÃĨt la
Ġvand aÃ°
Ġglugg um
rannsÃ³k nir
ĠFundar stjÃ³ri
ĠtrÃº aÃ°
Ġath afn
Ġalmanna hagsm
m ein
Ġfr iÃ°ur
Ġfeng inn
ĠnÃ¡m smanna
Ġhugs anlegt
ĠjÃ³la svein
Ġf li
ĠÃ¶ xl
skip tin
ĠHer jÃ³l
St jÃ³rn
ĠsamrÃ¦m d
ĠlÃºt andi
sm a
Ġra d
ĠReg lu
ĠlÃŃkams rÃ¦ktar
g rÃ¡Ã°u
Ã¶r Ã°ur
ileg rar
ĠsamÃ¾ykk tur
ĠaÃ° bÃºnaÃ°
Ġaf kom
ĠvÃ¶k tun
en st
Ġr yÃ°
ĠSig mund
ĠEl sa
shlu ta
ĠÃ¾rey tu
m undi
Ġdreif bÃ½li
Ġaka dem
Ġo st
ĠAf gan
t li
Ã³ h
Ã¦Ã° unum
ĠskÃ½r ingum
ĠtÃ¶lu Ã°u
ĠVÃŃk ingur
Ġspreng ju
Ġjafngild ir
am erki
Ġk Ã¶llum
ĠR A
Ġt Ã³l
Ġvax t
Ġsterk um
saÃ° ilum
Ġkak Ã³
Ġra dd
atrygg ingar
Ġinnlend ra
herberg jum
6 8
rÃ¦ kja
Ġa Ã¶
hel gina
Ġf arg
ott ur
Ġgrein st
anir nar
kr Ã¶fu
Ġhand leiÃ°slu
ĠFÃ©lag ar
Ġmet inn
ĠlÃ¡n iÃ°
ĠÃ¡hyggju efni
Ġb u
Ġ? ?
Ġhepp in
ĠembÃ¦tt iÃ°
c s
Ġk eis
re kki
ĠÃŀor leif
ĠMi ka
Ġfullyr t
Ġs ungu
ĠH laup
Ã¾ ar
200 8
Ġkol efnis
Ã¾ Ãºs
ast s
ĠBr own
Ġlyk la
vef urinn
atriÃ° iÃ°
P P
li ki
Ġhef ti
Ġland anna
ĠvÃŃs indi
ĠaÃ°stoÃ°ar maÃ°ur
Ã¡ hÃ¦ttu
ĠTr Ã¶l
em bÃ¦tt
pp i
ĠSt jarnan
verk stÃ¦Ã°i
us Ã½
Ã¡r angur
Ġalgeng asta
Ġskrey ta
r ing
Ġsk Ãºr
ĠSk o
ĠNor d
ĠvÃŃs i
Ġlykil orÃ°
k jÃ¶ri
st undum
ĠT her
ĠÃ³ stÃ¶Ã°u
f Ã¶llum
Ġsam einu
ĠSjÃ¡lfstÃ¦Ã°isflokk num
k jarna
ĠSt efna
all y
ĠprÃ³f kjÃ¶r
Ġfasteig nir
ĠGer Ã°ur
ĠSjÃ³ manna
ĠÃ¾y ki
6 7
skrÃ¡ ning
Ġgang ast
ĠspÃŃtal ans
al ÃŃfi
Ġsk Ã³r
ĠH Ã¦g
Ġfull viss
sa um
ĠFl Ãº
stjÃ³r anum
Ã¦tt is
asam takanna
ĠbÃ³ nu
amm er
ĠblÃ¡ sa
ca tion
ĠLÃºÃ° vÃŃk
U DA
ĠstjÃ³r num
Ġhvat ningu
ĠstjÃ³rn laga
Ġtilkyn ningunni
Ġsam rÃ½
ĠX V
Ġforn lei
ĠÃŃtar legri
ĠafÃ¾rey ingar
ĠVÃŃf il
v ana
sl jÃ³s
Ġlist ir
ĠlÃ³Ã° in
ssv Ã¦Ã°inu
f al
ĠE iÃ°ur
dÃ³m i
ĠbÃŃl aleig
ĠsjÃ³nar horni
h ir
eig anda
ĠFram sÃ³kn
ĠLaugar vatni
b ri
Ġb ass
ei fur
ĠC enter
Ġsann i
ĠÃ³h app
Ġpr otec
lak Ã³r
Ġver Ã¶nd
sv eif
ĠferÃ° in
ĠviÃ° stÃ¶
ĠÃ¡r legu
sf undur
ĠfÃ¦r ey
Ġlit lir
ĠÃ¾ekk tir
Ġgagn s
ĠtÃ³nleik ana
ĠmÃ¶rk in
lut ningar
ĠvÃ¶r unnar
rid ge
rÃ¡Ã° uneytis
Ġlau g
Ġsak bor
ĠOr Ã°a
ĠStein Ã¾Ã³r
ĠBa ch
Ġv ig
Ġmynd bandi
skrÃ¡ in
Ġhugmynd afrÃ¦Ã°
Ġalgeng ur
ĠsÃ¡tt ir
ĠaÃ°stand endum
ĠH IV
ĠjÃ¶k la
Ġkarl alandsliÃ°
Ġmis not
Ġhor fi
Ġn eg
Ġsam setningu
Ġein bÃ½lishÃºs
eld iÃ°
Ġkosning unum
Ġ ang
Ġr ot
Ġaf kÃ¶st
rÃ¡Ã° gjafi
ĠbÃ¦ na
ĠÃįslend ingur
ĠVÃŃk ing
ĠGal lup
Ġpant aÃ°
Ġh att
Ġsam felld
Ġskil virkni
Ġsumar hÃºs
ĠÃ¾jÃ³nust unnar
ĠÃģgÃº sta
ĠtrÃºar brÃ¶gÃ°
ĠslÃ¶kk va
ĠellilÃŃf eyris
ĠA Ã¾
Ġskipulag sfulltrÃºa
ĠVinnum Ã¡lastofnun
j ann
jÃ³r ar
ĠlÃ¡n sf
ta in
Ġfyrir bÃ¦r
at vik
ĠÃ¶ x
Ġung ar
ĠBar Ã°ast
Ġeinfald an
ĠfrÃ¦Ã°i manna
Ġpo stu
ag en
ĠÃ¡r gjald
for mi
ÃĲ UR
Ġinnihald i
Ġlandam Ã¦ri
Ġv is
ĠÃŀ votta
et h
ĠD raum
ken ningar
Ġnefnd ina
ĠviÃ°ur eign
ĠmÃ¦l ingum
ĠÃ¡rsfjÃ³rÃ°ung i
ĠstyÃ° jast
ĠsamfÃ©lagsmiÃ° la
Ġein hliÃ°a
Ġp Ã¶nn
Ġger Ã°a
Ġkringum stÃ¦Ã°um
ĠÃ¡fang i
ĠNo va
k irkjan
Ġtil veru
ug um
ĠrÃº ll
hugs un
Ã¦ fing
men ningu
Ã¾jÃ¡lf unar
ĠlÃŃfeyrissjÃ³Ã° anna
ĠSiÃ° mennt
ĠSt ofa
ĠfjÃ¶lbreytt ar
Ġkonung i
ĠgÃ³l fum
ĠE p
sp ennu
Ġgrunn skÃ³lans
Ġsunnu daga
ĠfrjÃ¡l slynd
ĠmÃ³tmÃ¦l t
ĠEgyp tal
Ġh Ã³lf
ung in
ĠViÃ° brÃ¶gÃ°
ĠkjÃ¶r nir
Ġfer skum
Ġ11 8
bo ll
ĠveiÃ° ir
ĠsÃ¡r t
ĠsÃ¡rs auk
ĠsÃ¦l gÃ¦ti
renn sli
Ġal kÃ³
dÃ³m s
verÃ° trygg
ĠHaf stein
ĠRo ck
Ġskuldbind ingum
il iÃ°ur
ĠhÃº fi
ĠGau ti
Ġheil um
Ġher b
Ġeinst Ã¶ku
Ġsagn frÃ¦Ã°i
Ġtil vÃŃs
staÃ° num
ĠaÃ°gang i
Ġdans i
ĠtÃ¶f ra
ĠfjÃ¡rmagn st
m eiri
Ġs ykri
ĠG Ã¶ng
mik ill
Ġtiln efna
ĠÃŀr Ã¶stur
I C
Ġv ett
ĠhÃ¦ Ã°ar
ĠframtÃŃÃ°ar innar
brag Ã°i
Ġr Ã¦Ã°i
ĠB orÃ°
ĠkjÃºk linga
Ġf o
Ġr Ã¶l
ĠrÃ¡Ã°st afa
ĠAkran es
Ġhagn aÃ°i
ĠÃ³ lÃŃka
ĠlÃ¶g sÃ¶gu
ney slu
slug jald
m Ã¶gnun
ĠL aga
Ã¶f lur
dd ist
ĠÃįslen skar
ĠsvÃ¶r tum
EN D
Ġtef ldi
Ġh irÃ°
ĠsÃŃ gild
ĠGrein argerÃ°
ĠRau Ã°i
Ġk Ãºl
Ġland smÃ¶nnum
ĠbÃ¡ turinn
od y
ĠSv al
Ġmerk iÃ°
ĠborÃ° aÃ°
ĠDag s
eistar inn
k ÃŃl
Ġ im
Ġaf kast
Ġger vig
ĠSÃ© ra
ĠrÃ¡Ã°un eyta
r ag
ĠH D
ĠÃ³ Ã°
ĠHr efna
ĠkveÃ° inn
ĠeyÃ°ileg gja
Ġverk lag
ĠstÃ¶Ã°u gri
ÃºtgÃ¡ fa
Ġstarfsem in
Ġsk ol
ĠBÃºn aÃ°
ĠUngver jal
ĠH lÃŃ
ĠEf ri
set u
ĠsambÃ¦r ilegar
ĠAd van
Ġd ap
ĠhÃ¦ttu legt
Ġpott i
deil t
ĠGy Ã°a
ĠÃ¡ tÃ¶kum
Ġfr ÃŃm
Ġfr eista
ind iÃ°
ĠG rÃŃÃ°ar
Ġheim ab
ĠNoreg ur
ĠfarÃ¾eg um
Ġsem sagt
ĠEngl and
unarf rÃ¦Ã°i
ĠaÃ°stand enda
Ġat ferlis
ĠrÃ¡Ã° uneytis
ex t
ĠÃ¡g Ã¦ti
Ġtraust i
AÃ° al
ĠHvann eyri
ĠÃ¡ leiÃ°is
Ġupp ÃŃ
Ġstutt an
ĠTek jur
bro ddi
ĠÃŃ hald
un c
ĠÃ¾jÃ³Ã° kirkjunnar
Ġinni h
u tu
af greiÃ°slu
ĠK ona
Ġdag setningu
afram leiÃ°
ĠbÃ¶n kum
rÃ¦ mi
ĠÃ³ missandi
sam bÃ¶nd
veg inum
Ġdeig iÃ°
ĠSmÃ¡ral ind
er Ã°i
Ġdag bÃ³k
Ġhag sbÃ³ta
Ġsveitar stjÃ³ri
sm Ã¶rk
ĠSt aÃ°ar
Ã³ iÃ°
Ġr Ã¶ng
Ġj Ã¶fnunar
Ġher inn
ĠsÃ¦k i
ĠfjÃ¶lmarg ra
ĠHilmar sson
ĠrÃ¡Ã°legg ingar
v aka
Ġs erÃŃ
aÃ° gerÃ°a
ĠH eiÃ°a
Ġyfir v
ĠÃºtskrif ast
ĠbÃ³l gu
ĠHaust iÃ°
h u
Ġfrek ara
ĠMargrÃ© tar
Ġm yg
sk inn
Ġheim alandi
ĠdÃ½r in
ĠerfiÃ° um
bÃº skap
Ġhel lu
Ġbreytt um
Ġfram fÃ¶rum
ĠR ag
rÃ³ n
ĠÃ¡hrif amik
ĠmikilvÃ¦g ustu
ĠtÃ¶lu verÃ°
Ġbren nist
g ott
in st
um b
Ġfram arlega
ĠRe ad
ars ÃŃÃ°u
Ġhug arf
stÃ¶Ã° unni
Ġafh jÃºp
ĠlÃ¦g st
ĠÃ¾urr ka
ĠhjÃºkrunarfrÃ¦Ã° ingur
ĠSveins dÃ³ttir
Ġsl ÃŃta
ĠferÃ° alÃ¶gum
ĠÃŀjÃ³Ã° skrÃ¡r
ĠMosk vu
l yk
Ġt i
em s
ĠS enn
ĠtrÃº ir
ĠmeÃ°vit und
ĠÃĵlym pÃŃu
ĠsnjÃ³fl Ã³Ã°
Ġs iÃ°ur
Ġk ind
ĠEr fitt
aleik ur
Ġhorm Ã³n
Ġkir kja
ÃŃÃ° indi
sam ningum
ĠmÃ¦ Ã°ur
ĠBr Ãºn
ÃŃsk ra
ĠSel f
ĠSÃ© u
ĠgÃ¦sluvarÃ° hald
ĠÃ¡hrif arÃŃk
Ġatvinnul eys
ĠGl eÃ°
ĠOrkust ofnun
Ġsam fel
ĠÃ¡r shÃ¡tÃŃÃ°
ub e
ĠFR Ãį
as jÃ³Ã°i
ĠgreiÃ° slna
Ġvak andi
Ġkraf Ã°ist
ĠVestur lÃ¶ndum
ĠbrÃ©f um
Ġ194 2
met iÃ°
aker finu
ĠmiÃ° lar
ĠfrÃ©tt irnar
ĠnÃ¦g ir
gar nir
asam tÃ¶kum
ĠÃ¾or ski
ĠSigurÃ°ar son
ĠÃļl far
Ġm Ã¦ttir
Ġfram fara
Ã¶Ã° ru
ĠjarÃ° var
Ġill t
ĠhÃºsak ynnum
Ġskilab oÃ°um
ĠÃ¡ taka
ĠT ur
ĠÃºr lausnar
mÃ¡ tt
ĠtÃ¦k iÃ°
in c
Ġd el
sam a
rÃŃk in
Ġsend ingu
na u
ĠR en
ĠtÃ¶lv um
ĠMik lu
Ġinnheim t
ĠSjÃ¡var Ãºtveg
ĠSÃ¶m uleiÃ°is
skÃ³ lag
ĠembÃ¦tt isins
Ġdoktor s
ĠSuÃ°a ustur
ĠF annar
os ninga
Ã¡k n
ĠLeik stjÃ³ri
ĠsÃ¡l ar
Ġatvinnurek enda
ĠAmer ican
Ġfyrir heit
ĠF o
Ġfar tÃ¶l
Ġyng sta
ĠHÃºsa vÃŃkur
ĠBorgart Ãºni
L Ã¶g
Ġmill ir
Ġ11 6
ĠnÃ¦r ing
bund inni
ĠhÃ¶fuÃ° stÃ¶Ã°var
Ġsamband inu
ĠlÃŃtil s
ĠVigdÃŃs ar
ĠH reiÃ°ar
ĠV Ã¦
ark er
Ã¡tt an
ĠmÃ³ tta
mÃ³t iÃ°
h egÃ°un
ĠB ay
ĠleiÃ° beina
bur Ã°um
ĠveÃ°ur s
hrey fingin
ĠiP hone
ĠM Ã¡n
ĠF jarÃ°ar
Ġvinn inga
ĠHÃ¦ fni
ĠfÃ¶studag skvÃ¶ld
Ġverslun inni
Ġbjart sÃ½ni
Ġh andar
Ġr Ã¶nt
Ġhaf ir
Ġveg urinn
Ġhl unn
ĠEin k
Ġla kk
ĠHeimil is
ĠÃŀ jÃ³nusta
Ġann ari
Ġlau f
Ġnu tu
B r
ĠaÃ° sk
ĠS yÃ°
ĠL Ã©tt
ĠMargrÃ© ti
ĠkÃº a
ĠuppfÃ¦r t
ĠSÃ¦m und
c ast
leg gi
ĠD re
Ġhvor um
ĠviÃ°urken ndum
ĠSÃ³l rÃºn
Ġstandi st
ĠeÃ°l ilegum
Ġmagn aÃ°
ĠbrÃ© fa
Ġyfirskrift ina
ei d
ĠfÃ¡ na
ĠÃ¡tt ina
Ġlaun amun
ĠHeim ili
yfir lit
ĠVopn afirÃ°i
Ġt l
Ġvinnumark aÃ°arins
ĠsjÃ¡lfboÃ°aliÃ° a
Ġum bÃ³ta
ĠsÃŃ ldar
Ġinn rÃ¡s
ĠhÃ¡lf tÃŃma
Ġfata skÃ¡
ĠÃĿms ir
Ġprotec ted
sk jÃ³l
Ġr ep
Ġeinhver ra
ĠFram halds
Ġstr ands
Ġupprun alega
ĠArg ent
Ġsam ver
Ġbar Ã¡tta
lÃ¡ ta
Ġfisk eldis
Ġnor rÃ¦na
flokk urinn
ĠÃ³f yrir
Ġveitingast Ã¶Ã°um
Atl ant
f rÃ©tta
ĠB rÃ¡
Ã¶l unni
ĠbÃ¦ jum
ĠLÃ¶g in
kenn ir
ster dam
o va
ĠÃ³h rein
ĠskaÃ° leg
ĠstrÃ¦ti sv
M arkmiÃ°
am ar
ĠViÃ° komandi
ĠfÃ³stur eyÃ°
ars p
Ġkjarasam ning
Ġmillig Ã¶ngu
Ġt eldi
ĠOp na
Ġmargf alt
ĠBÃ³nu s
ĠM illi
arf i
eng ing
ĠÃ³ sp
ĠSÃŃm inn
ĠBjÃ¶rgvin sson
ĠE ver
ul li
ĠfÃ¡ ar
ĠArn grÃŃm
vax andi
ĠÃ¾ yn
ĠS af
ĠT ÃŃu
ĠC amp
Ġvenju leg
ĠÃ¡ramÃ³t um
Ġdyr a
Ġgagnagr unn
Ġhr yg
ĠÃ¡b Ã³ta
ĠAd am
ĠGrafar vog
ĠKolb einn
ĠEKK I
Ġum bÃºÃ°ir
all inn
ĠdÃ¦m di
Ġnor Ã°austan
Ġlaugardag skvÃ¶ld
ĠOf an
ĠriÃ° li
ĠsÃ¦t inu
ĠveiÃ°im enn
f il
Ã½ tur
rÃ¦ nir
rÃ³ ma
Ġleik mann
Ġdeild ina
hÃ¶f undar
ĠskÃ¡ pum
Ġrefs ingar
af ells
Ġfrem sta
Ġlif rar
ĠFrjÃ¡l s
Ġnyt ja
ĠK ir
ĠverÃ° skuld
ku Ã°u
Ġ17 8
Ġvit iÃ°
kepp nin
Ġfyrirhug aÃ°ar
g iÃ°
ĠmeÃ° lÃ¦ti
ĠVest firÃ°i
ĠstjÃ³rnmÃ¡l afrÃ¦Ã°i
ĠGrÃ³ ttu
F jÃ¶l
S E
ĠÃ© ta
ĠlÃ¡ nast
ĠsjÃ³ Ã°um
ĠvinsÃ¦ ldir
Ã½ l
ĠÃ¾ekk tum
ĠalÃ¾jÃ³Ã° legra
ĠÃ¶ryggis mÃ¡l
r ol
Ġf ilm
ĠaÃ° spur
Ġtil gÃ¡
Ġnor Ã°austur
Ġatbur Ã°ir
frjÃ¡l s
ĠI sland
Ġa S
ĠlÃ¦ s
ĠÃ¾jÃ¡lf arar
ĠsjÃºkra trygg
ĠflÃ³k nari
Ġgreind ist
ĠaÃ°ildarrÃŃk ja
Ġd Ã¦tur
ĠR Ã¶k
ĠD ow
sk aÃ°a
ĠM W
Ġfull s
Ġteng iliÃ°
ĠHauk sdÃ³ttir
ĠaÃ°al blÃ¡
ĠFram tÃŃÃ°ar
ĠkjÃ¶ tiÃ°
Ġ193 9
Ġfreg nir
Ġupp fÃ¦rslu
Ġkyn num
Ġ194 8
ĠgarÃ° yrkju
ĠlÃŃfeyriss jÃ³Ã°i
ĠSunnu daginn
eng en
Ġundir liggjandi
ĠÃĨ fingar
b Ã¶rnum
Ġra uÃ°u
Ġmat reiÃ°slu
Ġgl Ã¦r
ĠkÃ¦r Ã°u
Ġfylg is
ĠGunnar ssonar
ĠsamkeppnishÃ¦ fni
ĠÃ¾olinm Ã¦Ã°i
ch i
ĠÃģr mÃºla
ĠÃįs ak
Ġs Ã³p
as jÃ³Ã°
as Ã¶gu
Ġnem andinn
ĠÃ¶r va
ĠrÃ¦ tast
ĠfÃ³t bolt
Ġ36 0
ĠÃĵsk arsdÃ³ttir
ĠStefan ÃŃa
Ġp unkt
mynd unar
ĠlÃ¶gregl una
Ġofn Ã¦mis
Ġskynsam legt
al Ã³Ã°
fÃ¦r slur
Ġrak st
p Ã³lit
hug mynd
ĠsÃ©rhÃ¦ ft
ĠToy ota
l Ã¡n
sk rey
tu be
ĠsÃ½ ninga
Ġkl etta
skÃ³l ar
Ġvald ar
hÃ³p inn
ĠskÃ¡ld sÃ¶gu
ĠhÃ©raÃ°sdÃ³m s
Ġefnahagssv Ã¦Ã°iÃ°
Ġp ara
ĠstrÃ¡ ka
ĠlÃ¶ng un
ĠSÃ¶m u
Ġframfyl gja
Ġfr Ã¡l
Ġver jast
Ġhugs uÃ°
f rÃŃ
lu b
ĠÃģr bÃ¦jar
vin ur
Ġreik nast
ĠRÃ©tt ur
Ġinnl eidd
br ans
Ġe il
ĠF estival
ĠtÃ¶lv unni
m una
sl ÃŃfi
Ġbyggingar leyfi
Ġkvenn aflokki
ĠÃ¡strÃŃ Ã°u
Ġfr o
nar nir
ĠEin ari
ĠkrÃ¶f tug
Ġbank ana
ĠskÃ³ ga
Ġka Ã¾Ã³l
ĠSeltjarnar nesi
Ġ Ã°
en su
at ed
Ġend aÃ°
oll ur
Ġskuld ara
ĠNet flix
ĠÃ¶fl un
sk rÃºÃ°
ik e
p ir
am ÃŃn
ĠmÃ³t aÃ°
sÃ¶g unni
ĠstÃ³ra uk
ĠNa tional
ĠK Ã¦ru
ĠD A
ĠtÃ³nlistar menn
ĠdagskrÃ¡ nni
ang reint
eig a
Ġskemm dum
lÃ¦g Ã°
ĠsjÃºkdÃ³m sins
Ġundirrit uÃ°
ey kja
ĠV ER
Ġs oÃ°
ĠE li
Ġskil uÃ°u
ĠReyÃ° arfirÃ°i
ĠH Ã¦tt
ĠE SA
arf er
ark eppni
ĠÃ¦ vil
Ġhr uni
gl eÃ°i
Ġhol ur
Ġtau gar
r ÃŃs
al Ã¦kni
Ġp und
ĠÃ³sk ast
Ġatvinnul eit
ĠnÃ¡grenn inu
ĠL ett
00 1
ĠT ri
ĠSkarphÃ©Ã° insson
Ã¾ raut
Ġhug aÃ°
sh i
Ġmann legum
Ġra ddir
Ġmest ur
Ġgol fi
ĠSteind Ã³r
f jÃ¶rÃ°um
Ġeftir sÃ³tt
ĠÃºt hluta
as hi
ol ÃŃ
b otn
Ġh issa
na dal
ĠB ab
ĠV eitt
Ġfer Ã°arinnar
verk in
Ġvin kona
Ġvinnuveit anda
ĠÃ¡r ar
jast ofnun
anleg ir
ĠGu fu
Ġsner ist
leys is
ĠendurhÃ¦ fingu
Ġhlaup inu
ĠArnar dÃ³ttir
Ġvi ew
ĠG eg
Ġ12 9
Ġframangreind u
ssviÃ° i
vell ir
H eim
Ġkl Ã¦
naÃ° ir
ĠtÃ³nlistar skÃ³la
ĠLeiÃ° in
ĠÃºtl eigu
Ġinnflutning i
d vÃ¶l
w an
Ġrey nast
Ġfag leg
Ġfyll ilega
ĠB landiÃ°
ĠN atur
ĠljÃ³smynd a
ĠNorÃ°url andar
ĠsjÃ¡lfstÃ¦Ã°i smanna
z on
Ġkr u
ĠGr ill
ĠboÃ° stÃ³l
m Ã¶guleika
jÃ¡ ndu
ĠlÃŃ ti
ĠJu li
ĠfrÃ¡s agnir
ĠStre et
sk rÃº
Ġtilra unum
Ġg las
Ãº rat
rÃ¦Ã° unum
ĠÃŀÃ³r u
ĠtÃ¶lv una
fjÃ¶l lun
Ġundanfar nar
ĠAm sterdam
ĠgÃŃfur lega
h em
leg Ã°
org i
Ġley sir
Ġlau su
ĠfrÃ©tt ina
ĠSeÃ°la banki
Ġefnahags rÃ¡Ã°herra
s Ã¡l
ins on
Ġaf mÃ¦
Ġtak iÃ°
ĠguÃ° frÃ¦Ã°i
ĠðŁ ĺ
ĠSigurgeir sson
Ġg ista
ĠA ur
ĠhÃ¡l fum
Ġviku lega
ĠkjÃ¶r iÃ°
rau tar
ĠvÃŃÃ° tÃ¦ka
ĠSc ott
Ġbreyt ingin
Ġey jar
Ġstr endur
Ġloka verkefni
vÃ©l in
Ġmynd efni
ĠhÃ¡ u
ĠsÃºkkul aÃ°
ĠIngÃ³lf sdÃ³ttir
ĠblÃ¶nd u
Ġalt ari
ĠVersl unar
ĠMiÃ°viku daginn
Ġb Ã¦ttu
ĠI llu
bl Ã³m
bl Ã³Ã°
anefnd in
ĠLok aÃ°
Ġm Ãºr
Ġsk jÃ¶ld
Ã¾ Ã¶r
ber gur
ĠUpp run
Ġlyf tu
aflokk sins
Ġak stri
Ġuppfyll tum
ĠHÃ³p ur
ĠspÃŃtal a
Ġtort rygg
Ġs ell
ĠM iss
om a
Ġset jum
ĠhlÃ½ tt
ĠLÃº xem
d Ã½
Ġl ykk
pp ar
bl Ã³t
set riÃ°
ĠSkÃ³g rÃ¦ktar
Ġupp reist
ĠCh ic
ĠnÃ³tt u
ĠVerÃ° laun
ĠÃ¡gÃ¦ tum
f undum
Ġs Ã¶nnun
Ġb ull
Ġn yr
ek tum
Ġverk efn
ĠstÃ³r brot
ĠdÃ³m sins
ĠBÃ¦jar ins
ĠHarald sdÃ³ttir
ĠÃ¶rfÃ¡ um
ĠH jalla
Ġfor rÃ¦Ã°i
Ġkyn nist
jÃºkdÃ³m a
Ġs uÃ°u
Ġv asa
ĠI K
menn tar
ĠÃ½mi skonar
Ġ43 3
Ġmi ska
ĠiP ad
Ġundirri tuÃ°u
ĠÃŀ vert
ĠÃ¾Ã¡tt urinn
ĠFjÃ¶l nir
ĠfjÃ¶lmiÃ° laf
Ġbre kk
kast iÃ°
v ei
Ġf eit
ing ju
ĠÃŀ ennan
Ġj Ãºn
tÃ¦k iÃ°
Ġminn ti
ĠFerÃ° in
teg und
s ch
Ġf lat
Ġupp tÃ¶kur
Ġsp jÃ³t
ĠumrÃ¦ ddum
Ġbein ast
Ġbyrj uÃ°
ĠrÃ¶Ã° inni
ĠPla y
st Ã¦ki
Ã³k nun
Ġseg jum
ĠO x
ĠvÃ¦nt ingum
vax tar
Ġk nÃ½ja
Ġvar amenn
ĠB au
Ġfer skt
Ġhel la
leiÃ° a
ĠHver jir
Ġpl Ã¡n
ĠSch engen
Ġsundlaug ar
ĠUmsÃ¦k jandi
Ġfjarskip tast
hr aÃ°i
jÃ³narmiÃ° a
d rÃ¡
l endur
Ġfer linu
Ġhl Ãºa
Ġatvinn ug
Ġeftir sÃ³knar
rÃ¡Ã° andi
Ġhr Ã¦riÃ°
Ġsparis jÃ³Ã°a
ĠÃºtskrif tar
Ġh na
Ġst jarna
epp u
sh ol
ĠReykjavÃŃkur m
ĠVal s
Ġkynsl Ã³Ã°ir
Ġarkitekt Ãºr
I G
an esi
rÃº Ã°ur
tÃŃm inn
ĠHaf steinn
ĠÃŀor m
Ġbjar gar
St arf
d in
Ġsp end
ĠnÃ½tt ur
ĠRÃ¡Ã° iÃ°
ĠÃ¦vint Ã½ra
Ġhygg ja
hrey fingar
ĠrÃ¡Ã°staf aÃ°
r em
ĠSk ÃŃÃ°a
ĠÃĵ Ã°inn
Ġstyr kveit
ĠÃļr val
Ġst Ã³
ĠH afn
Ġsig lingu
deild ina
Ġsyn ja
Ġh rÃŃ
Ġn eytt
sl Ã½singu
ĠM Ã¶guleik
ĠÃ¡r stÃŃma
Ã³tt ir
Ġ20 30
Ġrit ara
Ġkross inn
ĠsjÃ¡varÃºtvegs rÃ¡Ã°herra
ĠJ ones
Ġbygg ingum
Ġstofn andi
Ġraf rÃ¦na
Ġhlutfall iÃ°
ĠstjÃ³rnarand stÃ¶Ã°u
ĠÃºrslitak eppni
Ġhaf sins
Ġfar angur
Ġstig u
ĠjarÃ° frÃ¦Ã°i
ĠRannsÃ³k na
ĠÃ³s jÃ¡lf
ĠfÃ¡r ra
ĠH Ã¡tt
ĠA R
ĠKar lakÃ³r
vott orÃ°
ĠHjart arson
ĠhÃºs gÃ¶gn
liÃ° sins
ĠÃŀjÃ³Ã° verja
ĠLa w
ĠÃ³Ã¾arf i
ta p
Ġaf brot
ĠSv iÃ°
Ġsvar tur
ĠÃ¾rÃŃ vÃŃ
g ra
Ġhag frÃ¦Ã°ingur
Ġsel janda
ĠvÃ¶ld in
ĠÃ¡Ã¦t la
ĠHvor ki
E ins
ĠT it
Ġend ann
Ġalmenn s
ĠrannsÃ³knar nefndar
ĠsiÃ° frÃ¦Ã°i
skatt s
afor Ã°a
agjald eyriss
ĠÃ¡kv Ã¦Ã°iÃ°
ĠnÃ¡m smat
r yÃ°
y sti
ĠN afniÃ°
ĠLo ga
ĠfjÃ¡rm Ã¶gnunar
ĠH ilm
Ġteng ingar
Ġbir tur
ĠÃĸ Ã°
ĠskÃ½r ingu
ĠhliÃ° um
Ãļ t
ĠfjÃ¶lbreytt u
Ġumfang i
Ġb li
Ã¶l unnar
Ġau st
Ġ24 0
Ġframhald snÃ¡m
Ãĸ R
ĠÃ¾ver mÃ¡l
ĠÃŀr jÃ¡r
ĠsÃ©reignar spar
viÃ° i
ĠSÃ½ ning
ĠhljÃ³msveit arinnar
ĠU na
ĠskoÃ°un arferÃ°
ĠSkÃ½r slan
o stur
Ġhaf inu
Ġfjar skipt
ĠHef Ã°i
ĠVald ÃŃs
ĠÃ¡r Ã³Ã°ur
ĠNA SA
ĠstrÃ¶nd ina
Ġgrein arg
ex ta
Ġney sla
ĠsuÃ°ur s
Ġpre star
ĠjÃ³lag jÃ¶f
b els
ĠlÃŃf vera
rit ara
Ã¶ll er
Ġfag mennsku
ĠKon ung
ĠÃ¶flug ur
ĠÃ¾v ing
L L
ta sta
ĠÃºt fÃ¦ra
bl Ã¦
skeiÃ° i
out h
Ġendursko Ã°uÃ°
Ġskal t
av atn
end er
at er
Ġend i
Ġra ung
ĠSv Ã¦Ã°iÃ°
Ġlit u
ĠaÃ°al nÃ¡mskrÃ¡
ĠStjÃ³rn endur
Ġqu ot
in efnd
Ġkv itt
ĠsjÃ¡varÃºtveg sf
V E
Ġundir rita
frÃ¦Ã° ingum
Ġ13 6
ĠstaÃ° la
ĠlÃŃf verur
Ġhund urinn
e kki
ĠSvavar sdÃ³ttir
Ġland grÃ¦Ã°slu
Ġlit inn
gÃ¦ t
Ġatvinnu vega
ĠÃ¾Ã©tt bÃ½lis
Ġdeil ir
ĠÃģsm und
eiÃ° andi
ind is
Ã³n leikar
ĠÃ¡bÃ³ta vant
p Ã³l
Ġh anga
ÃŃ bÃºÃ°ir
ĠmÃ¡l skostnaÃ°
Ġundir b
ĠskÃ³la starf
ĠKaup Ã¾ing
ĠJÃ³hannes ar
ĠbreiÃ° a
ag reinum
Ġlandam Ã¦ra
en ningar
Ġupp reisnar
Ġmynd aÃ°ist
ĠsjÃ¡lf ar
dÃ½r um
Ġgos iÃ°
Ġv ide
Ġein leik
Ġbygg Ã°ir
Ġefnahag sh
ĠCh ris
ĠSand gerÃ°i
ĠsmÃŃÃ° aÃ°
Ġendurskipulag ningu
her rann
Ġhr inda
Ã¾ing inu
Ġey ja
ĠtÃ³nlist ina
ĠrÃŃkiss jÃ³Ã°ur
ĠfordÃ³m um
ĠV irÃ°
skip un
ĠSk Ã¶mmu
ĠLand smÃ³t
flokk anna
st ung
jÃ¡l fi
ein ing
ĠSig gi
ĠvÃ©l ina
Ġlag ningu
ĠlÃ¡ nar
k Ãº
Ġsk Ãºf
Ġvar st
ĠN K
okk ar
Ġinn brot
ĠU nd
Ġafl amark
r ana
Ã¡l it
ĠrÃ¡Ã° amenn
Ġskil ji
ĠVerÃ° launin
ĠSkÃ¡l holti
l anna
st Ã½ra
Ġand legu
ĠAf h
arsam tÃ¶k
ĠAthug asemdir
Ġh an
Ġf Ã³kus
Ġm g
yr Ã°
ĠR od
ĠbÃº skap
ĠJÃ³hann ess
Ġtengd ir
shrepp s
ust aÃ°
ĠstjÃ³rn aÃ°i
sh ald
Ġreik ni
ĠKarl s
ĠkÃ³l ester
Ġhlutl Ã¦g
Ġp a
ĠSig ling
Ġeinstakl ingurinn
ĠHÃ©r na
ĠsviÃ° sstjÃ³ra
Ġk Ã³ng
ĠS ti
sÃ½ k
Ã¦l ingu
bÃ³l ga
ĠrÃ¶kstuÃ° ningi
Ġupp sjÃ¡
Ġfor Ã°a
Ġhring i
ĠFundargerÃ° in
Ġyfirv ofandi
F Ã©lag
ĠR ec
ĠstÃ³r ra
ĠAf greiÃ°sla
ĠmannrÃ©tt indum
ĠUM F
Ġsam fÃ©lÃ¶g
Ġgr unna
Ġsveit in
ĠÃ¾ekk tar
Ġgam lir
ĠEl var
ĠendurskoÃ° anda
ĠNem andi
Ġverslun ina
s eyrar
hor m
ĠDag inn
ĠhÃ¡skÃ³la stigi
Ġh rÃ¦Ã°slu
ĠK ennslu
Ġfor menn
ÃŃÃ° ni
Ġkv a
ÃŃs a
laus an
ĠsÃ¦k jast
Ġfarar broddi
Ġtil hl
ĠniÃ°ur lÃ¦g
Ġseld ir
Ġfyrir rÃºmi
ĠV ÃįS
Ġj aÃ°ar
Ġhr yn
ĠÃģr borg
ĠstrÃŃ Ã°i
Ġdi v
m es
m jÃ³lk
Ã³l fi
hug myndir
ĠskÃ³g inum
ĠÃįbÃºÃ°alÃ¡nas jÃ³Ã°ur
ĠLandssam bands
i u
Ġtil lagan
ol li
ĠhÃ¡l si
nas yni
ĠlÃ©tt ari
ĠsamgÃ¶ngur Ã¡Ã°herra
Ġlamb ak
v Ã¶kv
Ġsn Ã¶gg
Ġbreg st
ĠmÃºsl ima
ĠC C
sp Ã¡r
ĠÃ¡f alla
Ġmiss i
Ġhagn aÃ°ur
stÃ½r ingu
Ġfatl aÃ°a
Ġsag na
Ã¾arf ir
in ter
al em
Ġgr ind
Ġyfir lÃ½s
ru stu
Ġ12 00
Ġpl Ãºs
Ġpar tur
ĠmeiÃ° sli
Ġkor ti
ĠMeiri hluti
Ġflokk arnir
Ġlif um
Ġeinka aÃ°ila
ĠfjÃ¡rm una
Ġp ilt
Ġvak ta
Ġs ur
ĠM od
ĠlÃ¶g bann
Ġhel ga
ĠfjÃ¶lskyld na
ĠlÃ¦k ning
ĠAlÃ¾jÃ³Ã° agjaldeyriss
Ġd eyr
ĠgeÃ° heilbrigÃ°i
ĠVatn sm
ĠEinstak lingar
ĠskÃ³lag Ã¶ngu
f yrirtÃ¦kiÃ°
n unni
Ġ19 15
ĠstaÃ° gr
Ġ16 2
ĠnÃ¡ttÃºr an
Ġinnflytj endur
ĠSvand ÃŃs
m o
Ġst afi
el in
var d
Ġ17 9
Ġspur Ã°
ĠbÃ³ nd
Ġvon t
Ġfalla st
ĠVig ni
ĠÃĵÃ° ins
ĠV Ã¶l
Ġskr ÃŃm
ĠmÃ¶gu legar
Ġofn inn
ĠkynferÃ°is ofbeldi
Ġminnis blaÃ°
ĠÃ¾ vÃ¦
ĠH rÃ³
Ġendur greidd
Ġtiltek inna
ĠÃ³g nar
Ġja pan
ĠTak tu
Ġ12 8
ĠlÃ¦kni sfrÃ¦Ã°i
ĠFljÃ³t lega
ĠmiÃ°borg inni
eng ur
Ġhag kerfi
Ġneyslu verÃ°s
Ġeinsk is
ĠA lda
ĠÃ³ raun
sv ip
sla un
ĠGr ens
ĠskÃ½r ing
Ġfasteig nar
Ġflutning ur
Ġnetfang inu
ĠrÃ¡Ã°her rann
Ġfata skÃ¡p
ĠÃ¡Ã¦t luÃ°
jÃ¡ ni
sf erli
ĠsjÃºk lingur
ĠÃŃs inn
Ġsamstarfs aÃ°ila
ĠUngl ing
ĠS un
ĠviÃ° tak
Ġd Ã³t
Ġbr enn
Ġreglug erÃ°a
ĠfjÃ¡rfest ingum
ĠMatth ÃŃa
af mÃ¦li
Ġg agni
ĠS oci
Ã¡l f
ĠN orth
Ġveg gi
rit gerÃ°
Ġfeng ust
ĠumferÃ° ir
Ġerind is
Ġframangreind um
hÃ½s i
Ġd Ã¦gur
ĠF en
Ġkyn hneig
Ã¶m ul
Ġsum a
ĠfÃ¦r st
Ġminnk aÃ°i
A ustur
k inn
Ġsann g
ĠdÃ½r ari
Ġveru legu
ĠÃ¡vinn ingur
kom una
verk efninu
ken num
Ġken ningum
SS ON
Ġsmi tast
m orgun
Ġaf i
ĠE ski
Ġheim av
ĠrÃŃk janna
Ġly fiÃ°
ĠskÃ³la Ã¡riÃ°
Ġdreng ir
Ġkynsl Ã³Ã°a
vÃ¦Ã° ing
ĠPress an
Ã¶ nu
ĠS ÃŃÃ°
ĠD reg
Ġmet rum
ĠByr jaÃ°
Ġs en
ĠÃ³ verÃ°trygg
Ġkepp in
ĠhlÃ½ nun
veiÃ° a
asam ir
Ġlaugar dÃ¶gum
Ã³lf s
ĠFinn st
O D
Ġsam komu
ĠV all
ĠSt ÃŃg
rÃ¦n nar
ĠkjÃ¶r skrÃ¡
ĠljÃ³smynd ari
ĠÃ¾ol ir
ĠJo hann
ĠFriÃ°rik sdÃ³ttir
ĠlÃºx us
ĠsjÃ¡lf sm
Ġhagn aÃ°
ĠS Ã¦l
list ans
ĠClin ton
Y R
Ġv ildum
ĠV ara
Ġmorgun verÃ°
Ġforvit n
Ġsveigjan leika
ĠH ow
Ġkv Ã³
orÃ° in
Ġl et
ĠmeÃ° vitaÃ°
Ã¾ re
ĠHeim sm
Ġyng ra
ĠfjÃ¶lbreyt ileika
Ġstefnd u
ĠUtan rÃŃkis
Ġd a
Ġsv eitir
ĠfrÃ¡ farandi
bo ur
Ġvetur na
ĠHannes ar
ĠVic tor
Ġendur reisn
ĠhÃ¶fuÃ°borg inni
Ġgeym d
ĠlandbÃºnaÃ°ar ins
H vaÃ°
l o
ĠÃ¾ jÃ³nu
ĠN ota
ĠjÃ¡kv Ã¦Ã°um
Ġors ak
k osningum
Ġbr ons
Ġgl Ãºt
Ġfors jÃ¡r
Ġflug um
Ġsek ur
al ar
ĠÃºr komu
ĠAr nd
ĠsÃ½ni shorn
ĠsvÃŃ na
e ch
ĠG rÃ¦na
Ġupp setning
ĠlÃŃ Ã°
sp jald
ĠmÃ¦l inga
vÃ¶x tum
Ġv ol
rar nir
sam takanna
ĠlÃŃf frÃ¦Ã°i
ĠsÃ¶ng ur
ĠRa unar
ĠnÃ³t um
Ġb elti
ĠV ala
eiÃ° um
ĠsjÃ¡lfs vÃŃg
kv enna
ÃŃm Ã¡
sÃ³k na
tek iÃ°
umÃ¡l um
ĠframleiÃ° ni
ĠhrÃ¦ ddur
ĠUmsÃ¦k jendur
ĠÃŀ ri
Ġkom umst
Ġtrygg Ã°ur
gjÃ¶ ri
ĠÃ¾ rek
Ġt er
Ġupp sÃ¶gn
ĠK raum
arsam band
sfÃ©lag s
sh jÃ¡l
flutning s
ĠNorÃ°urland anna
Ã¡l i
Ġveg gja
Ġald eilis
Ġveitt u
for ma
Ġfimmtu dÃ¶gum
amiÃ° stÃ¶Ã°inni
bir t
hÃ¡l s
Sam kvÃ¦mt
f Ã¶ngum
ef f
Ġver stu
Ġhug rekki
ĠStarf iÃ°
ĠyfirborÃ° iÃ°
ĠSjÃºkratrygg ingar
skost naÃ°ar
fi c
sam tÃ¶kin
ĠSp ar
Ġskulda brÃ©fa
Ġskemmti ferÃ°a
z k
sm org
Ġdag legum
Ã³s ÃŃ
ĠgÃ¶ng ut
ĠdauÃ° ann
ĠBri m
Ġ ~
Ġsam fara
Ġleig us
Ġhit inn
Ġgeisla disk
Ġum dÃ¦mi
ĠG Ã¶ngu
ĠR ep
Ġgagn legt
ĠviÃ°sta ddir
e ka
af jÃ¶rÃ°ur
Ġd valdi
ĠâĢ ļ
ĠD oktor
Ãºst af
st Ã¦k
ĠfÃ©lag asamtaka
Ġsnjall sÃŃm
Ġbrota Ã¾ola
ĠGrafar vogi
sfl okki
sÃ¡tt mÃ¡la
Ġpeningast efn
g lugg
s Ã©r
ĠÃ¾ at
Ġstefn ur
pen inga
ĠLÃ¦kn afÃ©lag
hlu tar
ĠÃ¡f eng
ĠSvÃŃ ar
Ġfyrirhug uÃ°
ĠV ist
Ġyfir lÃ¶greglu
Ġmer ka
Ġhrif in
ĠJe an
ĠSv Ã¶r
ĠsamÃ¾ykk tu
99 0
Ġlei far
ĠjarÃ°veg s
l Ã¦tis
st eik
âĢ ĺ
ĠÃ³ rÃ³
Ġeig nina
ĠÃ¾jÃ³Ã° hag
Ġbor Ã°ar
s c
liÃ° inu
ĠskÃ½r um
o us
t Ã¶ldum
sv innu
Ġ11 3
ĠgÃ³l fiÃ°
ĠstrÃŃÃ° inu
ĠtjÃ³n s
ak irkju
haf nir
Ġ11 7
marg ar
ĠalÃ¾jÃ³Ã°a vettvangi
Ġskrifstof ur
in ar
Ãº Ã°ur
yn e
Ġhl ÃŃf
Ġhl Ã¶kkum
ĠljÃ³smynd un
ĠsamrÃ¦m ist
Ġsk jÃ³tt
ĠhÃ¦kk uÃ°u
Ġrekstrar aÃ°ila
vott un
ĠUpphaf lega
Ġr Ãºn
ĠÃºt Ãºr
ĠD ig
Ġvan alega
ĠKr afa
fangs efni
Ġforgangs rÃ¶Ã°un
ĠLund Ãºnum
ĠG reiÃ°slu
ĠÃģ lykt
Ġhv Ã¶tt
ĠveiÃ° arf
Ġlaun afÃ³lks
Ġm ild
Ġk jÃ³l
amÃ³t inu
kenn sla
ĠBreiÃ°ablik s
pÃ³st s
ĠA P
ĠBandarÃŃkj amanna
ĠsjÃ³nvarp inu
mÃ¶rku Ã°u
Ġpott inn
f Ãº
ĠG rett
fi ski
Ġfer sku
Ġsum arl
Ġli fi
Ġmet ri
ĠhÃ¡degis mat
ĠstrÃŃÃ° s
hlaÃ° borÃ°
an Ãºmer
ĠtÃŃm amÃ³tum
ĠÃ¾Ã³tt u
Ġbank ann
ĠsjÃºkdÃ³m s
Ġ194 3
ĠÃŃmynd aÃ°
ĠAld ÃŃs
ĠsannfÃ¦r andi
ĠaÃ° laga
Ã³k n
ĠAfgan istan
ĠM Ã¶ller
ĠlÃŃ na
sh ug
ĠljÃ³s um
ĠMikil vÃ¦g
Ġgleym t
Ġsaum a
Ġt ig
ĠSk jÃ¡
ĠSv arf
ĠBl aÃ°iÃ°
Ġhim ni
ĠaÃ°alblÃ¡ berjum
v at
ĠÃ¡tt aÃ°i
ĠveiÃ°ig jald
ĠS on
ĠF ilipp
Ġfor tÃŃÃ°ar
ĠRÃ¡Ã° uneytiÃ°
ĠÃĨsk ilegt
us i
ĠfÃ¦r Ã°ur
ĠskÃ¡ pa
Ġalmanna varna
I P
ĠP akk
pa kka
ĠverÃ° lags
mÃ¦l ingar
Ġsnjall sÃŃma
H el
ĠÃ³ Ãºt
sleg rar
ĠBer gur
ĠlÃ¶greglu stjÃ³ra
ĠspÃ¡ ir
ĠFull t
z tu
ĠmiÃ° junni
Ġsk Ã³m
Ġsam ÃºÃ°
lag Ã°ur
ĠK Ã¶rf
es e
ĠrÃ©tt ilega
ĠValdimar sson
h lÃŃf
Ġg lat
ĠH aga
Ġkom una
ĠfjÃ¶l menn
Ġra u
Ġvan illu
ĠÃ¡kvÃ¦Ã°i sins
Ġtap i
ĠlÃŃn unni
ÃĨ ÃĲ
ĠÃ¡fangast aÃ°
tly ft
ĠaÃ° all
Ġr eif
Ġhug leiÃ°slu
ĠgÃ¦ fu
ĠBÃ¦ nda
ĠstÃ³rkost lega
ĠrÃºss neska
ĠHvol svelli
6 5
Ġdr op
Ã³lf sson
ĠBir t
ĠGyl f
ĠÃ¾re p
ĠtÃ¶ puÃ°u
Ã¡ miÃ°
ĠskrÃ¡ r
Ġleit um
Ġvon brigÃ°i
ĠFÃ¦r eyja
ĠglÃ¶g gt
Ġg ÃŃg
Ġum bÃ¦tur
sh r
Ġraunver uleika
ĠflÃ³tt amenn
Ġfasteign amat
ĠNÃ½ja sta
Ġ2 30
ĠA ma
skip inu
f Ã¦
Ġsv Ã¶lum
ĠÃºt svar
Ġprest s
ĠVegagerÃ° inni
y c
Ġheil an
Ġskemm tist
nefnd ir
Ġw ords
Ġpers Ã³na
ĠhÃ³tel sins
ĠÃĵlafs vÃŃk
Ġf jalli
ist u
ĠSt ig
Ġgrein ast
Ġber n
att ar
Ġrit un
Ġraf eind
ĠtÃ³m stunda
al ands
Ġr Ã³s
ĠB Ãºl
Ġein ingum
ĠT jÃ¶rn
Ã³n listar
Ġfund arsal
ĠlÃŃk legra
ĠuppÃ¾ votta
ĠviÃ° tÃ¶ku
ĠfjÃ¶l bÃ½lis
Ġhald ast
ĠVest ra
for rit
ĠRagnar sdÃ³ttir
ĠDrott ins
ĠLeit aÃ°
k g
eÃ° jur
sm arkaÃ°i
Ġtals verÃ°
ĠfjÃ¶r u
ĠSand ra
sl Ã³Ã°a
ĠK irkjan
Ã¡Ã° sins
Ã¶ng ul
ĠfÃ©lag sgjald
mÃ¡ nuÃ°um
ĠÃĵ f
ĠbÃ¦ nd
he illa
Ġlist amaÃ°ur
ĠrÃºm inu
ĠtvÃŃ liÃ°aleik
ĠG Ãºstaf
Ġmest an
Ġdug legir
Ġskrifstof ustjÃ³ri
ĠArk it
Ġundir skrift
lÃ¶g n
Ġlok aÃ°ur
Ġleng ja
ĠMeÃ° ferÃ°
ĠHrafn k
var inn
ĠprÃ³ fum
sst yrk
rek stri
Ġeinka vÃ¦Ã°ingu
ĠEig nar
brÃ© fiÃ°
Ġgrundvallar atriÃ°i
ĠÃ¡hÃ¦tt ustÃ½r
IF A
Ġmark ar
ĠGunnar sdÃ³ttur
h Ã¦ttir
ĠTr ans
Ġsko Ã°um
Ġflott ur
Ġhend inni
Ġb akka
var Ã°ur
ĠlÃŃk leg
Ã¶Ã° in
ĠskÃ½r ari
hlut anum
ĠÃŃÃ¾rÃ³tt amann
ĠfjÃ¡rhag saÃ°
Ġatvinnust arfsemi
ĠÃ¾ a
Ġfram gÃ¶ngu
ĠP ed
ĠmÃ¡ n
deild a
ĠÃ¶ld inni
ĠÃŃbÃºÃ° ina
ĠheilbrigÃ°isker finu
k las
m engun
st oÃ°ar
Ġaf urÃ°
ĠM E
ĠT eitur
ĠbÃº vÃ¶ru
sem in
ĠRi o
stein i
Ġfyll t
E kki
Ġhaf inn
Ġand virÃ°i
Ġken ndur
ĠFor d
av es
ĠParÃŃs ar
Ġkr Ãºtt
Ġstof nuÃ°u
ĠStjÃ³rn lag
ĠSel ja
bÃ¡ tar
ĠfrÃ¦ nda
ĠFast eign
ĠkvÃ¶r tun
ĠviÃ°ur kennir
ĠfriÃ° helgi
ĠNet inu
ĠÃŃbÃºÃ°ar hÃºs
Ġk na
eig num
ĠsniÃ° ugt
ĠÃ¡rsreik ningi
ĠÃ¡heyr nar
Ġf as
ĠÃ¡ lÃŃ
sl oka
eng ingar
hÃ¦ far
ĠfrÃ©tt aflutning
ĠÃ¡Ã¦tl unar
Ġvaf alaust
ĠheimsÃ³tt u
l eidd
Ġsl Ã¶kun
bl ogg
naÃ° inn
ĠsjÃ³Ã° anna
ĠrÃ³ a
ĠE vu
00 00
hor fur
ĠauÃ°l indum
ĠMann virkja
M AR
on na
Ġt eppi
ett y
Ġinnl enda
Ġfleir u
er y
ĠmeÃ° gÃ¶ng
ĠA K
Ġinn sig
ĠmÃ¡l frÃ¦Ã°i
Ġfar m
Ġreik ningar
ĠbragÃ° iÃ°
lag ning
Ġyfir umsjÃ³n
lÃ¶g u
Ġvan ta
ĠLi on
ĠviÃ°skipt afrÃ¦Ã°i
ĠandrÃºmslof tiÃ°
ĠÃ¡ taki
Ġst ungiÃ°
Ġa ur
Ġgrein in
ĠAlex and
ĠB Ã¡ra
Ġhl yn
ĠbÃºs ettir
ĠLÃŃ til
iÃ° kun
Ġum mÃ¦lum
ĠH und
ĠF B
Ġsig lt
Ġtrygg inga
ĠstÃ¦ kkaÃ°
ĠkÃ³r sins
Ġakstur s
ĠglÃ¶g g
ĠL eigu
reg lna
Ġm unni
ĠT V
ĠnÃ¡ Ã°um
ĠHl ÃŃÃ°
ĠnorÃ°ur l
ham eÃ°
ĠÃ¦Ã° ri
ĠrithÃ¶f und
ĠtÃŃm anlega
ĠfÃ© sbÃ³k
ĠauÃ° m
Ġhre ina
ĠlÃ¦g i
Ġleik stjÃ³ra
ab bi
ĠÃ¾ekk tu
m unum
v Ã¶k
Ġr Ã³Ã°
Ãŀ eir
ĠÃ¡v exti
Ġarkit ekta
Ġslyss ins
Ġher ma
Ġstutt ar
astarf semi
ĠTÃ¶l vu
ĠgÃ¶nguleiÃ° ir
ĠhÃ¡v aÃ°a
Ġh undur
ĠH Ã¶nnun
ĠB as
ĠnauÃ° ung
Ġfjar veru
atrygg ingu
ĠlÃ¦knir inn
nauÃ° syn
V erk
w agen
ey miÃ°
Ġkaup i
Ġstel pa
ĠÃ¦vintÃ½r um
Ġpla sti
ĠF ang
Ġfl etta
ĠlÃ¶g fest
ĠsÃ³l sk
ĠSkag afjarÃ°ar
ĠÃŀriÃ°ju daginn
sp ort
ĠnÃ¡m skrÃ¡
ĠÃ¡st fang
ĠAu Ã°ar
ĠMÃ¦ ting
ĠOpin ber
ĠÃ¡ Ã¾
Ġer indum
ĠD ÃŃ
fell s
skor tur
ĠUndir rit
Ġmein t
ĠmÃ¦tt ur
ĠÃŀÃ³ri sson
ĠrÃ©Ã° st
f ingur
Ġv ÃŃkur
ĠÃĵ k
ĠskrÃ¡ ir
Ġfisk inn
Ġdeil um
ĠFjarÃ°a byggÃ°
ÃŃ p
ĠÃ¶ gr
Ġ13 8
ĠRit stjÃ³ri
ĠpÃ³litÃŃsk t
Ġrekstr inum
ĠleiÃ°rÃ©tt ingu
ĠHermann sson
n Ã¦r
ĠÃ¾ unn
ĠSk jald
Ġsn Ã©
heim ar
vald ur
sveit um
ĠMar in
ĠÃįsra els
ĠKjarn ans
Ġgl eri
ĠLands bjargar
Ġors Ã¶kum
ĠÃŀÃ³rÃ°ar dÃ³ttir
ĠeÃ°lis frÃ¦Ã°i
Ġf ÃŃnu
ey ju
end anna
ĠSt Ãºl
ĠleiÃ° ara
ĠAÃ° ild
ĠAl veg
ĠrithÃ¶f undar
ĠEmb Ã¦tti
ĠvanrÃ¦k slu
et y
ĠbiÃ° lista
ĠhefÃ°bund iÃ°
ah a
ĠuppfÃ¦r Ã°ar
ĠSund laug
Ġsam stÃ¦Ã°
ok iÃ°
ust ig
ĠÃ¶Ã° list
Ġkynn tur
tÃŃm ar
Ġlit urinn
ĠhliÃ° sjÃ³nar
punk tur
ĠÃ¾rÃ½st ingi
A nn
k Ã¶lluÃ°
Ġskip in
ĠhvÃŃ tur
Ġsk inn
ĠC ross
ĠlÃ¶g un
ĠsÃ¡l frÃ¦Ã°ingur
Ġgeisl un
ĠWind ows
st eypu
ĠH ilton
ĠÃ³ sn
sfÃ³lk i
ĠnorÃ°ur ljÃ³s
ĠmargvÃŃ slegt
Ġfimmtudag skvÃ¶ld
ĠrÃŃkisborg ara
ks wagen
t Ã¡
Ġt ri
Ġfram kvÃ¦m
Ġundir staÃ°a
skÃ³ gar
ĠbifreiÃ° inni
Ġerf iÃ°ur
Ġb elg
Ã© n
ĠF ella
mar kast
afyrirtÃ¦k iÃ°
ĠsÃ³knarp restur
Ġs c
ey g
ĠL engi
ak lÃºbb
Ġmarg oft
ĠrÃ¡Ã°stefn ur
Ġlu kku
ĠTryggv ason
b aka
en iÃ°
sk rÃ¡Ã°
ug ir
Ġmarg an
ĠÃ¶flug u
ĠvinsÃ¦la sti
Ġkrepp u
ĠP DF
Ġvatn sh
ĠAustur velli
v and
Ã¶r kum
ĠK vÃŃ
Ġlag st
fer liÃ°
ad e
ĠviÃ°skiptavin ur
ĠMus ic
E inn
l aÃ°ist
s Ã¶fnun
Ġaf greitt
Ġskip aÃ°ir
ĠhÃ¶f ninni
ĠnÃ¡tt Ãºra
ĠstÃ¶rf in
ĠkveÃ° jur
ĠgÃ¡ f
ĠendurnÃ½ jan
Ġtopp num
ĠmargvÃŃ slegar
ĠGylfa dÃ³ttir
ĠNÃ¡ttÃºrufrÃ¦Ã°i stofnun
ĠF jÃ¶gur
Ġhlutverk um
Ġkraf na
Ġveik indum
Ġs aut
nd ist
Ġu p
Ġlist amÃ¶nnum
Ġkann anir
l engd
Ã¦ landi
Ġvar ma
ĠF ulltrÃºi
Ġra uÃ°um
Ġhn Ãº
Ġprent un
ĠÃŀekk ingar
ĠChic ago
ĠL en
ĠT eik
Ġles in
anefnd arinnar
ĠrÃ³t um
B LAÃĲ
ĠhÃ¡ Ã°ur
ĠOr gan
ĠdÃ½p ra
7 2
f jÃ¶rÃ°ur
en berg
Ġk alli
is co
Ġhann aÃ°i
ĠSt eins
ĠEig endur
Ġkli ppa
ĠÃĵlafs firÃ°i
ĠVaÃ° la
ĠIK EA
Ġvar ÃºÃ°ar
Ġveg ir
ĠSig hv
rit ari
Ġtak mÃ¶rkun
ĠHr ÃŃs
ĠSveit arfÃ©lÃ¶g
ĠFramkvÃ¦md ir
Ġt efla
Ġsk Ã¶r
of na
Ġvef svÃ¦Ã°i
Ġfal legan
ĠUms Ã¶gn
ĠhÃ¶fÃ° aÃ°
skilyr Ã°um
st erk
jar i
Ġmarg breyt
Ġfylg dar
ĠÃºrskur Ã°a
ĠHre inn
Ã¶l lu
ĠfÃ¡ ist
lÃŃ finu
Ġand leg
ssam bands
amiÃ° stÃ¶Ã°var
Ġdyr nar
n b
ĠÃ¡ burÃ°ar
ĠR onald
ĠRey n
ĠRe ut
ĠHof i
Ġk Ãºn
ast igi
Ġmark aÃ°ur
Ġgang ur
ĠÃŀor bjÃ¶rn
ĠboÃ° aÃ°i
ĠframleiÃ° endum
ĠupplÃ½sing afulltrÃºi
ĠFÃ¡ skrÃºÃ°
j and
Ġt ÃŃÃ°a
mÃ¡ naÃ°ar
ĠnauÃ°syn legur
ĠgreiÃ°slu Ã¾Ã¡tttÃ¶ku
prÃ³f s
ĠsuÃ° vestan
ĠÃ³bein t
Ġtil val
ĠM B
ĠM Ã¶rk
ĠY r
ĠFjÃ¶l nis
ĠlÃ¦g stu
ĠSÃ¦ n
ĠhÃ¦st v
ĠÃ¡form um
ĠhÃ½s a
Ġer fing
Ġ19 29
Ġmerk ing
ĠutanrÃŃkis mÃ¡l
ĠstÃŃ gur
pl Ã¶tur
Ġsv iss
Ã¶k unum
Ġof s
Ġ... ..
Ġheimil isins
Ġhrey fingarinnar
ĠHÃ³lm frÃŃÃ°ur
ĠLil ju
am Ã¡
ak aup
Ġhag kerfinu
Ġ13 2
hÃ¦ Ã°ar
bÃ³k ina
ĠnÃ¡ttÃºru auÃ°l
ĠbiÃ° u
Ġlaus nar
ĠstrÃŃÃ° iÃ°
ĠstÃ©tt arfÃ©laga
Ġafn ota
ĠEÃ° l
ĠVol kswagen
ĠBleik t
sl is
Ġfram sal
ak e
ĠnÃ¡ um
Ġhl Ã½r
Ġgagn sÃ¦i
ĠauÃ°lind arÃ¡Ã°herra
ĠList i
ĠM Ã¼
tak an
Ġsm jÃ¶ri
ĠY tri
sviÃ° um
dÃ¦m um
ĠMÃ½vatn ssveit
h yggja
m eg
n na
sk aup
Ġum sÃ½slu
ĠÃºt komu
ĠlÃ¡ naÃ°
ĠMegin markmiÃ°
Ġtrygg ingu
bund inna
ĠmiÃ°viku dÃ¶gum
ĠHau kar
ĠmeiÃ° sla
Ġlak ari
s il
ĠC le
saf na
ĠsamfÃ©lag slega
Ġvit ley
ĠHÃ¡skÃ³la seturs
ĠhljÃ³ Ã°i
Ã¾Ã¡tt taka
Ġmal ar
um a
Ġt Ã¡l
ĠJ ÃºnÃŃ
ĠmÃ¡l staÃ°
ĠveiÃ° it
ĠvÃ© lum
Ġstarfsem innar
ĠtakmÃ¶rk unum
is mi
ĠR and
ana d
ott er
rÃ©tt ingu
ken ningu
ĠIngi mar
ĠEld ri
ĠAld ur
tek tir
Ġumhverfis vernd
Ġuppli fir
ĠKrÃ³ atÃŃu
ĠklÃ¦Ã°a st
con om
la x
ynd ir
ĠsamrÃ¦ Ã°u
ĠsÃ¦ tu
ĠbrÃ¡Ã° am
Ġtafar laust
ĠskÃ½r inga
ĠKepp endur
Ġst ykki
Ġr ÃŃÃ°a
Ġsv if
Ġfram Ã¾rÃ³un
ĠÃ¡r amÃ³ta
Ġkr Ã¶kkunum
ĠstÃ¶ ddu
Ġeigin leikar
ĠSÃ©r frÃ¦Ã°ingar
ĠfjÃ¶lskyldum eÃ°li
ĠhljÃ³Ã°fÃ¦r aleik
Ġm y
Ġst ef
ĠB Ã¶rkur
ĠK Ã¶tlu
Ġ7 50
ĠkÃ¦r t
ĠgleÃ° ja
ĠDV D
ĠVÃŃ gl
r ow
ĠV alt
ĠgÃ³Ã° rar
ĠkvÃ¶ld s
ĠÃ¦tt ar
ĠMark Ãºs
Ġskilgrein ingar
ĠriÃ° la
ĠSÃį M
ĠskrÃŃ tiÃ°
ĠHolu hrauni
um i
Ġo l
ningar innar
hÃºs in
Ġhand legg
ĠÃįS OR
ĠHverager Ã°is
T ube
ĠÃ³ reglu
ĠnÃ¡ nu
eld sneyti
Ġher sins
ĠLau gum
ĠleikskÃ³la kennara
EN T
ĠinnviÃ° i
ĠlandsliÃ°s Ã¾jÃ¡lfari
af yrir
ĠÃ¡tt aÃ°
Ġkeyp tur
Ġsystk in
ĠÃ¾jÃ³Ã° irnar
Ġsend ist
Ġvill andi
ĠsjÃºkdÃ³m ar
ci al
ĠEyjafjalla jÃ¶kli
Ġnot anda
Ġfrumkv Ã¶Ã°u
t y
amenn irnir
Ġ194 1
Ġmyndband inu
ĠUr riÃ°
Ġfyrirbygg jandi
sl Ã³Ã°ir
ĠljÃ³ sleiÃ°
ĠHl jÃ³m
ĠgÃ¶t una
ĠÃ¶r orkum
Ġbolt inn
N AR
Ġf Ã¶nd
at Ã¦k
ĠK y
Ġskil in
Ġa dd
ĠMark aÃ°
ĠÃ¾Ãºsund um
Ġalgeng ustu
Ġbland ast
ĠEirÃŃk s
ĠSkrif stofa
ĠsÃ³ su
Ġpart Ã½
ĠrjÃº fa
t ÃŃÃ°um
am e
Ġal Ã¾ingi
Ġ11 9
Ġlyf ti
ĠsambÃ¦r ilega
Ġver tÃŃÃ°
ĠB eck
sm Ã³ti
Ġbraut ryÃ°
pers Ã³n
v eisla
ĠtrÃº lega
versl anir
rufl anir
ĠsÃŃÃ° unnar
ĠSkÃº tu
ĠaÃ°fanga dag
ĠnÃ½ legri
ĠrÃ©tt inn
hag a
ĠumrÃ¦ tt
hlu tir
ĠLand vernd
skÃ½r slur
ES CO
Ġsek tum
ĠTÃŃm arit
ĠSker iÃ°
sk ostnaÃ°ur
lu st
Ġglugg ann
ĠrÃ©ttar stÃ¶Ã°u
ot ek
ĠnÃº ll
ĠC he
Ġflug velli
ĠÃįslen ski
ĠSn er
ĠHeim ildir
asÃ½ slu
ĠstÃºdent sprÃ³f
p e
r op
ĠrÃ¡Ã° uneyt
ĠKrist ni
asam tÃ¶kin
ĠOf fi
Ġgjafa brÃ©f
g ÃŃ
Ġbyrj endur
ĠThe od
k ari
Ġfjall vegi
ĠhÃ¡mark sh
Ġsorg leg
Ġefnahagsh run
ĠS ci
ĠO k
ĠBryn ja
Ġbyl gju
ĠMÃº hameÃ°
Ġsam skonar
tÃŃm um
ĠsÃ¶gu legu
ĠhÃ¶fuÃ° verk
Ġforset ans
kir kja
r anna
Ġein stÃ¦Ã°
Ġsaman ber
Ġteng sla
Ġhind ranir
Ġeitur lyf
Ġv illi
ĠfÃ¶stu dÃ¶gum
stjÃ³r num
ĠviÃ°bur Ã°inn
Ġt olla
ĠSt efn
ĠbÃŃ lag
Ġkraf tur
kl st
ĠGeir s
Ġveru legum
ĠEll ert
herberg inu
ĠHald iÃ°
sk if
ĠÃ³ hug
mÃ¡l in
Ġsterk u
ĠBrynjÃ³l fur
Ġvegfar endur
ĠmÃ¶tun eyti
O r
ĠR eiÃ°
Ġlag ast
Ġ13 5
ĠReykjanes braut
stefn unni
kÃ¶ll un
ĠIllu gi
Ġd Ã¦
ĠB Ã¦k
ĠBr un
ĠbiÃ° jum
ĠhrÃº ta
f rÃ¦Ã°um
ka s
ĠV andamÃ¡l
ĠÃºt bÃºiÃ°
ĠHr und
met ra
ĠfiskveiÃ°istjÃ³rn unarkerfi
ul and
ĠBir ni
Ġsvip aÃ°a
ĠhÃ¶fÃ° inu
ĠHelgu vÃŃk
ĠRÃŃkisendur skoÃ°un
m ed
Ġs Ã¶fnum
ĠÃ¾e y
Ã¡Ã° gjÃ¶f
epp a
Ġvand ann
ĠGu ardi
II I
ĠSteingrÃŃm s
ĠÃ¾jÃ¡ st
ĠsuÃ°a ustan
undir bÃº
ĠLista safn
ĠByl gj
bl ettir
Ġley fiÃ°
ĠÃ½ su
ĠDag urinn
ĠÃ¾rÃ½st ing
ĠÃįS L
ĠhÃ¦lisleit endur
Ġf et
ĠF all
ĠL O
rÃ¦ dd
ĠD or
ĠÃ¾Ã¡tt inn
ĠskÃ½r sluna
ĠÃºtgef anda
ĠYou Tube
ĠÃģsb jÃ¶rn
Ġv sk
ĠÃ¾ Ã¶r
un es
Ġk inn
ĠviÃ° komu
Ġhlut unum
ĠÃ¶r bylgju
ĠIngi bjÃ¶rgu
ĠhÃ¶nd ina
ĠSe inna
ĠMun urinn
ĠinnviÃ° a
N or
Ġg ris
hÃ¡ skÃ³lann
ĠFyrir hug
ĠstaÃ°fest ar
Ġhrein lÃ¦ti
TV R
ĠN as
ĠN ÃŃel
rei dd
200 9
ĠFisk i
samning num
Ġrekstr arkost
ĠÃ¡vinn ing
Ġskemm tu
set rinu
ĠFor stofa
ĠtÃ³nlistar maÃ°ur
Ġkall aÃ°ar
Ġveik ur
Ġmyr kur
h eiÃ°ar
ĠH im
ĠA kk
Ġrit gerÃ°arinnar
Ġvirk aÃ°i
ĠFund inn
ment s
ĠA A
ĠsÃ©r Ã°
Ġleik in
ĠkÃ¦r enda
ĠÃ½ms an
Ġstarfsh lut
ĠFran c
ĠaÃ°lag ast
Ġt ur
Ġupp lausn
ĠjarÃ° vegi
ĠnÃ¡ttÃºru per
skÃ½r ingar
Ġefnahagssv Ã¦Ã°isins
ĠF C
Ġfram lÃ¶gum
ilega sta
ĠSeÃ°la bankanum
Ġmarg skonar
gang na
Ġmerk ileg
ĠReykjan ess
ĠBlu e
Ġg Ã¡l
Ġsam bÃ¶nd
ĠÃ³ not
ĠlÃŃ tum
Ġlag fÃ¦ra
Ġfeng num
ĠsÃ¦ tin
ĠstaÃ°fest u
ĠLeik fÃ©lag
Ġskamm ast
ĠskÃ½ rist
Ġl ip
ek ur
Ãºs alem
Ġbl Ã½
ĠblÃ³Ã° s
Ġspenn tur
s vÃŃk
sl ey
ĠÃŀ ema
ĠM ala
ek ja
Ġteng st
tor s
ĠÃ¡kvÃ¦Ã°i s
ĠbÃ¦tt ri
ĠVeÃ°ur stofunnar
ei stur
ĠÃ¡f Ã¶ll
ĠsnjÃ³ komu
ĠviÃ°tal iÃ°
ĠgjaldmiÃ° il
Ġg eys
sk au
Ġfyrir liÃ°i
eim ur
ĠsÃ½n ileg
ĠstÃºdent sprÃ³fi
ĠSM S
Ġk ex
Ġ19 28
kom na
ĠskÃ½r Ã°i
vÃŃs Ã½r
Ġstutt lega
Ġfullkom inn
ĠÃºtgjÃ¶ld um
Ġaf num
ĠK erfiÃ°
Ġkl ett
ĠfÃ¦ kkaÃ°i
Ġfasteig num
Ġheilsu ef
ĠEll en
ĠrÃ© Ã°u
ĠrÃŃkis Ãºtvarp
ĠÃ¡Ã¦tl aÃ°ur
ĠSlysa varn
z u
ĠC ent
Ġsamskip t
Ġkort inu
mik la
ĠyfirborÃ° inu
ĠarÃ° semi
F F
in os
ÃŃ unnar
ĠÃ¡r Ã©tt
ĠmiÃ° lum
Ġgjald iÃ°
Ġtiltek nar
stund is
Ġtrey stir
ĠsÃ³larhr inga
ĠStrÃ¡k arnir
h urÃ°
Ġg Ã¶f
Ġfr os
ĠE rum
ĠÃºt gjalda
ast ofnun
us u
H z
d re
Ġt aÃ°
ĠÃģ samt
ĠsÃ© ns
ĠHÃ¶g na
z en
ĠaÃ° vent
un ur
un Ã¡mskeiÃ°
Ġb ra
ĠS U
ĠH jÃ³na
ĠÃ³ aÃ°
ĠhÃ¡ skÃ³lum
liÃ° um
Ġdr jÃº
ĠÃ¦tl aÃ°ar
ĠsÃ³l arl
ĠHug myndir
ĠArn alds
Ġkast aÃ°i
f ugl
s agan
ĠÃ¡ li
ĠÃ¾vÃŃ lÃŃk
ĠÃļt lit
ĠsjÃºkdÃ³m urinn
ĠhjÃ¡lp aÃ°i
Ġfem ÃŃni
ĠS yl
li sti
ĠstÃ¶rf uÃ°u
ĠSkag firÃ°inga
k m
Ġh ands
ast aÃ°a
nir nar
Ġ14 5
ĠnÃ¦g ilegt
ĠKatrÃŃ nu
Ã¶ sum
ĠI M
Ġgef andi
ĠÃºtskÃ½r t
ĠRek stur
Ġstarfsh Ã¦tti
Ġsamkynhneig Ã°ra
ĠÃ¶rorkulÃŃf eyris
Ã¡ ni
ĠF undir
Ġp Ãºl
ĠnÃ½ t
Ġteng slan
rÃºn aÃ°ar
ĠVar amenn
ĠtÃ¶lvupÃ³st fang
ĠEgil shÃ¶ll
ĠÃ¡rÃ¡s ar
Ġeyr um
Ġtilgang urinn
Ã¾Ã¦tt inum
w ork
Ġspr ot
Ġgeym t
ĠEld jÃ¡rn
ĠÃŀekk ing
ĠVeit ingast
ĠPan ama
ĠFra kkar
l Ã³Ã°
Ġ ingar
Ġupp r
ĠÃ³ Ã¡
Ġw ere
amann sins
ĠMenn tun
S ig
Ġf jÃ¶rÃ°
Ġl aÃ°a
em an
Ġsam rÃ¡Ã°s
ĠF im
Ġyfir ferÃ°
Ã½r ur
ĠstarfshÃ³p s
ĠKast l
Ġst enst
sk ona
or ms
ĠW omen
ĠVig fÃºs
stofn unum
ĠÃ¡rst ÃŃÃ°a
f Ã°
j aÃ°ar
ĠrÃ©tt ir
Ġteng ing
ĠÃ¡hrif am
ĠfjÃ¡rmÃ¡l amarkaÃ°i
ĠsjÃ¡lfs eignar
ĠLÃ¡ru sson
ĠUN ESCO
Ġsam in
Ġlang vinn
ĠRÃº men
ĠBess astÃ¶Ã°um
ĠM Ã¦tt
ĠP ower
Ġmynd skrey
Ġnot andi
ĠLands bÃ³ka
Ġsann gjarnt
Ġafh entar
i er
j ect
Ã¶g nuÃ°
ĠbÃ¦jar bÃºa
ĠÃ³g naÃ°
Ġklukkust undum
vÃ¦Ã° ingar
ĠTor fi
M iÃ°
d s
Ġs Ã³f
ĠB ifreiÃ°
ĠG ood
Ġefnahagssv Ã¦Ã°inu
ĠMed ia
ĠlÃŃf eyri
ĠsmÃ¡ sÃ¶lu
Ġbandar ÃŃskum
M T
b aug
ĠÃ ī
ut il
Ġnot end
ĠÃ¾r eyta
Ġfylg ikv
Ġvet ra
ĠpersÃ³nu legum
ĠFrakk land
em ja
ĠJ enn
ÃŃn unni
ĠW all
Ġsak amÃ¡la
Ġle ka
k is
Ġv ild
sk el
Ġsk rÃºÃ°
ĠH ingaÃ°
ĠM ur
ĠB it
miÃ° lunar
ĠEr nir
Ġgest irnir
ĠfÃ³t spor
ĠdÃ¡ samlega
Ġaukaverk anir
Ġsveit um
hv Ã¶rf
Ġmik li
ĠSigur bjÃ¶rnsson
Ġlaus na
gre inda
f o
ĠÃ¡ sÃ½nd
sk unni
Ġhr aÃ°i
ĠUm rÃ¦Ã°an
ĠnÃ¦r liggjandi
Ġtraust s
framleiÃ° sla
Ġfim leika
Ġtilhneig ingu
ĠheimsÃ¦k ir
L and
ĠH reins
ĠÃģ TVR
Ġbr and
sp ÃŃtal
ĠverÃ° skrÃ¡
ĠÃ¡kveÃ° inna
ĠmÃ³ tast
Ġvand aÃ°a
ĠBorg arf
Ġdeil u
sly si
ĠKenn sla
ĠsmiÃ° ju
Ġvar ar
ĠsÃ½ ndir
sh or
Ġbrey tta
Ġly g
Ġveitt ir
Ġversl unin
ĠHeim as
Ġm Ã¦Ã°ra
Ġeftir laun
Ġend ast
Ġminn um
Ġand liti
ĠÃ¡hug asÃ¶mum
ĠveÃ° i
Ġakk Ãºrat
ĠsÃŃ gar
ĠL Ã½s
Ġbl ÃŃÃ°
Ġheil ag
leik num
ĠlÃŃkam legu
ĠnorÃ°ur slÃ³Ã°um
Ġafp lÃ¡
ber ts
ark epp
ĠMo ur
Ġhross a
ĠStyr mir
f ugla
ag arÃ°i
Ġvir tu
ĠbÃ³ nus
Ġkennar inn
Ġinnflutning s
Ġtext ann
Ġnaut gri
ĠMjÃ³lkur sam
ĠGlob al
I nn
Ã¦r ir
sf ulltrÃºi
Ġaug aÃ°
ĠferÃ°a skrif
ĠÃĨ gir
stÃ¶Ã°var nar
Ġtopp i
ĠsÃ½k ingar
ĠhrÃ³ p
Ġg yll
ĠG oÃ°
Ġmark inu
ĠnÃ¡mskeiÃ° in
ĠgÃ¶ngu ferÃ°
ĠsannfÃ¦r Ã°ur
F l
Ġe ik
Ġk Ãºr
Ġd rÃ¦
Ġhl Ã¦r
Ġtr oÃ°
ĠhÃ¡tÃŃÃ° legur
ĠheilbrigÃ°isker fiÃ°
ĠÃ¶rug gum
f jalla
ĠF IFA
ĠmÃ¦ ling
Ġeftirlit snefndar
ĠFrÃ¡ bÃ¦rt
fyrirtÃ¦k jum
stÃŃm abil
ĠKÃ³r an
ĠÃ¡hugasam a
Ġtil sk
Ġr ec
ĠP opp
ĠÃŃsl endingar
ĠLe Ã³
ĠBryn hildur
Ġatvinnut ekjur
ĠTÃ¦p lega
ra dal
ein ingum
Ġap r
ĠljÃ³smynd um
Ġheilbrig Ã°
kÃ³r inn
ĠV ott
Ġalmenn an
ĠnÃ½tt u
ĠlÃ©tt ir
ĠskÃŃr skot
ĠfjÃ¶ld am
ĠM ess
sf jÃ¶rÃ°
mark aÃ°i
ec i
sÃ¦ ld
Ġ193 5
ĠforstÃ¶Ã°um anns
Ġd Ã¶f
Ġsv eiflur
Ġein bl
ĠmiÃ° lunar
ĠlÃ¦ri svein
Ġs Ã³m
jÃ¡ k
fi e
ĠSk amm
sam keppni
rei ta
Ġhlut afÃ©lag
ĠgÃ³lf inu
ĠÃ¾orp inu
ĠB olt
Ã¾ v
ĠÃºt koman
ru kkur
Ġfisk urinn
ĠmÃ³Ã°ur mÃ¡l
Ġfylgd ist
ĠviÃ° mÃ³t
dag i
ĠSk arÃ°
Ã¡tt ar
sn otkun
Ġfundar menn
Ġdrei fing
Ġf atnaÃ°i
ĠM aster
ĠSk ÃŃÃ°
frÃ¦Ã° ilegar
ĠHel ena
Ġflest u
ĠBorgar bÃ³ka
ĠFoss vogi
Ġbrau tir
Ġheimildar mynd
ĠNordi ca
ik iÃ°
ĠÃ¦ fir
ĠJÃ³ g
ĠtilboÃ° iÃ°
ĠskÃ¡ld skap
ĠBerg sson
ĠtrjÃ¡ m
Ġend alaus
ĠBr and
ĠtÃ¶l urnar
ĠBar nas
ĠlÃ¶greglum anna
Ġundansk ildum
st ras
ÃŃ ga
Ġbr ygg
ĠÃ¦ vin
Ġhug um
ĠfÃ³lks bÃŃlum
Ġtung liÃ°
ĠÃŀing menn
ĠskÃ¡ld saga
Ġgildist ÃŃma
ĠhÃºsm Ã³Ã°ir
ĠlÃŃÃ° andi
g agn
ĠfÃ³r st
ĠfrÃ¦Ã° slunefnd
Ġheils una
ĠfrÃ©tta stofu
ĠjafnrÃ©ttis mÃ¡l
ĠD en
eld ar
shlut fall
ĠÃŃ Ã¾yn
Ġd ipl
of um
ĠD er
Ġannars staÃ°ar
ĠBar niÃ°
ĠrannsÃ³kn ina
ĠKv enn
Ġframl engingu
y sta
ÃŃk in
Ġhver fis
ĠmÃ¡l Ã¾ingi
ĠlÃ¶g Ã°um
ĠÃŃsl endinga
ĠBjar n
Ġvatn sins
ĠBorgar byggÃ°
ĠstrÃ¡ kur
teg undum
ĠVik u
Ġst Ãºt
ss jÃ³Ã°s
Ġtilnefnd ir
ĠHans en
ĠB estu
ĠN S
ĠpersÃ³nu vernd
Ġlif Ã°u
ĠnÃ¦g janlega
Ġskyn ja
Ġmagn aÃ°a
ĠKv eÃ°ja
Ġtuttug ustu
Ġs undi
ĠSk Ã¡ld
Ã¡r ra
Ġc an
gild um
Ġbeitt i
ĠEirÃŃk ssonar
Ġax la
S l
f ulltrÃºar
t en
ĠstÃ³r ri
Ġhugs jÃ³n
opp a
ĠÃ¡k jÃ³s
ĠstefnumÃ³t unar
ĠprÃ½ Ã°i
ĠPol ar
n eti
ĠÃ¶ n
ĠÃºtvarp i
ĠundanÃ¾Ã¡ gur
Ġmeir u
ag ang
ey Ã°i
Ġj aÃ°
Ġvor in
Ġat ferli
ĠtÃŃm as
Ġdan sleik
en tum
vald inu
ĠSiÃ° menntar
skÃŃr tein
ĠaÃ°lÃ¶g unar
cast le
Ã¶f l
ĠhÃ¡l ka
ĠMar y
Ġerl ent
ĠÃŀur ÃŃÃ°ur
ĠÃģkÃ¦r Ã°i
Ġen skum
ĠtÃŃm af
Ġskrif leg
Ġ25 00
sinn is
ĠHell isheiÃ°i
ĠplÃ¶t una
ĠÃŀÃ³rhall ur
ĠF lu
ĠnÃ¡ ung
erk jum
Ġgam al
ĠhÃ¶fuÃ° stÃ¶Ã°vum
ĠVilhjÃ¡l ms
Ġhollustu hÃ¦tti
d Ã¦g
nar r
ek jum
Ġsann fÃ¦ra
Ġleit uÃ°u
ĠJÃ³hann s
ĠhljÃ³ Ã°ar
ĠembÃ¦ttis manna
ĠHek la
7 4
ĠS afniÃ°
Ġsk ekk
Ã¾jÃ³ Ã°ast
ÃŃ gur
Ġey Ã°ir
ĠÃ¶flug um
ĠfrÃ¦g u
ĠrÃŃkisskatt stjÃ³ri
Ġ ing
Ġsk arÃ°
nefnd ur
ĠIngi bjargar
ĠSenn ilega
E X
f rÃ©ttum
Ġd ver
ĠorÃ° unum
ĠfjÃ¶lskyld uf
ĠdrÃ¡tt um
Ġbygg Ã°um
tÃŃm anum
Ġsm yr
Ġmegin markmiÃ°
ĠÃįslandsm et
irÃ° inum
bak i
Ġs yr
Ġhaf s
rÃº t
Ġ11 4
Ġvit anlega
Ġstr ang
Ġhitt ist
ĠSnÃ¦ var
ĠvÃ© k
ĠlÃŃfeyrissjÃ³Ã° ir
ĠBet ri
ĠÃºt borg
ĠC ur
Ġgef um
ĠnÃ¡m smenn
ĠnorÃ°ur s
ĠEig andi
Ġnefndar menn
eg urÃ°
Ġein rÃ³ma
sm ÃŃÃ°ar
ĠmÃ¡nu dÃ¶gum
Ġreyn slan
Ġsunnudag s
Ġsaf nar
ĠfundargerÃ° ir
areg lur
vÃŃsit Ã¶lu
ĠHrÃ³k sins
v Ã¦Ã°um
ĠlÃ¶g lega
ĠAl co
ĠnÃ¡mskeiÃ° s
Ġlyf j
Ġskamm tÃŃm
ĠSamgÃ¶ng ustofu
Ã¶g ulega
ĠL eng
mÃ¦l in
ĠsannfÃ¦r ingu
al eyfis
ĠO m
ĠW olf
ĠHel sta
Ġfat naÃ°
Ġneit ar
v ed
Ġh om
Ġsam stundis
stur s
ĠÃŀess ari
Ġfrum sam
ĠskÃ³la stjÃ³rn
ĠVer z
ĠSigurÃ° ssyni
ĠÃºtboÃ° inu
Ġdeiliskipulag s
Ġlistamann sins
ĠnÃ½st Ã¡r
Ġhv ala
ein i
ĠSam s
Ġalvar legra
ĠbÃ½ flug
Ġneikv Ã¦tt
o tur
z er
Ġt u
Ġdug legur
V ER
ann anir
ĠauÃ° iÃ°
Ġminni hÃ¡ttar
Ġkvik naÃ°i
ĠNjarÃ° vÃŃkur
Ġskrif stofa
Ġtru fla
Ġe acute
em y
Ġk aus
ĠÃŀÃ³r Ã³lfur
ĠÃ¶r vÃ¦nt
sg Ã¶tu
ĠfrjÃ¡l sÃŃÃ¾rÃ³tt
ĠfÃŃk n
ĠÃºtrÃ½ ma
ĠFyrirlest urinn
Ġvangavel tur
Ã¡ nar
ĠV and
ĠfjÃ¡r veitingar
Ġhvor n
Ġdreng urinn
Ġherberg inu
ĠG ildir
Ġyfir veg
Ġ19 19
ĠÃ¾r ot
ĠLeik skÃ³la
fjÃ¶l l
ĠMÃ¶r gum
ĠfullyrÃ° ingar
n anir
Ġk Ã¶ldu
ĠEy stras
Ġstel a
Ġkant inum
Ġsk Ã¶tu
et ra
Ġeld fjall
ĠÃĵlaf ÃŃa
ĠPÃ¡l i
ĠGuÃ°mund ssyni
ĠSk ÃŃr
ĠviÃ°skipta banka
ĠgagnrÃ½ ndi
ĠKarl sdÃ³ttir
ĠCharl es
Ġaf brigÃ°i
ĠM Ã¶Ã°ru
re at
ĠÃ¡r Ã¡sum
Ġken ning
Ġkart Ã¶flum
Ġraunveru legt
ld ur
rÃ¡Ã° staf
Ġsn eiÃ°ar
ĠfrÃ¦Ã° andi
Ġuppl est
G r
b ot
Ġm ol
Ġfor vÃ¶rnum
Ġverk stÃ¦Ã°i
Ġhl Ã¦ja
Ġher Ã°a
Ġvatn sveit
Ġskatt ar
l Ã³n
Ġf ont
Ġb jÃ³Ã°i
ott Ã³
af oss
Ġn ak
Ġsk Ãº
Ã³k ra
ĠSam skipti
ĠfjÃ¡rfest ar
ĠVestur byggÃ°ar
Ġvor Ã¶nn
Ġ19 07
yng ju
Ġlands hlutum
Ġlaugar deginum
Ġkrist inna
ĠRÃºss land
Ġkvart aÃ°
ĠMcC art
ĠFlÃ³r ÃŃda
ĠlÃŃ nan
hÃ¶f und
ĠNew castle
ĠSkag ast
ĠBaldur sdÃ³ttir
tÃ³n leika
ĠFerÃ°amÃ¡la stofu
b rÃ¦Ã°
ild ren
skrÃ¡ ningar
Ġpist la
Ġkrafta verk
ĠAdvan ia
c t
rÃ©tt ing
flokk um
Ġkrist in
Ġdeildar stjÃ³ra
Ġkolt vÃŃsÃ½r
Ġb att
rÃ¡ Ã°ur
Ġset ning
reik ningi
ĠhjÃ³ liÃ°
ĠFinn bogi
ĠmÃ¦tt ust
Ġkast aÃ°
ĠVegagerÃ° ina
ĠmÃºsl im
ĠlÃ¶g gÃ¦slu
skor ti
ĠIÃ°n Ã³
ĠlÃ¦kni svott
ĠrÃ¡Ã°staf ana
ĠStÃ¦r sta
ĠÃŀriÃ°ju dagur
ĠsÃŃÃ°ar a
stig a
ĠGrÃ¦n land
ĠÃŃmynd a
ĠSlÃ³ ven
ĠKÃ¡rahn jÃºka
am is
Ġsp Ã¡r
ĠmiÃ° lÃ¦g
ĠlÃŃk ist
ab ili
Ġtr Ã¶ll
Ġhjar tans
ĠHug takiÃ°
ni e
Ġbr oti
Ġsy nir
Ġalgeng ari
mÃ³t inu
ĠEski firÃ°i
ar Ã¡
Ġ19 27
Ġeld inn
Ġbol li
Ġbrau Ã°i
ĠÃ³viÃ° unandi
Ġsannleik ann
ĠÃģrnes inga
ĠkÃ¶l luÃ°u
tt um
Ġsk ur
et nam
ĠN BA
Ġles enda
ĠveiÃ° is
ĠnauÃ°syn legum
vang i
ĠhljÃ³msveit ar
Ar t
vÃ¶rÃ° ungu
ĠrannsÃ³k nin
Ġlist skÃ¶pun
ĠsÃŃm inn
Ġrefs ing
Ġtilein kaÃ°
ĠrÃ© Ã°i
ĠmannrÃ©ttind as
d ep
Ġein ing
Ġskil orÃ°s
Ġmak i
ĠÃģhug asamir
Ġfynd iÃ°
eisl un
ĠSÃ¶l vi
i x
Ġbr Ãºar
lÃ¶g un
Ã¡n ni
Ġles andi
ĠHÃ¡skÃ³la bÃŃÃ³i
afrÃ¦Ã° ingar
ĠSet ja
ĠST EF
j aÃ°ur
el son
re inda
ĠKirkju bÃ¦jar
ĠundanÃºrslit um
H O
Ġsig raÃ°
mÃ¡l anum
val ar
200 7
ĠÃºtgÃ¡ fan
ĠstÃŃ fl
ĠgÃ¦sluvarÃ° haldi
Ã¡r unum
Ġgl Ã¶Ã°
Ġgrund vall
Ġheimili slÃ¦k
ĠolÃŃ a
ĠStuÃ° ningur
eistaramÃ³t inu
Ġs f
Ġbr ennandi
Ġskil um
ĠUm ferÃ°ar
Ġfe b
ĠPr opp
ĠÃ¾ÃŃn s
agrein ingu
ĠlÃŃn una
ĠÃ¡gÃ¦ tu
Ġpru fa
ĠEdin borgar
Ġhrik alega
ĠV etur
ĠU l
sh eild
ĠmiÃ° Ã¶ldum
ĠÃ¾Ã¡tt ar
Ġ12 7
ĠAÃ°al heiÃ°ur
ĠbrÃ© fiÃ°
Ġlax i
ĠÃ¡vÃ¶x tunar
arf undi
Ġheim abyggÃ°
ĠSt an
ĠSam komulag
Ġheil ans
Ġgam lan
Ġget naÃ°ar
ĠÃįslend ingas
ĠtungumÃ¡l i
Ġtug um
ĠTex as
sm essu
Ġ19 0
ĠpÃ³lit ÃŃsku
ĠTÃŃm inn
ĠSÃ¦m undsson
ĠhjÃ³last Ã³l
Ġs na
ĠÃ³ jÃ¶f
ĠgÃ¦r morgun
Ġheimild amynd
Ġhaust in
afl s
lÃŃn ur
ĠblaÃ°amann afundi
ĠWhit e
ĠHÃ¡ degis
Ġmest um
ĠsÃ³l ina
for s
Ġaldur sflokk
ĠHag stofunnar
ĠTÃ¡lkn afirÃ°i
Ġlab ba
end unum
[...]
