{"<s>":0,"<pad>":1,"</s>":2,"<unk>":3,"<mask>":4,"!":5,"\"":6,"#":7,"$":8,"%":9,"&":10,"'":11,"(":12,")":13,"*":14,"+":15,",":16,"-":17,".":18,"/":19,"0":20,"1":21,"2":22,"3":23,"4":24,"5":25,"6":26,"7":27,"8":28,"9":29,":":30,";":31,"<":32,"=":33,">":34,"?":35,"@":36,"A":37,"B":38,"C":39,"D":40,"E":41,"F":42,"G":43,"H":44,"I":45,"J":46,"K":47,"L":48,"M":49,"N":50,"O":51,"P":52,"Q":53,"R":54,"S":55,"T":56,"U":57,"V":58,"W":59,"X":60,"Y":61,"Z":62,"[":63,"\\":64,"]":65,"^":66,"_":67,"`":68,"a":69,"b":70,"c":71,"d":72,"e":73,"f":74,"g":75,"h":76,"i":77,"j":78,"k":79,"l":80,"m":81,"n":82,"o":83,"p":84,"q":85,"r":86,"s":87,"t":88,"u":89,"v":90,"w":91,"x":92,"y":93,"z":94,"{":95,"|":96,"}":97,"~":98,"¡":99,"¢":100,"£":101,"¤":102,"¥":103,"¦":104,"§":105,"¨":106,"©":107,"ª":108,"«":109,"¬":110,"®":111,"¯":112,"°":113,"±":114,"²":115,"³":116,"´":117,"µ":118,"¶":119,"·":120,"¸":121,"¹":122,"º":123,"»":124,"¼":125,"½":126,"¾":127,"¿":128,"À":129,"Á":130,"Â":131,"Ã":132,"Ä":133,"Å":134,"Æ":135,"Ç":136,"È":137,"É":138,"Ê":139,"Ë":140,"Ì":141,"Í":142,"Î":143,"Ï":144,"Ð":145,"Ñ":146,"Ò":147,"Ó":148,"Ô":149,"Õ":150,"Ö":151,"×":152,"Ø":153,"Ù":154,"Ú":155,"Û":156,"Ü":157,"Ý":158,"Þ":159,"ß":160,"à":161,"á":162,"â":163,"ã":164,"ä":165,"å":166,"æ":167,"ç":168,"è":169,"é":170,"ê":171,"ë":172,"ì":173,"í":174,"î":175,"ï":176,"ð":177,"ñ":178,"ò":179,"ó":180,"ô":181,"õ":182,"ö":183,"÷":184,"ø":185,"ù":186,"ú":187,"û":188,"ü":189,"ý":190,"þ":191,"ÿ":192,"Ā":193,"ā":194,"Ă":195,"ă":196,"Ą":197,"ą":198,"Ć":199,"ć":200,"Ĉ":201,"ĉ":202,"Ċ":203,"ċ":204,"Č":205,"č":206,"Ď":207,"ď":208,"Đ":209,"đ":210,"Ē":211,"ē":212,"Ĕ":213,"ĕ":214,"Ė":215,"ė":216,"Ę":217,"ę":218,"Ě":219,"ě":220,"Ĝ":221,"ĝ":222,"Ğ":223,"ğ":224,"Ġ":225,"ġ":226,"Ģ":227,"ģ":228,"Ĥ":229,"ĥ":230,"Ħ":231,"ħ":232,"Ĩ":233,"ĩ":234,"Ī":235,"ī":236,"Ĭ":237,"ĭ":238,"Į":239,"į":240,"İ":241,"ı":242,"Ĳ":243,"ĳ":244,"Ĵ":245,"ĵ":246,"Ķ":247,"ķ":248,"ĸ":249,"Ĺ":250,"ĺ":251,"Ļ":252,"ļ":253,"Ľ":254,"ľ":255,"Ŀ":256,"ŀ":257,"Ł":258,"ł":259,"Ń":260,"Ã°":261,"ĠÃ":262,"Ġs":263,"ar":264,"in":265,"aÃ°":266,"er":267,"Ġh":268,"an":269,"Ġv":270,"Ġf":271,"um":272,"Ġ.":273,"ur":274,"iÃ°":275,"Ã³":276,"Ã¡":277,"ĠÃ¾":278,"st":279,"ir":280,"Ġo":281,"Ã¦":282,"Ġm":283,"ĠÃ¡":284,"ĠaÃ°":285,"Ġe":286,"ÃŃ":287,"Ġog":288,"Ã¶":289,"ĠÃŃ":290,"il":291,"un":292,"Ġ,":293,"Ġt":294,"Ġl":295,"eg":296,"tt":297,"Ġer":298,"al":299,"inn":300,"af":301,"em":302,"en":303,"Ġb":304,"am":305,"Ġg":306,"Ġk":307,"Ãº":308,"ing":309,"Ã©":310,"ag":311,"ei":312,"Ġn":313,"Ġsem":314,"kk":315,"yr":316,"ann":317,"Ġst":318,"and":319,"sk":320,"or":321,"jÃ³":322,"Ġtil":323,"ss":324,"ef":325,"ĠS":326,"Ġum":327,"ri":328,"Ġfr":329,"ra":330,"eÃ°":331,"Ġsk":332,"ĠviÃ°":333,"Ã½":334,"sl":335,"Ġver":336,"ĠÃ¾e":337,"Ġr":338,"na":339,"Ã°i":340,"Ã°a":341,"Ġfyr":342,"el":343,"nd":344,"la":345,"ĠH":346,"ig":347,"Ġ1":348,"ta":349,"ĠmeÃ°":350,"ĠÃŀ":351,"nar":352,"ja":353,"ni":354,"vÃŃ":355,"ins":356,"Ã¡l":357,"Ġen":358,"ey":359,"Ġfyrir":360,"Ġd":361,"und":362,"Ġ2":363,"ver":364,"Ġvar":365,"Ġaf":366,"pp":367,"leg":368,"lu":369,"au":370,"Ġsam":371,"Ã¶g":372,"ti":373,"ĠE":374,"ĠM":375,"Ã¶r":376,"kki":377,"on":378,"Ã©r":379,"is":380,"Ã°ur":381,"âĢ":382,"ning":383,"Ġal":384,"ĠÃ¾ess":385,"ĠÃº":386,"ĠB":387,"Ġhaf":388,"ĠâĢ":389,"Ġekki":390,"li":391,"ĠA":392,"ĠF":393,"andi":394,"Ġef":395,"Ã¦r":396,"re":397,"arf":398,"end":399,"ĠÃį":400,"ka":401,"Ġu":402,"Ġhef":403,"et":404,"Ġsv":405,"ĠV":406,"ĠÃ¾vÃŃ":407,"jÃ¡":408,"at":409,"ĠÃ¾aÃ°":410,"Ġ-":411,"Ã¶l":412,"eim":413,"om":414,"lag":415,"inu":416,"tir":417,"Ã°u":418,"ĠG":419,"num":420,"Ġupp":421,"Ġfram":422,"Ġeru":423,"sta":424,"ĠsÃŃ":425,"ik":426,"ald":427,"ug":428,"Ã³l":429,"ĠL":430,"Ã¾":431,"nu":432,"ÃŃk":433,"ĠfrÃ¡":434,"rÃ¦":435,"Ã°ar":436,"kv":437,"00":438,"ĠK":439,"enn":440,"eiÃ°":441,"ĠR":442,"eik":443,"jar":444,"sins":445,"ll":446,"ang":447,"tta":448,"inni":449,"eng":450,"ĠÃ¶":451,"Ġhefur":452,"ek":453,"ĠÃ¡r":454,"ingar":455,"est":456,"lega":457,"rÃ¡":458,"gg":459,"Ġein":460,"ĠeÃ°a":461,"eir":462,"Ã¦k":463,"Ã³k":464,"jÃ³r":465,"ĠN":466,"Ġp":467,"Ġkom":468,"ĠÃ¾Ã¡":469,"Ġeftir":470,"ip":471,"ynd":472,"of":473,"Ã©lag":474,"ĠsÃ©r":475,"uÃ°":476,"ist":477,"rÃ³":478,"Ġ:":479,"erÃ°":480,"ĠÃ¾ar":481,"Ãºn":482,"egar":483,"ĠÃºt":484,"ĠT":485,"anna":486,"ĠÃ³":487,"Ġhann":488,"Ġ)":489,"ÃŃm":490,"Ã¶f":491,"Ġhafa":492,"stu":493,"ygg":494,"ĠÃ¾eir":495,"ld":496,"sm":497,"ild":498,"Ã¶n":499,"ĠveriÃ°":500,"it":501,"Ã¦m":502,"ast":503,"aÃ°ur":504,"fir":505,"Ġall":506,"ĠÃģ":507,"nir":508,"yn":509,"Ã¦g":510,"Ã©tt":511,"Ã³tt":512,"ĠJ":513,"ĠsÃ©":514,"ara":515,"Ã³r":516,"Ġ20":517,"Ã°um":518,"Ġ(":519,"ind":520,"jÃ¡l":521,"Ġhv":522,"ĠÃºr":523,"Ãºs":524,"sson":525,"Ġy":526,"slu":527,"unar":528,"Ġger":529,"Ġsvo":530,"Ġfl":531,"Ġbr":532,"ĠÃįsl":533,"okk":534,"ak":535,"Ġfor":536,"ĠnÃ¡":537,"Ġinn":538,"ĠÃ©":539,"eit":540,"Ġdag":541,"aÃ°i":542,"ĠlÃŃ":543,"ĠÃ©g":544,"ans":545,"Ġj":546,"Ġau":547,"jÃ¶l":548,"Ġgr":549,"Ã¦Ã°i":550,"Ġheim":551,"Ġhver":552,"tur":553,"ina":554,"var":555,"ĠnÃ½":556,"Ġmik":557,"es":558,"jÃ¶r":559,"Ġ3":560,"ju":561,"Ã¦tt":562,"Ġveg":563,"ands":564,"org":565,"Ġyfir":566,"unum":567,"fi":568,"ĠSt":569,"ot":570,"ĠD":571,"Ġeig":572,"Ġstarf":573,"afn":574,"eld":575,"Ã¡Ã°":576,"ber":577,"jÃ³Ã°":578,"Ã¶k":579,"Ġseg":580,"all":581,"ĠP":582,"Ġvor":583,"ĠÃŀaÃ°":584,"Ġund":585,"ileg":586,"ĠâĢľ":587,"ĠmÃ¡":588,"Ġ201":589,"Ġ19":590,"as":591,"oÃ°":592,"ark":593,"Ġsp":594,"ingu":595,"Ã¦Ã°":596,"br":597,"ĠmÃ¡l":598,"ill":599,"jÃ³rn":600,"ung":601,"ĠâĢŀ":602,"ĠÃ¾egar":603,"rif":604,"jÃ¡lf":605,"eira":606,"ĠÃ¦":607,"ĠverÃ°ur":608,"endur":609,"ĠstaÃ°":610,"Ã³t":611,"kvÃ¦m":612,"Ã½s":613,"Ġat":614,"unni":615,"ĠÃ¡h":616,"Ġvoru":617,"ol":618,"ars":619,"ram":620,"tu":621,"ĠU":622,"itt":623,"dÃ³tt":624,"dd":625,"Ã½r":626,"dag":627,"una":628,"ĠnÃº":629,"Ġhafi":630,"yl":631,"ein":632,"Ġhe":633,"Ġgre":634,"ĠÃ¾eim":635,"Ġ/":636,"innar":637,"inna":638,"jÃ¡r":639,"Ã³lk":640,"Ġhlu":641,"Ġann":642,"ĠI":643,"ul":644,"Ã³n":645,"ĠlÃ¶g":646,"Ġend":647,"ĠtÃŃm":648,"etur":649,"jum":650,"Ġokk":651,"Ġvel":652,"Ġmynd":653,"Ã³m":654,"Ġsig":655,"Ġleik":656,"Ġof":657,"Ġ4":658,"vÃŃk":659,"rar":660,"Ã³la":661,"Ġvera":662,"sÃ³k":663,"stÃ¶":664,"ari":665,"Ġskip":666,"ÃŃÃ°":667,"arg":668,"ska":669,"Ġ200":670,"efnd":671,"ĠhÃºn":672,"..":673,"ofn":674,"jÃº":675,"unn":676,"Ġverk":677,"ĠhÃ¡":678,"Ġkr":679,"Ġeinn":680,"Ġtek":681,"agn":682,"tÃ¦k":683,"ok":684,"Ġor":685,"ĠÃŀe":686,"ull":687,"Ġeins":688,"skip":689,"ĠhjÃ¡":690,"inga":691,"Ġ5":692,"bÃº":693,"Ġland":694,"ĠÃ¾etta":695,"hver":696,"ĠÃ¾eirra":697,"ust":698,"Ġvegna":699,"Ġlag":700,"Ġkv":701,"Ã¦ri":702,"eig":703,"dÃ³ttir":704,"ĠSk":705,"Ã¶ng":706,"Ġsl":707,"Ġhug":708,"Ġsegir":709,"lÃ½s":710,"Ġko":711,"Ã³Ã°":712,"ĠfjÃ¶l":713,"ĠÃ¡kv":714,"Ġ?":715,"iÃ°ur":716,"ĠhÃ©r":717,"Ġallt":718,"Ġundir":719,"ett":720,"gi":721,"kja":722,"ana":723,"ĠleiÃ°":724,"inum":725,"efni":726,"rÃº":727,"tar":728,"urinn":729,"ĠO":730,"sam":731,"ningar":732,"anda":733,"ĠC":734,"ĠRey":735,"ÃŃn":736,"ĠsÃ½":737,"rum":738,"sv":739,"ĠfÃ©lag":740,"ĠfÃ¡":741,"ÃŃs":742,"unnar":743,"ort":744,"riÃ°":745,"ĠViÃ°":746,"Ã¶ld":747,"Ġge":748,"Ã¦gt":749,"aka":750,"Ġmun":751,"ĠrÃ¡Ã°":752,"īg":753,"eyt":754,"stak":755,"Ġtv":756,"irk":757,"gja":758,"emur":759,"Ġkl":760,"im":761,"Ġhald":762,"Ġfer":763,"Ġhl":764,"her":765,"aÃ°a":766,"tl":767,"ĠÃīg":768,"fa":769,"Ġbar":770,"enda":771,"rÃ¦Ã°":772,"Ġbl":773,"ĠÃŃsl":774,"sf":775,"Ġskil":776,"ru":777,"sku":778,"ĠlÃ¡":779,"ĠstjÃ³rn":780,"ĠsjÃ¡lf":781,"rÃ¡Ã°":782,"aÃ°ar":783,"menn":784,"miÃ°":785,"ĠâĢĵ":786,"ĠrÃŃk":787,"rygg":788,"nt":789,"Ġ\"":790,"Ġhen":791,"Ġkyn":792,"ĠtÃŃma":793,"mi":794,"ĠfÃ³lk":795,"Ġ6":796,"lum":797,"pa":798,"ĠfjÃ¡r":799,"kom":800,"ĠSam":801,"ĠÃ¡ra":802,"ĠÃŃslen":803,"ĠMeira":804,"epp":805,"ĠÃįslands":806,"fram":807,"ingum":808,"Ġjafn":809,"sh":810,"ĠÃ¾au":811,"ĠhÃ¶f":812,"lÃ¶g":813,"ĠrÃ©tt":814,"ĠEn":815,"jÃ¶g":816,"mÃ¡":817,"vinn":818,"bl":819,"ott":820,"Ġsag":821,"Ã¶nd":822,"ĠÃ¾ann":823,"ĠSig":824,"orÃ°":825,"Ã¦ti":826,"lug":827,"Ġnokk":828,"ĠmiÃ°":829,"Ġ...":830,"Ġmann":831,"ĠGuÃ°":832,"Ã¦Ã°a":833,"ĠAÃ°":834,"erk":835,"lit":836,"ĠReykja":837,"ningu":838,"ĠsjÃ¡":839,"verk":840,"mynd":841,"Ġgeg":842,"Ġsaman":843,"Ġeinnig":844,"eyr":845,"jÃ³nu":846,"ma":847,"Ġhans":848,"ĠReykjavÃŃk":849,"Ġ8":850,"anum":851,"Ġkoma":852,"tum":853,"rÃŃ":854,"ĠbÃº":855,"Ġtaka":856,"far":857,"Ġrey":858,"Ġvinn":859,"ĠEf":860,"ĠÃĵ":861,"illi":862,"sp":863,"ĠÃ¶Ã°":864,"reiÃ°":865,"Ġhr":866,"Ġnem":867,"ĠÃ¶ll":868,"Ã¡tt":869,"legt":870,"jÃºk":871,"ferÃ°":872,"mÃ¡l":873,"Ġ7":874,"Ġbygg":875,"ga":876,"Ġheil":877,"Ġfund":878,"tal":879,"veg":880,"lÃŃ":881,"ĠniÃ°ur":882,"skÃ³la":883,"ĠbÃ¦":884,"hÃºs":885,"Ġa":886,"ĠlÃŃf":887,"Ġfull":888,"ĠÃŀetta":889,"ĠverÃ°i":890,"ĠÃ¾essu":891,"stjÃ³":892,"gar":893,"Ġ10":894,"reg":895,"ĠHann":896,"Ġop":897,"ĠorÃ°":898,"stur":899,"us":900,"jald":901,"ĠÃ¾Ã¡tt":902,"Ã³p":903,"ĠverÃ°a":904,"ĠnÃ¦":905,"ĠÃ¾Ã³":906,"ĠlÃŃk":907,"eild":908,"rÃ¦Ã°i":909,"Ġgetur":910,"sti":911,"Ġauk":912,"ĠupplÃ½s":913,"Ġsn":914,"iss":915,"ut":916,"Ġnot":917,"fÃ©lag":918,"Ġhel":919,"Ġgera":920,"ĠvÃ¦ri":921,"Ġkemur":922,"ĠmjÃ¶g":923,"Ġskal":924,"jÃ³n":925,"Ġgrein":926,"annsÃ³k":927,"ĠliÃ°":928,"sa":929,"eldur":930,"ĠmÃ¦":931,"Ġfyl":932,"Ġtal":933,"ĠljÃ³":934,"leik":935,"Ġfar":936,"ĠÃ¡riÃ°":937,"Ġgef":938,"Ġokkur":939,"eitt":940,"sdÃ³ttir":941,"gr":942,"ĠÃ¾Ã¦r":943,"jÃ³rnar":944,"si":945,"Ġald":946,"ĠhÃ¦":947,"if":948,"Ġendur":949,"lut":950,"Ã°an":951,"Ġlok":952,"hald":953,"Ġmarg":954,"Ġeitt":955,"Ġ;":956,"tan":957,"maÃ°ur":958,"Ġra":959,"rit":960,"sla":961,"efn":962,"ĠÃ¡tt":963,"ell":964,"kvÃ¦mt":965,"Ġber":966,"Ã¶Ã°":967,"Ġteng":968,"starf":969,"ĠAl":970,"eiri":971,"ĠÃ¾arf":972,"ĠfÃ³r":973,"Ġokkar":974,"ĠhÃ¦gt":975,"yld":976,"Ã¦tti":977,"ĠmÃ©r":978,"Ġmilli":979,"Ġfara":980,"Ã¡r":981,"Ġ9":982,"Ġgeta":983,"kur":984,"ent":985,"ĠÃ¾Ãº":986,"ember":987,"leiÃ°":988,"Ġmark":989,"kt":990,"ĠÃ¾r":991,"Ġmikil":992,"ĠÃ¾ur":993,"Ġley":994,"ms":995,"ĠSv":996,"ĠhÃºs":997,"ĠÂ":998,"tak":999,"gang":1000,"ert":1001,"ĠÃ¾essum":1002,"Ġ12":1003,"tÃ¶k":1004,"skÃ³l":1005,"eins":1006,"onum":1007,"rist":1008,"Ġhvort":1009,"Ġse":1010,"Ã¶m":1011,"fl":1012,"kvÃ¦md":1013,"ĠvarÃ°":1014,"ilega":1015,"Ãį":1016,"ĠfyrirtÃ¦k":1017,"Ġreg":1018,"Ġmenn":1019,"ĠÃ¡Ã°ur":1020,"ĠverÃ°":1021,"vel":1022,"ĠmeÃ°al":1023,"Ġvik":1024,"skrÃ¡":1025,"tiÃ°":1026,"nig":1027,"ulag":1028,"rei":1029,"Ġ18":1030,"star":1031,"ĠsÃ¶g":1032,"ĠhvaÃ°":1033,"rÃ©tt":1034,"yrir":1035,"Ġleg":1036,"nn":1037,"eita":1038,"ĠÃ½":1039,"fis":1040,"Ġsum":1041,"Ġhlut":1042,"liÃ°":1043,"Ġheldur":1044,"daginn":1045,"Ġsinni":1046,"os":1047,"ĠstÃ³r":1048,"Ã¶rf":1049,"Ġvil":1050,"ĠtÃ³k":1051,"nun":1052,"aup":1053,"Ġlau":1054,"Ġ15":1055,"Ġmat":1056,"Ġminn":1057,"ĠUm":1058,"ĠÃŀÃ¡":1059,"Ġvir":1060,"alla":1061,"emm":1062,"eika":1063,"jÃ³nustu":1064,"Ġsku":1065,"Ġgl":1066,"band":1067,"Ġeinhver":1068,"ĠÃŃslensk":1069,"Ġ0":1070,"hug":1071,"boÃ°":1072,"pu":1073,"ila":1074,"Ġmeira":1075,"Ã°ir":1076,"ÃŃu":1077,"sleg":1078,"Ġsveit":1079,"su":1080,"Ġ!":1081,"herra":1082,"anir":1083,"ĠJÃ³n":1084,"Ã¾ing":1085,"vaÃ°":1086,"Ġenn":1087,"ĠÃ¡n":1088,"Ã¶lu":1089,"rig":1090,"lar":1091,"ĠsagÃ°i":1092,"bÃ¦":1093,"ĠÃ¾jÃ³Ã°":1094,"lend":1095,"Ġsinn":1096,"Ġtel":1097,"rein":1098,"Ġlang":1099,"ĠsÃŃnum":1100,"Ã°ast":1101,"gj":1102,"Ġundan":1103,"ykk":1104,"jÃ³l":1105,"ĠmikiÃ°":1106,"fiÃ°":1107,"Ġmill":1108,"jall":1109,"stÃ¶Ã°":1110,"Ġstofn":1111,"gu":1112,"stof":1113,"ĠrÃŃkis":1114,"mann":1115,"Ã¶rn":1116,"auÃ°":1117,"ĠrannsÃ³k":1118,"ĠframkvÃ¦md":1119,"enna":1120,"haf":1121,"trÃº":1122,"ili":1123,"ku":1124,"ĠSigur":1125,"imm":1126,"rey":1127,"undur":1128,"ĠtÃ¦k":1129,"mÃ¦":1130,"Ġbara":1131,"Ġskrif":1132,"varp":1133,"ĠgÃ³":1134,"ĠÃ¾essa":1135,"Ġbir":1136,"ĠhafÃ°i":1137,"ĠfÃ©":1138,"Ġhonum":1139,"ĠkomiÃ°":1140,"tÃŃÃ°":1141,"ĠaÃ°st":1142,"ĠsÃŃÃ°an":1143,"ĠfÃ¦r":1144,"Ġinnan":1145,"naÃ°":1146,"ĠÃŀar":1147,"ĠÃįslandi":1148,"Ġeinstak":1149,"Ãºr":1150,"Ġfeng":1151,"Ġbreyt":1152,"borg":1153,"ita":1154,"ĠÃ¶llum":1155,"Ġ16":1156,"Ġeld":1157,"Ġleng":1158,"ĠÃĸ":1159,"sÃ½":1160,"frÃ¦Ã°":1161,"Ġrek":1162,"fer":1163,"ĠgreiÃ°":1164,"ĠbÃŃ":1165,"isk":1166,"Ġfors":1167,"sn":1168,"ĠHÃ¡":1169,"Ġsama":1170,"onar":1171,"ĠÃ¾ing":1172,"Ġgild":1173,"ĠferÃ°":1174,"Ġ11":1175,"ch":1176,"Ġsett":1177,"Ġhvernig":1178,"atn":1179,"jarÃ°ar":1180,"ed":1181,"ĠnÃ¡m":1182,"brig":1183,"Ġung":1184,"ota":1185,"ĠbÃ³k":1186,"Ã¶rÃ°":1187,"ĠstÃ¶":1188,"ĠÃŀÃ³r":1189,"Ãºar":1190,"ab":1191,"gur":1192,"vrÃ³":1193,"ĠÃ¡hrif":1194,"Ġaftur":1195,"ĠsÃ©u":1196,"ank":1197,"ĠNor":1198,"ĠW":1199,"bur":1200,"Ġsegja":1201,"ĠsÃ¡":1202,"ĠÃ¾annig":1203,"ĠÃ¶Ã°rum":1204,"Ġgegn":1205,"Ġeiga":1206,"sem":1207,"ĠgÃ¦r":1208,"ĠMeÃ°":1209,"Ġhennar":1210,"Ġ[":1211,"orgun":1212,"ĠtÃ³n":1213,"stjÃ³ri":1214,"ĠKrist":1215,"Ġ17":1216,"ĠvÃŃs":1217,"ingur":1218,"ĠsÃº":1219,"ĠkÃ¦r":1220,"Ġborg":1221,"ap":1222,"heim":1223,"Ġhag":1224,"Ġ199":1225,"stjÃ³rn":1226,"ĠTil":1227,"efna":1228,"Ġvegar":1229,"Ġgert":1230,"ÃŃf":1231,"Ġatvinn":1232,"Ġhins":1233,"Ġannars":1234,"ĠÃ¡kveÃ°":1235,"ĠÃŀess":1236,"arfÃ©lag":1237,"Ġflokk":1238,"arÃ°":1239,"Ġfyrsta":1240,"Ġ13":1241,"ĠlÃŃka":1242,"ĠauÃ°":1243,"Ġma":1244,"Ġand":1245,"ĠhefÃ°i":1246,"dÃ³m":1247,"ĠmÃ¡nu":1248,"ĠannaÃ°":1249,"jan":1250,"Ġ14":1251,"Ġgang":1252,"bygg":1253,"ĠsamkvÃ¦mt":1254,"Ã¾rÃ³":1255,"ĠÃģr":1256,"ĠJÃ³":1257,"Ã¦tl":1258,"yrÃ°i":1259,"tÃŃm":1260,"gl":1261,"Ġfimm":1262,"ĠVest":1263,"ĠÃ¾essi":1264,"ex":1265,"deild":1266,"Ġfyrr":1267,"Ġvef":1268,"ĠsÃ©rstak":1269,"skyld":1270,"ĠsÃŃÃ°u":1271,"Ġkon":1272,"kkert":1273,"ax":1274,"ĠslÃŃk":1275,"ÃŃÃ°ar":1276,"Ġdr":1277,"Ġskemm":1278,"ĠdÃ¦m":1279,"Ġset":1280,"ken":1281,"men":1282,"ĠbÃ¦Ã°i":1283,"kka":1284,"gerÃ°":1285,"Ġ_":1286,"Ġeigin":1287,"yrk":1288,"ĠaÃ°eins":1289,"Ġlit":1290,"ĠGr":1291,"Ġnr":1292,"ĠmÃ³":1293,"ĠsamÃ¾":1294,"ĠprÃ³":1295,"Ã¶nnum":1296,"ĠÃ¡st":1297,"saf":1298,"kyn":1299,"Ġstund":1300,"ĠkrÃ³":1301,"Ġhalda":1302,"hag":1303,"Ġbyr":1304,"Ġalla":1305,"ĠfÃ¦":1306,"ĠIn":1307,"arl":1308,"ĠsÃŃna":1309,"ĠmÃ¶r":1310,"ĠmaÃ°ur":1311,"ĠÃ¶r":1312,"tti":1313,"jast":1314,"vik":1315,"indi":1316,"ĠEvrÃ³":1317,"ess":1318,"manna":1319,"last":1320,"nast":1321,"000":1322,"he":1323,"egi":1324,"Ġbrey":1325,"ĠsjÃºk":1326,"pt":1327,"samt":1328,"ĠtekiÃ°":1329,"Ġgeng":1330,"ĠfariÃ°":1331,"ĠskÃ½r":1332,"Ãºm":1333,"Ġbe":1334,"Ġefni":1335,"og":1336,"ĠmÃ³t":1337,"Ġfrum":1338,"ĠHÃºn":1339,"ĠÃ¾ekk":1340,"ĠupplÃ½singar":1341,"stÃ¶Ã°u":1342,"Ãºt":1343,"brigÃ°i":1344,"ĠrÃ¦Ã°a":1345,"Ġenda":1346,"ĠÃŀegar":1347,"ĠÃ¡fram":1348,"Ġeng":1349,"sÃ¶g":1350,"ĠstÃ¦r":1351,"bÃ¦r":1352,"arinnar":1353,"rÃŃk":1354,"jÃ¶rn":1355,"ĠEin":1356,"Ġmikilv":1357,"ĠÃŃbÃº":1358,"Ġgagn":1359,"ĠhÃ³p":1360,"andar":1361,"aga":1362,"urnar":1363,"ĠEr":1364,"att":1365,"Ã°ist":1366,"skeiÃ°":1367,"ĠgÃ³Ã°":1368,"Ġekkert":1369,"amenn":1370,"ĠÃ¡samt":1371,"Ġfinna":1372,"Ġutan":1373,"ĠaÃ°al":1374,"ĠÃ¡g":1375,"ĠskÃ³l":1376,"Ġsamning":1377,"set":1378,"Ã©l":1379,"Ġstarfsm":1380,"Ġumhver":1381,"fur":1382,"Ġ|":1383,"Ã¡n":1384,"ĠstjÃ³rnar":1385,"kun":1386,"mÃ¡la":1387,"Ġly":1388,"fang":1389,"Ġvinna":1390,"Ġ21":1391,"ĠsÃŃÃ°ustu":1392,"ĠdÃ³m":1393,"ĠbÃ¶rn":1394,"ĠvÃŃ":1395,"Ã¶ngu":1396,"Ġmis":1397,"Ġkepp":1398,"nefnd":1399,"Ġvinnu":1400,"ĠÃ¡ri":1401,"Ġnefnd":1402,"Ġeinstakl":1403,"Ġspur":1404,"ĠÃ¡her":1405,"ft":1406,"jÃ³Ã°a":1407,"laf":1408,"Ġhenni":1409,"endum":1410,"Ã¦Ã°um":1411,"ĠAr":1412,"ĠviÃ°skip":1413,"di":1414,"Ã¡m":1415,"ers":1416,"Ġgam":1417,"aÃ°ir":1418,"ĠfÃ¶":1419,"ĠnÃ³":1420,"Ã¶nnun":1421,"viÃ°":1422,"Ġannar":1423,"ĠskÃ³la":1424,"Ġsvar":1425,"ĠAll":1426,"byr":1427,"vi":1428,"amÃ¡l":1429,"ĠhÃ¡tt":1430,"ofnun":1431,"Ġlaga":1432,"ĠÃļ":1433,"ilegt":1434,"ĠmÃŃn":1435,"fest":1436,"ĠBr":1437,"ĠhÃ¡l":1438,"Ġlandi":1439,"Ã¶fn":1440,"up":1441,"oÃ°a":1442,"ĠvÃ¶r":1443,"lokk":1444,"geng":1445,"ĠÃ¡hug":1446,"Ġtrygg":1447,"ĠtÃ¶l":1448,"Ġmig":1449,"dal":1450,"tek":1451,"ost":1452,"fu":1453,"vÃŃs":1454,"ĠsjÃ³":1455,"bb":1456,"Ġles":1457,"Ġstig":1458,"gum":1459,"ĠHel":1460,"verÃ°":1461,"ĠHaf":1462,"Ġhluta":1463,"uÃ°ur":1464,"Ġfyrst":1465,"ker":1466,"slum":1467,"ĠÃ¡rum":1468,"semi":1469,"hvaÃ°":1470,"ĠorÃ°iÃ°":1471,"Ġunn":1472,"lur":1473,"da":1474,"list":1475,"ski":1476,"ger":1477,"Ġflug":1478,"frÃ¦Ã°i":1479,"aleg":1480,"ĠgerÃ°":1481,"Ã½Ã°":1482,"Ġ&":1483,"Ġhana":1484,"Ġmest":1485,"ĠGuÃ°m":1486,"ĠNÃº":1487,"kum":1488,"Ġli":1489,"fÃ¦r":1490,"Ġbarna":1491,"inda":1492,"jÃ¶":1493,"mark":1494,"ĠlÃ¦":1495,"ĠstÃ¶Ã°u":1496,"ĠEinn":1497,"ĠsamÃ¾ykk":1498,"Ġkost":1499,"landi":1500,"ĠâĢ¦":1501,"Ġget":1502,"ĠHÃ©r":1503,"Ġlof":1504,"Ġrit":1505,"Ġher":1506,"Ġbarn":1507,"ĠFram":1508,"skrif":1509,"Ġsamstarf":1510,"Ġverkefni":1511,"undi":1512,"arnir":1513,"Ġraun":1514,"oss":1515,"Ġallir":1516,"ĠsamfÃ©lag":1517,"hÃ¦":1518,"Ġc":1519,"ĠnÃ¦r":1520,"tist":1521,"ĠsÃŃÃ°ar":1522,"tast":1523,"Ġfal":1524,"ĠstuÃ°":1525,"ĠHver":1526,"Ġraf":1527,"skur":1528,"Ġleggja":1529,"Ġnota":1530,"son":1531,"ĠsviÃ°":1532,"val":1533,"Ã©f":1534,"bo":1535,"ac":1536,"ĠeitthvaÃ°":1537,"Ġkos":1538,"ĠÃ¾jÃ³nustu":1539,"rÃ½":1540,"Ġsumar":1541,"Ġken":1542,"Ġheimil":1543,"Ġalltaf":1544,"rÃ¡tt":1545,"ĠÃ¾rÃ³":1546,"Ġfjall":1547,"sst":1548,"ĠsmÃ¡":1549,"Ġvit":1550,"sg":1551,"Ġfleiri":1552,"ĠAf":1553,"Ġ>":1554,"legum":1555,"vald":1556,"Ã³ber":1557,"vit":1558,"Ãºl":1559,"ĠkvÃ¶ld":1560,"ĠskoÃ°":1561,"Ġ]":1562,"Ġhor":1563,"ĠheilbrigÃ°i":1564,"ĠnÃ¡tt":1565,"Ġoft":1566,"byrg":1567,"ĠlÃ©":1568,"ĠBjar":1569,"Ġmgr":1570,"ĠSp":1571,"rÃ©":1572,"legu":1573,"vÃ¶r":1574,"oll":1575,"ĠskrÃ¡":1576,"Ġfinn":1577,"ĠÃĵlaf":1578,"ndar":1579,"irÃ°i":1580,"blaÃ°":1581,"op":1582,"ĠEvrÃ³pu":1583,"Ġsend":1584,"Ãºst":1585,"Ġ30":1586,"Ġokt":1587,"stjÃ³ra":1588,"Ġla":1589,"stri":1590,"Ġsm":1591,"ĠÃ¦tl":1592,"jÃ¶rg":1593,"ĠÃŀor":1594,"arÃ¡Ã°":1595,"Ġey":1596,"Ġopin":1597,"Ã¾jÃ³Ã°":1598,"Ġsitt":1599,"art":1600,"bund":1601,"ĠtrÃº":1602,"naÃ°ar":1603,"Ġforeld":1604,"Ġfel":1605,"eidd":1606,"ĠÃŀeir":1607,"vÃ¶ld":1608,"ĠumrÃ¦":1609,"lutning":1610,"rÃ¦n":1611,"Ġgott":1612,"afÃ©lag":1613,"ĠÃ¾Ã©r":1614,"jur":1615,"Ġtekur":1616,"Ġfylg":1617,"Ġgrunn":1618,"30":1619,"vin":1620,"Ġbor":1621,"estur":1622,"komandi":1623,"va":1624,"Ġnema":1625,"Ãºss":1626,"ĠÃįsland":1627,"ĠReykjavÃŃkur":1628,"Ġmeiri":1629,"Ġlist":1630,"Ġfrek":1631,"Ã¦ttu":1632,"ĠsÃŃn":1633,"hlut":1634,"lÃ¡":1635,"nari":1636,"Ġbein":1637,"ĠEy":1638,"Ã¦Ã°ur":1639,"efnum":1640,"fyl":1641,"Ġmerk":1642,"nnur":1643,"ĠmÃ¶g":1644,"ki":1645,"Ã¶ndum":1646,"nis":1647,"ĠmÃ¡li":1648,"Ġbest":1649,"Ġerlend":1650,"eyri":1651,"ĠMagn":1652,"ĠOg":1653,"ĠÃįsaf":1654,"yni":1655,"legar":1656,"bÃºn":1657,"kr":1658,"ĠFor":1659,"Ġlig":1660,"yrirtÃ¦k":1661,"ĠlÃ¶greg":1662,"Ġvirk":1663,"ĠoktÃ³ber":1664,"Ġkaf":1665,"uÃ°u":1666,"ĠÃ³sk":1667,"aust":1668,"ĠvÃ¦":1669,"Ġ2017":1670,"ĠmÃŃ":1671,"Ġaldrei":1672,"Ġeigi":1673,"Ġ<":1674,"Ġgegnum":1675,"utt":1676,"Ġhand":1677,"Ã¶rÃ°un":1678,"ĠhÃ³":1679,"Ġflest":1680,"hl":1681,"Ġ25":1682,"umÃ¡l":1683,"ĠboÃ°":1684,"undar":1685,"ĠEinnig":1686,"ĠÃ½ms":1687,"ĠÃ¾riÃ°":1688,"Ġgjald":1689,"Ġnokkur":1690,"Ġskemmt":1691,"Ãŀ":1692,"Ġvald":1693,"Ġhugmynd":1694,"Ġtilkyn":1695,"laus":1696,"jal":1697,"ssonar":1698,"unnu":1699,"Ġtak":1700,"Ġstr":1701,"dÃ³ttur":1702,"ĠsÃ©rstaklega":1703,"uk":1704,"ĠfrÃ©tt":1705,"ĠFÃ©lag":1706,"jarÃ°":1707,"ĠÃ¾essari":1708,"Ġkenn":1709,"ĠEkki":1710,"Ġath":1711,"Ġstendur":1712,"Ã¦Ã°inu":1713,"Ġveit":1714,"Ġmorgun":1715,"Ġheild":1716,"hÃ¡":1717,"rir":1718,"ĠFl":1719,"Ã½st":1720,"ĠJÃ³h":1721,"virk":1722,"Ġkaup":1723,"Ġhluti":1724,"ĠÃ¾essar":1725,"ĠÃ¶Ã°ru":1726,"ĠY":1727,"Ġmet":1728,"verandi":1729,"ĠfjÃ¶lskyld":1730,"ĠsveitarfÃ©lag":1731,"Ġvin":1732,"ĠfjÃ³r":1733,"Ã¶kk":1734,"Ã¶gum":1735,"ĠâĢĿ":1736,"Ġviku":1737,"ĠlÃ¶gum":1738,"Ġfe":1739,"ĠEftir":1740,"Ġbak":1741,"ĠmÃ³ti":1742,"unda":1743,"ĠkrÃ¶f":1744,"Ġeinu":1745,"ĠsamrÃ¦":1746,"Ġkann":1747,"ĠGunnar":1748,"ĠhaldiÃ°":1749,"Ġmeg":1750,"gÃ¶ng":1751,"20":1752,"ĠmaÃŃ":1753,"asam":1754,"raut":1755,"ĠfÃ©kk":1756,"Ġalmen":1757,"Ġgeti":1758,"vÃ¦":1759,"Ġaug":1760,"Ġfisk":1761,"Ġjan":1762,"ĠnauÃ°":1763,"ĠBandar":1764,"Ġmen":1765,"Ġ2016":1766,"ÃŃl":1767,"ningi":1768,"ĠsÃ¶gu":1769,"Ġinni":1770,"Ã¶ll":1771,"Ġsetja":1772,"ĠsÃ¦ti":1773,"tug":1774,"Ġauka":1775,"lÃŃk":1776,"ekk":1777,"lukk":1778,"ĠgÃ¦":1779,"eti":1780,"lands":1781,"smÃ¡l":1782,"Ġbyrj":1783,"ĠrÃºm":1784,"ĠsÃŃnu":1785,"ĠÃ¡byrg":1786,"anka":1787,"Ġerum":1788,"vert":1789,"ĠlÃŃkam":1790,"greiÃ°":1791,"Ġvatn":1792,"ndi":1793,"efnu":1794,"ninga":1795,"ĠHr":1796,"Ġbetur":1797,"ÃºnÃŃ":1798,"Ġstyrk":1799,"Ġfyrstu":1800,"Ġalveg":1801,"Ġdaga":1802,"llu":1803,"eil":1804,"ĠtÃ¶lv":1805,"Ġhugs":1806,"ĠÃŃÃ¾rÃ³":1807,"syn":1808,"Ġval":1809,"ĠeÃ°":1810,"Ġhverju":1811,"Ġnet":1812,"ĠfÃ©lagsins":1813,"ĠmilljÃ³":1814,"mÃ¶r":1815,"stÃ¦Ã°i":1816,"Ã©lÃ¶g":1817,"Ġalls":1818,"sÃ³kn":1819,"ĠhÃ¦tti":1820,"Ġfag":1821,"akk":1822,"Ġap":1823,"ic":1824,"eitir":1825,"ĠLands":1826,"Ġhaft":1827,"Ġopinber":1828,"ĠsÃŃÃ°a":1829,"Ġsann":1830,"Ãºru":1831,"ĠAlÃ¾ing":1832,"ĠÃ¾eirri":1833,"Ġdeild":1834,"Ġefna":1835,"Ġsvona":1836,"Ġsept":1837,"unin":1838,"Ġ22":1839,"Ġstanda":1840,"ling":1841,"Ġfast":1842,"ĠveiÃ°":1843,"ĠbÃ¡":1844,"ĠNorÃ°ur":1845,"ĠljÃ³s":1846,"ĠÃ¾Ã³tt":1847,"smenn":1848,"ĠÃ¡herslu":1849,"ĠjÃºnÃŃ":1850,"Ġalmenn":1851,"Ġnor":1852,"hlu":1853,"ĠstÃ¶rf":1854,"skil":1855,"ĠjanÃºar":1856,"framt":1857,"eta":1858,"ĠbÃ¦jar":1859,"ningum":1860,"ĠÃįslend":1861,"Ġvill":1862,"rÃŃl":1863,"fum":1864,"Ġvilja":1865,"ĠlÃ¦k":1866,"listar":1867,"mun":1868,"ĠUpp":1869,"Ġvan":1870,"ji":1871,"ad":1872,"ĠkjÃ¶r":1873,"Ġflu":1874,"ĠfengiÃ°":1875,"fall":1876,"ĠBandarÃŃk":1877,"Ġvand":1878,"Ġumhverfis":1879,"ĠhvaÃ°a":1880,"mar":1881,"ĠhÃ¶fuÃ°":1882,"Ġleit":1883,"ĠmikilvÃ¦g":1884,"eÃ°ur":1885,"amanna":1886,"Ġmars":1887,"Ġathug":1888,"ĠÃ¦t":1889,"taka":1890,"ĠÃ¡rang":1891,"ĠsÃ¦":1892,"200":1893,"jandi":1894,"Ġhla":1895,"bÃ³k":1896,"gÃ¡":1897,"Ġskipulag":1898,"aÃ°s":1899,"ulega":1900,"ferÃ°ar":1901,"yng":1902,"ofnunar":1903,"til":1904,"tun":1905,"jÃ¡n":1906,"ĠnÃ³v":1907,"oka":1908,"Ġgefa":1909,"ĠNÃ½":1910,"Ġklukk":1911,"Ġupphaf":1912,"Ġganga":1913,"naÃ°i":1914,"tÃŃÃ°ar":1915,"ĠÃ¾urfa":1916,"Ã¦mi":1917,"Ġreyn":1918,"jÃ¶ld":1919,"ĠÃ¡kvÃ¶rÃ°un":1920,"undir":1921,"ĠmeÃ°an":1922,"ĠnÃ¦stu":1923,"ĠSuÃ°ur":1924,"stjÃ³rnar":1925,"ÃŃÃ°u":1926,"ĠÃ¡huga":1927,"ĠbÃ³":1928,"hor":1929,"run":1930,"ĠrÃ¡":1931,"ĠjÃ³":1932,"legur":1933,"ÃºlÃŃ":1934,"Ġskor":1935,"ĠlÃ¡ta":1936,"Ã¾jÃ³nustu":1937,"ĠÃ¾Ãºs":1938,"ĠFyrir":1939,"ĠnÃ¦st":1940,"ĠÃ¾jÃ³":1941,"ĠÃ¡tti":1942,"Ã¶kum":1943,"ĠsÃ¶m":1944,"ĠiÃ°":1945,"Ġdes":1946,"riÃ°i":1947,"yÃ°":1948,"ÃŃsk":1949,"Ã¦tlun":1950,"Ġlandsins":1951,"rek":1952,"rÃºn":1953,"stofu":1954,"ĠÃŀessi":1955,"Ġsagt":1956,"slur":1957,"yk":1958,"leika":1959,"eym":1960,"Ġskuld":1961,"Ġseptember":1962,"kepp":1963,"ĠfÃ¶stu":1964,"Ġ198":1965,"vart":1966,"ĠÃ¶nnur":1967,"ĠSjÃ¡lf":1968,"ĠframleiÃ°":1969,"yg":1970,"Ã½ra":1971,"ĠyrÃ°i":1972,"Ġi":1973,"eytt":1974,"nas":1975,"Ġnemendur":1976,"ĠhjÃ¡l":1977,"Ġfjar":1978,"Ġsamband":1979,"Ġbet":1980,"Ġskyld":1981,"ĠnÃ¡mskeiÃ°":1982,"nings":1983,"ĠaprÃŃl":1984,"rÃ¡Ã°herra":1985,"ĠnÃ½tt":1986,"brÃºar":1987,"ĠjarÃ°":1988,"ĠPÃ¡l":1989,"ĠtillÃ¶g":1990,"ĠsÃŃÃ°asta":1991,"Ġ27":1992,"ĠunniÃ°":1993,"Ġallar":1994,"ĠnauÃ°syn":1995,"yt":1996,"Ġeinf":1997,"Ġfylgja":1998,"ens":1999,"tÃ¶ku":2000,"Ġreik":2001,"ĠnÃ¦sta":2002,"ĠJÃ³hann":2003,"ĠHÃ¡skÃ³la":2004,"Ġlands":2005,"sveit":2006,"nÃ¦Ã°i":2007,"ildi":2008,"ĠnÃ³vember":2009,"afa":2010,"ĠgÃ¦ti":2011,"uÃ°um":2012,"ĠhljÃ³":2013,"Ġminni":2014,"âĢ¦":2015,"ĠsÃ³l":2016,"ĠÃ¶llu":2017,"Ġ2015":2018,"einn":2019,"ala":2020,"eyti":2021,"Ġkomu":2022,"ĠÃįslen":2023,"ĠÃºti":2024,"sÃ³knar":2025,"ĠfebrÃºar":2026,"Ã¶gn":2027,"opp":2028,"ĠaÃ°ra":2029,"ĠÃ¡rinu":2030,"Ġ24":2031,"Ġjafnvel":2032,"raun":2033,"nÃ½":2034,"ĠviÃ°skipta":2035,"Ġbank":2036,"bil":2037,"Ã¶t":2038,"ĠÃ¡gÃºst":2039,"esta":2040,"ĠSamkvÃ¦mt":2041,"ĠLand":2042,"Ġgildi":2043,"alt":2044,"Ġlyf":2045,"ĠkrÃ³na":2046,"Ġgerir":2047,"kkur":2048,"legri":2049,"ĠborÃ°":2050,"ĠAn":2051,"ĠmarkmiÃ°":2052,"yll":2053,"ÃºÃ°":2054,"ĠnÃ½ju":2055,"sÃ¡":2056,"ĠneÃ°":2057,"ĠMynd":2058,"av":2059,"Ã¶nn":2060,"ningur":2061,"Ġgrund":2062,"Ġallra":2063,"Ġmiklu":2064,"Ġlaugar":2065,"Ġveitt":2066,"for":2067,"vinnu":2068,"Ġfinnst":2069,"Ġstarfsemi":2070,"ĠÃ¡rs":2071,"Ġker":2072,"Ã¶ku":2073,"veit":2074,"Ġbreytingar":2075,"ĠviÃ°komandi":2076,"irkju":2077,"Ã¶p":2078,"ĠSn":2079,"Ġeina":2080,"lan":2081,"ĠhvÃŃ":2082,"ĠAt":2083,"ĠviÃ°ur":2084,"deg":2085,"breyt":2086,"Ġtveim":2087,"eist":2088,"skoÃ°":2089,"ĠnÃ½ja":2090,"amm":2091,"ĠhliÃ°":2092,"ĠAkur":2093,"Ã¦ru":2094,"ĠformaÃ°ur":2095,"ĠhÃ¶fÃ°u":2096,"ĠnÃ½r":2097,"ĠkÃ¶nnun":2098,"ĠmÃ¡nuÃ°i":2099,"ĠÃ¦tt":2100,"smiÃ°":2101,"Ã¡la":2102,"laug":2103,"Ġ23":2104,"vÃŃsind":2105,"Ġvon":2106,"irnar":2107,"els":2108,"stÃ¶Ã°um":2109,"ĠprÃ³f":2110,"ĠMarg":2111,"Ġums":2112,"Ġnafn":2113,"ustur":2114,"repp":2115,"ĠfulltrÃº":2116,"isins":2117,"Ġmanna":2118,"eggja":2119,"Ġheimild":2120,"lun":2121,"anlega":2122,"ĠBjÃ¶rn":2123,"Ġdesember":2124,"par":2125,"bÃ³t":2126,"ĠBandarÃŃkj":2127,"ĠlÃ½s":2128,"Ġw":2129,"ĠsÃ¶mu":2130,"olt":2131,"ĠBorg":2132,"ĠnÃ¡ttÃºru":2133,"Ġur":2134,"anns":2135,"ĠnÃ¡l":2136,"Ġversl":2137,"Ġvak":2138,"jÃ³s":2139,"Ġskulu":2140,"ĠrÃ¦":2141,"Ġhin":2142,"ona":2143,"ingin":2144,"ĠÃŀann":2145,"hr":2146,"ĠtÃ¦kif":2147,"ĠdÃ½r":2148,"ĠsÃ¦k":2149,"jarÃ°a":2150,"illa":2151,"Ġofan":2152,"ĠhÃ³f":2153,"velli":2154,"ĠÃŃslensku":2155,"Ġkvik":2156,"Ã³st":2157,"ĠskÃ³":2158,"Ġbo":2159,"smynd":2160,"Ã³ta":2161,"land":2162,"anefnd":2163,"Ġ2008":2164,"ĠLau":2165,"Ġfrem":2166,"Ġmargir":2167,"Ã³lf":2168,"ĠÃ¾ig":2169,"Ġmunu":2170,"ĠfÃ³lks":2171,"Ġannarra":2172,"fingar":2173,"Ġel":2174,"Ġframhald":2175,"Ġskv":2176,"Ġleyti":2177,"reind":2178,"Ġlagt":2179,"ulltrÃº":2180,"Ġ100":2181,"vo":2182,"Ġ2013":2183,"ĠLes":2184,"Ġsak":2185,"Ġ2014":2186,"ĠsÃ¶lu":2187,"lis":2188,"ĠMar":2189,"fr":2190,"ĠsÃ½na":2191,"nin":2192,"Ġkar":2193,"trygg":2194,"ĠbÃŃl":2195,"Ġtilf":2196,"ĠÃ¶rygg":2197,"Ġhlutverk":2198,"Ġtveimur":2199,"sfÃ³lk":2200,"brÃ©f":2201,"od":2202,"bank":2203,"Ġ*":2204,"staÃ°a":2205,"ĠfÃ³lki":2206,"Ġfrekar":2207,"Ġ=":2208,"Ġsbr":2209,"staÃ°":2210,"flokk":2211,"ĠÃ¾Ã½":2212,"uleik":2213,"Ġkvenna":2214,"Ġheima":2215,"Ġveita":2216,"Ġmanns":2217,"ĠÃ¡byrgÃ°":2218,"Ġeink":2219,"nes":2220,"Ġhvert":2221,"ĠsvÃ¦Ã°i":2222,"flug":2223,"Ġsel":2224,"ĠKristjÃ¡n":2225,"Ġloft":2226,"ĠMik":2227,"Ãģ":2228,"Ġ50":2229,"ĠvirÃ°ist":2230,"10":2231,"tion":2232,"str":2233,"kvÃ¦Ã°i":2234,"ĠFyr":2235,"ÃŃÃ°a":2236,"ĠDan":2237,"ĠOr":2238,"ĠfyrirtÃ¦ki":2239,"ress":2240,"ĠMark":2241,"laun":2242,"ĠnokkuÃ°":2243,"ĠframkvÃ¦mdast":2244,"farandi":2245,"Ġheyr":2246,"Ġhvers":2247,"breytt":2248,"veld":2249,"Ġkonur":2250,"ĠjÃ¡":2251,"berg":2252,"ĠGuÃ°mund":2253,"skÃ³lans":2254,"ĠFjÃ¶l":2255,"ndur":2256,"ĠstaÃ°ar":2257,"laga":2258,"Ġvax":2259,"hÃ¦Ã°":2260,"ĠÃ³h":2261,"Ġleita":2262,"ĠhÃ¶fum":2263,"Ġleig":2264,"ĠLÃ¶g":2265,"Ġlaun":2266,"ĠrÃ¡Ã°st":2267,"ĠtvÃ¶":2268,"allar":2269,"ÃŃa":2270,"ĠÃ¾Ãºsund":2271,"Ġmikla":2272,"aÃ°urinn":2273,"Ġefnahag":2274,"Ġtelur":2275,"tali":2276,"ĠsamrÃ¦mi":2277,"ĠlÃ¡n":2278,"ley":2279,"ĠskoÃ°a":2280,"jÃ³t":2281,"Ġviss":2282,"Ġpr":2283,"ennan":2284,"ĠVal":2285,"Ġsex":2286,"bergi":2287,"Ã¶rnum":2288,"sett":2289,"ĠBer":2290,"ĠHal":2291,"ĠfrÃ¦Ã°":2292,"rau":2293,"stjÃ³r":2294,"Ġreglug":2295,"Ġbirt":2296,"amÃ³t":2297,"ĠStef":2298,"ĠhÃ¦kk":2299,"Ġ2011":2300,"ĠÃ¾jÃ¡lf":2301,"hÃ³p":2302,"Ã³tel":2303,"Ã¡k":2304,"Ġpers":2305,"slega":2306,"ĠstÃ¶Ã°":2307,"ĠHeim":2308,"ĠsjÃ³n":2309,"Ġtengd":2310,"ÃŃna":2311,"aupa":2312,"ĠtÃ¶lu":2313,"Ã³nu":2314,"ĠsÃŃÃ°ast":2315,"ĠVer":2316,"eigin":2317,"jÃ³ta":2318,"ĠmÃ¦l":2319,"Ġkjar":2320,"stÃ¦Ã°":2321,"Ġhvor":2322,"ĠjÃºlÃŃ":2323,"ĠÃŀvÃŃ":2324,"ĠsjÃ¡var":2325,"Ã¶tu":2326,"Ġstutt":2327,"ĠÃ¦tti":2328,"ĠmilljÃ³nir":2329,"ĠsjÃ³Ã°":2330,"ĠgreiÃ°a":2331,"tor":2332,"skÃ³":2333,"ly":2334,"agnar":2335,"Ġhaust":2336,"Ġ2012":2337,"ĠHar":2338,"ingast":2339,"ow":2340,"Ġstra":2341,"Ġlandinu":2342,"Ġtekin":2343,"afl":2344,"ĠerfiÃ°":2345,"eyp":2346,"Ġfyrra":2347,"Ġjafnframt":2348,"ĠrannsÃ³knar":2349,"enju":2350,"fell":2351,"Ġheims":2352,"Ġkraf":2353,"ec":2354,"Ġ2010":2355,"ĠgerÃ°i":2356,"Ġeftirlit":2357,"hf":2358,"sflokk":2359,"ilar":2360,"finu":2361,"Ġfyrri":2362,"Ġhrey":2363,"Ġstof":2364,"asem":2365,"ĠbÃºiÃ°":2366,"ĠÃ¡kvÃ¦Ã°i":2367,"jaf":2368,"ĠmÃ¡liÃ°":2369,"Ġvet":2370,"ĠHv":2371,"ĠÃŃslenska":2372,"Ġbrot":2373,"kvÃ¦Ã°":2374,"ĠstaÃ°fest":2375,"Ġnotkun":2376,"irnir":2377,"ĠlÃŃtiÃ°":2378,"ĠMorgun":2379,"Ġ28":2380,"ĠLesa":2381,"ĠferÃ°a":2382,"Ġstarfa":2383,"ass":2384,"Ġskap":2385,"ĠBar":2386,"ĠVestf":2387,"esk":2388,"ĠalÃ¾jÃ³Ã°":2389,"ĠCh":2390,"ĠaÃ°ila":2391,"nara":2392,"Ġ40":2393,"âĢ¦]":2394,"ĠsamgÃ¶ng":2395,"Ġ[âĢ¦]":2396,"ygli":2397,"ant":2398,"Ġhinn":2399,"grein":2400,"okki":2401,"ÃŃma":2402,"hn":2403,"lÃ¦g":2404,"ĠbÃºa":2405,"Ġallan":2406,"ĠbjÃ³Ã°a":2407,"aÃ°ila":2408,"Ã°arinnar":2409,"Ġsamt":2410,"ĠsÃ³tt":2411,"Ġmenningar":2412,"ĠSjÃ¡lfstÃ¦Ã°i":2413,"nda":2414,"ĠaÃ°ild":2415,"ĠGÃŃ":2416,"nuÃ°":2417,"Ġsamskip":2418,"orn":2419,"ĠSvo":2420,"Ġmismun":2421,"ĠÃ¡rsins":2422,"sviÃ°":2423,"ĠÃĨ":2424,"ĠStjÃ³rn":2425,"Ġvita":2426,"Ġkomast":2427,"eftir":2428,"eiÃ°i":2429,"firÃ°i":2430,"efniÃ°":2431,"mb":2432,"Ġtryggja":2433,"stÃ¶Ã°ur":2434,"natt":2435,"ĠtÃ¦kifÃ¦ri":2436,"Ġlangt":2437,"ĠReyk":2438,"pur":2439,"Ġstarfi":2440,"Ġehf":2441,"ĠÃ¾Ã¶rf":2442,"ĠHvaÃ°":2443,"ĠÃ¾ennan":2444,"ĠÃ¶ld":2445,"Ã³ra":2446,"ali":2447,"Ġsafn":2448,"jalla":2449,"safn":2450,"engi":2451,"ĠHalld":2452,"ÃŃr":2453,"Ġ2007":2454,"Ġatvinnul":2455,"Ġmyndir":2456,"alag":2457,"Ġ26":2458,"ĠBre":2459,"ĠmikilvÃ¦gt":2460,"ĠkrÃ³n":2461,"ĠheilbrigÃ°is":2462,"ĠtÃ³ku":2463,"Ġ197":2464,"Ġkvikmynd":2465,"Ġsinna":2466,"fitt":2467,"Ġfann":2468,"Ġbreytt":2469,"Ġdreg":2470,"ĠDa":2471,"ĠLeik":2472,"magn":2473,"vÃŃkur":2474,"ro":2475,"Ġde":2476,"ĠdÃ¦mis":2477,"ĠMiÃ°":2478,"agna":2479,"ĠVerk":2480,"ĠvÃ¦ru":2481,"Ġodd":2482,"bÃ¦jar":2483,"Ġmyndi":2484,"ĠhÃ¡lf":2485,"ĠBir":2486,"ĠbÃ¦ta":2487,"ĠgÃ³Ã°a":2488,"Ġtveggja":2489,"ungis":2490,"fjÃ¶l":2491,"sb":2492,"ĠBl":2493,"Ġhefst":2494,"vitaÃ°":2495,"Ġlagi":2496,"Ġmegin":2497,"eldi":2498,"Ġborgar":2499,"Ġfundi":2500,"Ġ2009":2501,"gjÃ¶r":2502,"ĠhÃºsnÃ¦Ã°i":2503,"Ġgest":2504,"Ã©tta":2505,"vang":2506,"sliÃ°":2507,"Ġteg":2508,"ĠfjÃ¡rmÃ¡l":2509,"ĠlÃ¶gÃ°":2510,"Ġafh":2511,"ningin":2512,"eiti":2513,"ĠsviÃ°i":2514,"asemd":2515,"Ġkynna":2516,"ĠtÃŃÃ°":2517,"ĠÃ¦tla":2518,"ĠNÃ¡":2519,"ĠÃ¡kveÃ°iÃ°":2520,"Ġskatt":2521,"Ġhversu":2522,"ĠÃ¡ratug":2523,"ĠEl":2524,"sdÃ³ttur":2525,"naÃ°ur":2526,"ĠaÃ°rir":2527,"ĠFrÃ¡":2528,"Ġstyr":2529,"ĠÃŀjÃ³Ã°":2530,"ĠfrÃ¡bÃ¦r":2531,"indum":2532,"ĠDag":2533,"slit":2534,"Ġsvip":2535,"sum":2536,"Ġsameigin":2537,"ĠmeÃ°ferÃ°":2538,"ĠÃ¾rÃ³un":2539,"ÃŃnu":2540,"ĠblaÃ°":2541,"50":2542,"Ġhverjum":2543,"skar":2544,"ĠÃ¾essara":2545,"eif":2546,"Ġhagsm":2547,"ĠMorgunblaÃ°":2548,"Ġnokkrum":2549,"ĠEins":2550,"Ã¦p":2551,"Ġbera":2552,"Ġhring":2553,"Ġkonar":2554,"uneyt":2555,"sli":2556,"ĠgengiÃ°":2557,"ĠrÃŃkisins":2558,"Ã¦l":2559,"Ġdraga":2560,"vÃŃsindast":2561,"Ġkannski":2562,"ĠBen":2563,"Ġsenda":2564,"irkj":2565,"Ġney":2566,"ĠLi":2567,"ĠvarÃ°andi":2568,"ĠÃ¡f":2569,"ĠkveÃ°":2570,"Ġmikill":2571,"ĠmarkaÃ°":2572,"Ġathygli":2573,"ĠmÃŃnÃº":2574,"Ã¦Ã°iÃ°":2575,"Ġkennslu":2576,"Ġdags":2577,"ĠnÃºna":2578,"argerÃ°":2579,"ĠVar":2580,"eistar":2581,"ĠÃŀau":2582,"ĠauglÃ½s":2583,"fylk":2584,"Ġundanfar":2585,"Ġvins":2586,"laust":2587,"ĠkjÃ¶l":2588,"ĠfjÃ¶lmiÃ°":2589,"Ġhelstu":2590,"Ġtr":2591,"uleika":2592,"Ġfasteig":2593,"Ġflutt":2594,"keppni":2595,"ĠÃºtgÃ¡":2596,"Ġerfitt":2597,"ĠsamÃ¾ykkt":2598,"ĠundirbÃº":2599,"ssyni":2600,"dÃŃs":2601,"gjÃ¶f":2602,"ĠljÃ³st":2603,"ĠAnd":2604,"ogg":2605,"ĠStarf":2606,"ĠÃŀannig":2607,"ĠSel":2608,"Ġin":2609,"ĠlÃ¡g":2610,"Ġform":2611,"samband":2612,"ĠsjÃ¶":2613,"arsv":2614,"ĠstjÃ³rnmÃ¡l":2615,"hÃ¶f":2616,"ĠÃŃÃ¾rÃ³tt":2617,"ĠtvÃ¦r":2618,"tÃŃma":2619,"Ġlengi":2620,"Ġsy":2621,"ĠEinar":2622,"ce":2623,"ĠÃ¾iÃ°":2624,"uneyti":2625,"mÃ¦li":2626,"Ġengin":2627,"ĠFr":2628,"jÃ³Ã°s":2629,"ĠThe":2630,"Ġeldri":2631,"jÃ³ri":2632,"ĠAÃ°al":2633,"Ġfremst":2634,"Ġhuga":2635,"Ġreglu":2636,"Ġgefur":2637,"Ġvegum":2638,"Ġ29":2639,"ĠgrÃ³":2640,"Ġbeint":2641,"afar":2642,"ĠSjÃ¡lfstÃ¦Ã°isflokk":2643,"Ġfyrrverandi":2644,"sÃ¶gn":2645,"akka":2646,"ĠÃįsafjarÃ°ar":2647,"viku":2648,"Ġreynslu":2649,"Ã¡ld":2650,"kjÃ¶r":2651,"ĠPÃ©":2652,"bein":2653,"ÃĲ":2654,"Ã³s":2655,"ĠÃŃslenskra":2656,"ĠaÃ°gang":2657,"jun":2658,"ĠÃļt":2659,"Ġfundar":2660,"Ġsit":2661,"linga":2662,"eftirlit":2663,"fing":2664,"ĠdÃ¦mi":2665,"Ġkomin":2666,"Ã¦ra":2667,"Ġpl":2668,"liti":2669,"ew":2670,"Ġeinungis":2671,"Ġdrei":2672,"ĠaÃ°gerÃ°":2673,"afna":2674,"Ġhund":2675,"Ã¦tis":2676,"endi":2677,"ĠnÃ¡ms":2678,"jÃ¶f":2679,"ĠkjÃ¶lfar":2680,"ĠHalldÃ³r":2681,"jÃ³nust":2682,"app":2683,"ĠeÃ°l":2684,"Ġafar":2685,"fundi":2686,"stig":2687,"ĠhÃ¦Ã°":2688,"ĠAkureyri":2689,"Ġhjar":2690,"ĠNÃ¦":2691,"ĠÃ³lÃŃk":2692,"brÃ¶g":2693,"mer":2694,"ĠMagnÃºs":2695,"Ã³pa":2696,"ĠVeg":2697,"Ġsunnu":2698,"ĠsnÃº":2699,"kl":2700,"Ġkaupa":2701,"ĠÃ½m":2702,"ugg":2703,"ĠfjÃ¶lda":2704,"hluta":2705,"Ġreyna":2706,"Ġsterk":2707,"Ġeftirfarandi":2708,"ĠgreiÃ°slu":2709,"ÃŃÃ°an":2710,"ĠsÃ¦kja":2711,"ĠaÃ°ferÃ°":2712,"Ġenginn":2713,"rik":2714,"Ġliggur":2715,"Ġmar":2716,"ĠHafnar":2717,"ub":2718,"ĠEg":2719,"greiÃ°slu":2720,"ĠÃ¡v":2721,"ĠmÃ¶rgum":2722,"Ã¡s":2723,"alega":2724,"Ġykkur":2725,"komulag":2726,"Ġmuni":2727,"Ġtala":2728,"ob":2729,"ason":2730,"fti":2731,"Ġeinfald":2732,"Ġtilefni":2733,"ĠvÃ¦nt":2734,"setningu":2735,"ĠvÃŃÃ°a":2736,"upp":2737,"flutning":2738,"ĠsÃ¶ng":2739,"Ġminna":2740,"Ġstundum":2741,"Ġdaginn":2742,"Ġkra":2743,"ĠstarfsfÃ³lk":2744,"ĠpersÃ³nu":2745,"Ġskila":2746,"Ġtelja":2747,"aÃ°ist":2748,"Ġfylgi":2749,"bÃºÃ°":2750,"ĠAustur":2751,"aliÃ°":2752,"Ġheimilt":2753,"Ġfang":2754,"Ġfrumvarp":2755,"Ġskuli":2756,"ĠÃ¾ri":2757,"ĠstÃ³Ã°":2758,"ĠPÃ©tur":2759,"ĠsÃŃma":2760,"ĠÃ¾or":2761,"skipulag":2762,"ĠBÃ¦":2763,"Ã¶x":2764,"SB":2765,"ungar":2766,"ĠHÃºs":2767,"ĠJÃ³nsson":2768,"ĠÃ¡rangur":2769,"Ġpen":2770,"ĠhiÃ°":2771,"ia":2772,"ĠrÃ¡Ã°herra":2773,"Ġhelg":2774,"Ġklukkan":2775,"aflokk":2776,"ĠjÃ³la":2777,"smanna":2778,"Ã¶ldum":2779,"stÃ¶Ã°var":2780,"tÃ¶l":2781,"ĠsjÃºkra":2782,"ĠGar":2783,"ĠSigurÃ°ur":2784,"Ãºsson":2785,"ĠtÃ³nlistar":2786,"Ġska":2787,"Ġhn":2788,"ĠhefÃ°u":2789,"dÃ¦mi":2790,"ĠÃ¡nÃ¦g":2791,"Ġri":2792,"komu":2793,"ggja":2794,"frÃ¦Ã°ingur":2795,"amaÃ°ur":2796,"pi":2797,"ĠfjallaÃ°":2798,"ĠneÃ°an":2799,"kkar":2800,"ettvang":2801,"ĠÃŀÃº":2802,"ĠnÃ¡Ã°":2803,"ĠIngi":2804,"11":2805,"ĠfÃ©lags":2806,"ĠRÃŃk":2807,"ĠKr":2808,"Ġstarfs":2809,"ĠgefiÃ°":2810,"Ġbekk":2811,"ĠNorÃ°":2812,"Ġbetri":2813,"ĠaÃ°stÃ¦Ã°ur":2814,"ĠlÃŃfi":2815,"ĠdagskrÃ¡":2816,"spyr":2817,"nan":2818,"ĠtaliÃ°":2819,"degis":2820,"sen":2821,"ĠhljÃ³Ã°":2822,"ĠboÃ°iÃ°":2823,"Ġ60":2824,"uleg":2825,"Ġathugasemd":2826,"cel":2827,"amann":2828,"nist":2829,"Ġlesa":2830,"Ġmismunandi":2831,"ĠfrÃŃ":2832,"ĠÂĦ":2833,"arfÃ©lÃ¶g":2834,"Ġfimmtu":2835,"ĠRÃ¡Ã°":2836,"nÃ¡m":2837,"ings":2838,"tals":2839,"ĠmÃ¶rg":2840,"ĠStefÃ¡n":2841,"Ġkall":2842,"ĠhÃ¦g":2843,"ĠÃ¡tta":2844,"ĠFjÃ¡r":2845,"ĠaÃ°rar":2846,"ĠMo":2847,"Ġvetur":2848,"ĠfÃ³ru":2849,"ep":2850,"ĠÃįsafirÃ°i":2851,"aus":2852,"ĠhÃ¶fuÃ°borg":2853,"Ġ31":2854,"ĠHer":2855,"Ġloka":2856,"spur":2857,"ĠlÃ½":2858,"ĠupplÃ½singum":2859,"ilt":2860,"ddi":2861,"arar":2862,"slan":2863,"ĠhlÃ½":2864,"Ġgaman":2865,"ĠÃ¾rÃŃ":2866,"Ġalmennt":2867,"ĠvarÃ°ar":2868,"rÃ³f":2869,"ĠhefÃ°":2870,"bÃ½":2871,"ĠIng":2872,"ĠkÃ¦randa":2873,"Ġthe":2874,"ingarinnar":2875,"jÃ¶rÃ°um":2876,"ĠsÃŃÃ°":2877,"aleik":2878,"ĠSkip":2879,"ĠleiÃ°ir":2880,"Ġtung":2881,"ĠÃºrskur":2882,"Ġlista":2883,"Ġupphafi":2884,"ĠsjÃ³nvarp":2885,"ĠInn":2886,"Ġeinum":2887,"Ġstarfsmenn":2888,"Ġveik":2889,"rÃŃkis":2890,"Ġlif":2891,"ĠÃ¡k":2892,"Ġalvar":2893,"ĠmiÃ°aÃ°":2894,"ĠfjÃ¡rhag":2895,"Ġkomi":2896,"ĠlÃ¶greglu":2897,"reik":2898,"bandi":2899,"Ġbesta":2900,"eÃ°la":2901,"sker":2902,"Ġham":2903,"vak":2904,"ingi":2905,"ĠlÃŃfeyr":2906,"ĠLo":2907,"Ġ196":2908,"ĠsjÃºkdÃ³m":2909,"Ġtiltek":2910,"ĠAuk":2911,"Ġx":2912,"aldur":2913,"ĠsiÃ°":2914,"ĠrÃ¶k":2915,"slag":2916,"Ġ2006":2917,"Ã¶mm":2918,"Ġstrax":2919,"niÃ°":2920,"ĠfyrirtÃ¦kja":2921,"ĠframtÃŃÃ°":2922,"undum":2923,"Ġhaldinn":2924,"fjÃ¡r":2925,"skum":2926,"Ã°ust":2927,"Ã¡ttu":2928,"Ġspil":2929,"ĠtÃŃmabil":2930,"Ġhinum":2931,"aris":2932,"15":2933,"ĠrÃ¦k":2934,"ard":2935,"arinn":2936,"ĠviÃ°urken":2937,"skÃ½r":2938,"ĠKaup":2939,"ĠstÃ¦rÃ°":2940,"ĠÃ¾arna":2941,"kerfi":2942,"ĠFÃ©lags":2943,"ĠsÃ©Ã°":2944,"ĠAlÃ¾ingi":2945,"Ġkosningar":2946,"gÃ¦":2947,"Ġeinstaklinga":2948,"Ġuppbygg":2949,"stein":2950,"ĠfjÃ¡rfest":2951,"Ġgekk":2952,"tin":2953,"ĠreglugerÃ°":2954,"jÃ³st":2955,"Ġuppli":2956,"ĠbÃ½":2957,"ng":2958,"ĠVil":2959,"ĠnÃ¡lg":2960,"Ġsveitar":2961,"ĠrannsÃ³kn":2962,"ĠmÃ¦tti":2963,"ĠsÃŃnar":2964,"Ġkringum":2965,"Ġtvo":2966,"laÃ°":2967,"Ġkarl":2968,"Ġreglur":2969,"Ġbanka":2970,"ÃŃra":2971,"ĠÃ¾riÃ°ja":2972,"hÃºsinu":2973,"raust":2974,"borÃ°":2975,"Ġheilsu":2976,"ykki":2977,"Ġvest":2978,"Ġvetrar":2979,"Ġemb":2980,"Ã¶gnum":2981,"ĠlokiÃ°":2982,"Ġskemmtileg":2983,"Ġskipti":2984,"vist":2985,"fingu":2986,"Ġbyggja":2987,"ĠHug":2988,"ĠuppÃ¡":2989,"ĠtÃ³nlist":2990,"ĠgagnrÃ½":2991,"Ġbjar":2992,"Ġyng":2993,"ĠâĢ¢":2994,"leitt":2995,"ĠÃŀing":2996,"jÃ¶gur":2997,"Ġhre":2998,"ĠsamgÃ¶ngumÃ¡l":2999,"ĠfÃ³t":3000,"ĠnÃ©":3001,"Ġton":3002,"ĠumrÃ¦Ã°u":3003,"ĠHÃ¦gt":3004,"Ġsvarenda":3005,"ĠÃ¾rÃ¡tt":3006,"Ã©lt":3007,"ĠnÃ½ta":3008,"ĠhÃ¦ttu":3009,"Ġflyt":3010,"ĠfÃ¶studaginn":3011,"ĠhÃ¶nd":3012,"Ġnefna":3013,"tingu":3014,"Ġtex":3015,"skap":3016,"ĠsÃ¡l":3017,"Ġforeldra":3018,"braut":3019,"ĠauÃ°vitaÃ°":3020,"ĠGuÃ°mundur":3021,"ĠÃ¾Ã¡tttak":3022,"strar":3023,"ĠmÃ¦ta":3024,"ĠlÃ¦g":3025,"Ġnemenda":3026,"skÃ¶p":3027,"ndu":3028,"ĠaÃ°stoÃ°":3029,"Ġlengur":3030,"pÃŃ":3031,"ĠstaÃ°iÃ°":3032,"elsi":3033,"ĠESB":3034,"sÃ¦":3035,"kaup":3036,"ĠÃ¾riÃ°ju":3037,"kar":3038,"Ġskr":3039,"Ġstarfsmanna":3040,"ĠBjÃ¶rg":3041,"Ġsamh":3042,"Ġbreyta":3043,"Ã³Ã°ir":3044,"ĠhjÃ³":3045,"Ã¦s":3046,"raÃ°":3047,"dagur":3048,"ĠfriÃ°":3049,"Ã¦Ã°u":3050,"anleg":3051,"atriÃ°i":3052,"ager":3053,"Ġvenju":3054,"12":3055,"Ġheimas":3056,"ĠboÃ°i":3057,"ssam":3058,"....":3059,"ĠVestur":3060,"ys":3061,"Ã¦ttir":3062,"Ġbil":3063,"Ġhf":3064,"kon":3065,"ĠÃ³v":3066,"Ġsamstarfi":3067,"Ġkalla":3068,"fundur":3069,"bÃŃ":3070,"ĠÃ¾riggja":3071,"Ġsal":3072,"veiÃ°":3073,"gangur":3074,"ĠÃ½msum":3075,"ekt":3076,"brot":3077,"ĠSum":3078,"engd":3079,"ĠgÃ¶m":3080,"Ġhaldin":3081,"raum":3082,"arÃ¡Ã°herra":3083,"skatt":3084,"hel":3085,"ĠSigurÃ°":3086,"ddur":3087,"ĠnÃ³tt":3088,"Ġ33":3089,"Ġeinkum":3090,"ĠMagnÃºsson":3091,"gef":3092,"ĠframtÃŃÃ°ar":3093,"ĠhÃ©":3094,"ĠMenn":3095,"ork":3096,"ĠgrÃ¦n":3097,"Ã¾jÃ¡lf":3098,"Ġgagnvart":3099,"vÃŃÃ°":3100,"ace":3101,"Ãļ":3102,"Ġkarla":3103,"ĠlÃ½Ã°":3104,"hÃ¡tÃŃÃ°":3105,"afni":3106,"oÃ°ar":3107,"Ã¶gu":3108,"AR":3109,"ck":3110,"ĠÃŀÃ³":3111,"ĠaÃ°geng":3112,"esi":3113,"ĠÃŃslenskum":3114,"rÃ¦kt":3115,"ĠbiÃ°":3116,"ĠDr":3117,"ĠnÃ¦g":3118,"Ġflutning":3119,"ĠÃ³Ã¾":3120,"ĠsÃŃÃ°ur":3121,"Ġstefnu":3122,"endingar":3123,"ningunni":3124,"ĠbrÃ©f":3125,"ĠblÃ³Ã°":3126,"luÃ°":3127,"Ġbyggingar":3128,"Ġtveir":3129,"vegi":3130,"ĠsveitarfÃ©laga":3131,"ĠhÃ©lt":3132,"Ġuppi":3133,"nattspyr":3134,"olf":3135,"ĠÃ¾remur":3136,"Ġfyrirl":3137,"ĠbÃºn":3138,"Ã°urinn":3139,"ĠAlÃ¾ingis":3140,"eina":3141,"ĠÃ¡Ã¦tl":3142,"Ġleyfi":3143,"uf":3144,"Ġkm":3145,"ĠLÃ¡":3146,"Ġleggur":3147,"Ã¾Ã¡":3148,"ĠfrjÃ¡l":3149,"ĠBol":3150,"ĠSÃº":3151,"ĠMÃ¡l":3152,"Ġtengslum":3153,"Ġgreina":3154,"Ġkynn":3155,"ĠMÃ©r":3156,"id":3157,"jÃ³nusta":3158,"ĠHÃ¦":3159,"ĠFriÃ°":3160,"Ã¶kul":3161,"Ġsigur":3162,"Ġmati":3163,"jÃ³Ã°i":3164,"daga":3165,"ĠX":3166,"lÃ½singar":3167,"ĠheiÃ°":3168,"ĠtÃ¦kni":3169,"ĠnotaÃ°":3170,"ĠMarkmiÃ°":3171,"mat":3172,"Ġgengur":3173,"Ġaldur":3174,"ĠSjÃ¡":3175,"lÃ¦k":3176,"ĠÃĸr":3177,"kost":3178,"ĠhÃ¦f":3179,"ĠSÃ³l":3180,"ĠurÃ°u":3181,"ĠHÃ³l":3182,"Ġilla":3183,"ifreiÃ°":3184,"ĠjÃ³l":3185,"Ġannan":3186,"ĠviÃ°bÃ³t":3187,"gjald":3188,"endir":3189,"ĠHl":3190,"ustu":3191,"brÃ¶gÃ°":3192,"ĠkrÃ³nur":3193,"old":3194,"ĠJafn":3195,"atni":3196,"Ġkosti":3197,"le":3198,"ĠVerÃ°":3199,"Ġkominn":3200,"ĠsÃ½nir":3201,"Ġskipta":3202,"Ġfannst":3203,"ĠPÃŃra":3204,"ĠbÃ¶rnum":3205,"Ġmargt":3206,"th":3207,"hÃºsiÃ°":3208,"verkefni":3209,"hÃºsi":3210,"ĠveÃ°":3211,"kvÃ¶ld":3212,"ĠskilyrÃ°i":3213,"dÃ½r":3214,"Ġaugl":3215,"ĠtvÃŃ":3216,"ĠÂĹ":3217,"ĠfjÃ¶gur":3218,"ĠrannsÃ³knir":3219,"agt":3220,"efnt":3221,"ĠJo":3222,"skrift":3223,"Ġ,,":3224,"ĠAllir":3225,"Ã¶nnu":3226,"ĠskÃ³lans":3227,"smaÃ°ur":3228,"ĠmiÃ°viku":3229,"Ã¦kur":3230,"dr":3231,"Ġvann":3232,"Ġliggja":3233,"ĠnorÃ°ur":3234,"staka":3235,"Ã°is":3236,"ĠbÃºin":3237,"afrÃ¦Ã°i":3238,"ĠauÃ°veld":3239,"ĠumferÃ°":3240,"bbam":3241,"Ġhvar":3242,"ĠgerÃ°ar":3243,"vÃ¶l":3244,"Ġheimili":3245,"svÃ¦Ã°i":3246,"ts":3247,"ils":3248,"Ġspenn":3249,"ĠMat":3250,"ting":3251,"ĠstjÃ³rnvÃ¶ld":3252,"manns":3253,"Ġheit":3254,"ĠnjÃ³ta":3255,"ĠÃ¾urfi":3256,"urÃ°":3257,"Ġorku":3258,"enni":3259,"rÃ¦Ã°um":3260,"gild":3261,"Ġ2005":3262,"valda":3263,"Ġflokksins":3264,"ĠslÃŃkt":3265,"ĠlÃŃklega":3266,"mur":3267,"Ġatvinnu":3268,"slegt":3269,"ĠRi":3270,"ĠskÃ½rslu":3271,"Ġsvok":3272,"Ġgaf":3273,"book":3274,"vil":3275,"vestur":3276,"alli":3277,"Ã¡Ã¦tlun":3278,"Ġlaus":3279,"ĠSvÃŃ":3280,"ĠumfjÃ¶l":3281,"edik":3282,"degi":3283,"ĠskrÃ¡Ã°":3284,"banka":3285,"liÃ°a":3286,"Ġumhverfi":3287,"ilegar":3288,"ĠfjÃ¶lbreytt":3289,"mÃ¶nnum":3290,"lÃŃf":3291,"tra":3292,"bjÃ¶rg":3293,"SÃį":3294,"gjandi":3295,"herbergi":3296,"Ġ2003":3297,"ĠveÃ°ur":3298,"angaÃ°":3299,"ĠrÃŃkisstjÃ³rn":3300,"ĠljÃ³si":3301,"ndir":3302,"ĠstÃºl":3303,"unarinnar":3304,"vatn":3305,"ĠlÃ©tt":3306,"ĠÃĵlafur":3307,"ĠBorgar":3308,"ĠvÃŃsind":3309,"ĠÃ¡l":3310,"enti":3311,"afor":3312,"Ġhrein":3313,"ĠVÃŃs":3314,"Ġhita":3315,"ĠstuÃ°ning":3316,"Ġkref":3317,"iti":3318,"ĠÃŃÃ¾rÃ³tta":3319,"Ġbre":3320,"Ġmynda":3321,"aug":3322,"Ġstofnun":3323,"ĠendurskoÃ°":3324,"bar":3325,"Ġ70":3326,"afÃ³lk":3327,"ĠframkvÃ¦mdastjÃ³ri":3328,"ĠsÃŃÃ°astliÃ°":3329,"Ġmegi":3330,"snefnd":3331,"Ġvettvang":3332,"ĠvÃ©l":3333,"Ġsamvinnu":3334,"Ġtilfinn":3335,"ĠÃģriÃ°":3336,"steinn":3337,"ĠBandarÃŃkjunum":3338,"Ġfari":3339,"fÃ¦ri":3340,"ĠhÃ¡tÃŃÃ°":3341,"ĠnÃ¡nar":3342,"ĠhÃ¦tta":3343,"ĠEng":3344,"Ġ'":3345,"ĠSÃ©r":3346,"Ġeignar":3347,"ĠTrygg":3348,"Ã¾Ã¡tt":3349,"Ġsty":3350,"ĠÃ¾yr":3351,"Ġ2004":3352,"ĠgÃ³Ã°u":3353,"ĠsvÃ¦Ã°inu":3354,"lÃ¶gum":3355,"yrirtÃ¦ki":3356,"elli":3357,"Ġfengu":3358,"ĠpÃ³":3359,"acebook":3360,"ĠviÃ°bur":3361,"ĠJarÃ°":3362,"ĠBenedik":3363,"Ġmiss":3364,"Ã¾eg":3365,"jaÃ°":3366,"ĠgÃ¶gn":3367,"ĠsÃ©rst":3368,"ĠDavÃŃÃ°":3369,"ĠKjar":3370,"ĠRannsÃ³k":3371,"vegar":3372,"ĠÃ¾ung":3373,"Ġbirtist":3374,"ninni":3375,"Ġskamm":3376,"ter":3377,"asta":3378,"Ġ2018":3379,"ĠEyjÃ³l":3380,"fÃ¶r":3381,"Ġ194":3382,"Ġgrundvelli":3383,"gangi":3384,"ĠÃŀÃ¦r":3385,"ĠlandiÃ°":3386,"ĠsÃ½nt":3387,"sÃ½slu":3388,"era":3389,"ĠfrÃ¦Ã°slu":3390,"Ġgetum":3391,"Ġvek":3392,"man":3393,"ĠAllt":3394,"ĠÃ¦tlaÃ°":3395,"Ġ2000":3396,"ĠGuÃ°mundsson":3397,"ĠÃ¾rjÃº":3398,"Ġlyk":3399,"Ġerlendis":3400,"ĠreiÃ°":3401,"yfir":3402,"Ġalgeng":3403,"agerÃ°":3404,"ĠBjarna":3405,"kenn":3406,"Ġhlaup":3407,"ĠsjÃ¡lfur":3408,"ĠvinsÃ¦":3409,"hv":3410,"Ġto":3411,"ĠhÃ¦r":3412,"Ġfylgir":3413,"ildur":3414,"ĠfÃ¦Ã°":3415,"bjÃ¶rn":3416,"ĠArnar":3417,"gt":3418,"arlega":3419,"ĠlÃ¦r":3420,"ĠHall":3421,"ĠOp":3422,"ĠbaÃ°":3423,"las":3424,"Ġhelgina":3425,"ĠSÃ½":3426,"Ã¶ngum":3427,"mÃ¦l":3428,"ĠsÃ¶gn":3429,"bands":3430,"Ġvikur":3431,"Ġ195":3432,"Ġspyr":3433,"ĠtÃ¦p":3434,"ĠliÃ°iÃ°":3435,"ĠFinn":3436,"greind":3437,"ĠNiÃ°ur":3438,"ĠhÃ¶fuÃ°borgarsv":3439,"ĠKon":3440,"ĠstÃ¶rfum":3441,"ĠHau":3442,"Ġefla":3443,"ES":3444,"ĠdÃ¶gum":3445,"Ġmargar":3446,"ilum":3447,"merk":3448,"ĠvÃ¶ru":3449,"vÃ©l":3450,"ĠÃ³trÃº":3451,"ĠnorÃ°":3452,"agÃ°":3453,"Ġspr":3454,"ĠbÃ¦tt":3455,"amiÃ°":3456,"ĠkrÃ¶fur":3457,"skÃ³lanum":3458,"kenni":3459,"Ġhitt":3460,"ĠIcel":3461,"ĠhÃ³tel":3462,"msveit":3463,"ĠfÃ¶r":3464,"ĠmÃ¦li":3465,"Ġkirkj":3466,"kkun":3467,"Ġflytja":3468,"ĠrÃ¡Ã°a":3469,"Ġlauk":3470,"ĠÃ¾yk":3471,"Ġhelst":3472,"stofa":3473,"Ġofb":3474,"ĠsjÃ¡varÃºt":3475,"ĠGl":3476,"ĠKÃ³pa":3477,"fylkingarinnar":3478,"ĠLaugar":3479,"hrepp":3480,"ĠnÃ¡gr":3481,"pum":3482,"unna":3483,"gÃ¶ngu":3484,"hÃºss":3485,"ĠÃ¶flug":3486,"eÃ°ferÃ°":3487,"ĠÃ¾Ã¡tttÃ¶ku":3488,"jÃ³nar":3489,"Ġ2002":3490,"Ġmestu":3491,"Ġheld":3492,"Ġleikur":3493,"Ġskot":3494,"ella":3495,"Ġfell":3496,"ĠfÃ©lagiÃ°":3497,"ĠBenedikt":3498,"Ġkort":3499,"bÃºnaÃ°ar":3500,"ĠÃ¾angaÃ°":3501,"skrÃ¡r":3502,"ĠsÃŃst":3503,"ĠvandamÃ¡l":3504,"ĠÃįslendingar":3505,"Ġgeym":3506,"Ã½ri":3507,"ĠrÃ³":3508,"ĠHeil":3509,"einu":3510,"orf":3511,"Ġsinnum":3512,"Ã©ttar":3513,"byggÃ°":3514,"ĠforsÃ¦tis":3515,"vernd":3516,"Ġfall":3517,"Ġvarnar":3518,"Ã¶gg":3519,"Ġert":3520,"hjÃ¡l":3521,"skipti":3522,"ĠÃļr":3523,"ĠsÃ³k":3524,"ĠniÃ°urstÃ¶Ã°ur":3525,"ĠgÃ¡":3526,"Ġeing":3527,"Ġveitir":3528,"Ġsund":3529,"ĠgeÃ°":3530,"menna":3531,"Ġhendi":3532,"Ġfrekari":3533,"ĠmÃ¡la":3534,"Ġeinka":3535,"ĠhÃ¦tt":3536,"ĠNem":3537,"ĠlagÃ°i":3538,"Ġknattspyr":3539,"Ġmennt":3540,"ĠhjÃºk":3541,"ĠmÃ¡linu":3542,"Ġar":3543,"orku":3544,"ĠKarl":3545,"Ġfremur":3546,"Ġgat":3547,"hÃ¶fn":3548,"ĠbÃ½Ã°ur":3549,"rÃ©tta":3550,"lunar":3551,"ĠÃºrslit":3552,"ĠÃįslendinga":3553,"Ġlaugardag":3554,"Ġhendur":3555,"Ġbyrjun":3556,"ĠÃŃbÃºÃ°":3557,"Ġheitir":3558,"ĠEig":3559,"Ġbestu":3560,"Ġvildi":3561,"eyfi":3562,"legan":3563,"ĠÃ¶rugg":3564,"ĠgrÃŃÃ°ar":3565,"anga":3566,"Ġre":3567,"ĠsnjÃ³":3568,"Ġsyn":3569,"esti":3570,"Ġfalla":3571,"agi":3572,"ĠSigurÃ°ar":3573,"ĠnÃ½jum":3574,"ingaÃ°":3575,"legra":3576,"ĠRagnar":3577,"ĠÃ¶ryggis":3578,"17":3579,"ĠhefÃ°bund":3580,"ĠsjÃ³nar":3581,"agreiÃ°":3582,"ĠtÃ¶lvup":3583,"lat":3584,"gir":3585,"Ġdug":3586,"ĠtÃŃ":3587,"ĠbÃ³ka":3588,"Ġforeldrar":3589,"Ġfylgjast":3590,"ĠgleÃ°":3591,"ĠgÃ³Ã°um":3592,"dÃ¦m":3593,"ata":3594,"jÃ³ra":3595,"ĠMorgunblaÃ°iÃ°":3596,"Ġvinnur":3597,"stund":3598,"ĠatriÃ°i":3599,"ĠÃ¡rin":3600,"ĠHÃ¡skÃ³lans":3601,"ĠhÃ³fst":3602,"ĠnÃ¡lgast":3603,"ĠÃ½mi":3604,"tinn":3605,"rÃ¦Ã°ur":3606,"Ġhelgi":3607,"Ġflestir":3608,"ĠnÃ¡ttÃºr":3609,"Ã¶nnunar":3610,"Ġvelja":3611,"ĠbÃ¶rnin":3612,"ĠsvÃ¶r":3613,"Ġskiptir":3614,"IN":3615,"jir":3616,"ĠSvein":3617,"ĠRo":3618,"ĠumsÃ³kn":3619,"ĠÂ»":3620,"Ġrekstrar":3621,"ĠHelga":3622,"ĠMikil":3623,"Ġbur":3624,"ĠframleiÃ°slu":3625,"ĠmÃ¡lsins":3626,"ĠleiÃ°a":3627,"mbl":3628,"Ġerindi":3629,"ĠlÃŃkt":3630,"ĠStr":3631,"ĠÃ¾ykir":3632,"ven":3633,"ĠstyÃ°":3634,"ĠPÃ¡ll":3635,"ĠEvrÃ³pusamband":3636,"ilegum":3637,"Ġskyn":3638,"Ġnokkrar":3639,"Ġmitt":3640,"ĠtÃŃu":3641,"ĠlÃŃtil":3642,"ldu":3643,"ĠHÃį":3644,"ĠkrÃ¶fu":3645,"ĠfÃ¡i":3646,"ĠvÃŃÃ°":3647,"stir":3648,"Ġreyndar":3649,"ĠviÃ°hald":3650,"ĠrÃŃki":3651,"Ġkonung":3652,"stÃ³l":3653,"Ġsenn":3654,"Ã¾Ã³r":3655,"vint":3656,"Ġbyrja":3657,"rÃ¦na":3658,"heyr":3659,"ĠÃģrna":3660,"Ġdagana":3661,"deildar":3662,"vallar":3663,"Ã¾jÃ³Ã°a":3664,"Ġaldri":3665,"ĠrÃ½":3666,"ĠSeÃ°la":3667,"gerÃ°ar":3668,"ĠÃ¾akk":3669,"eri":3670,"Ġkafla":3671,"ÃŃska":3672,"ĠupplÃ½singa":3673,"ĠÃ¾jÃ³Ã°ar":3674,"eigandi":3675,"Ġsendi":3676,"vÃ¶ru":3677,"ĠleikskÃ³la":3678,"rÃ¡s":3679,"ĠfjÃ¶lskyldu":3680,"borgar":3681,"ĠnauÃ°synlegt":3682,"ĠrÃºmlega":3683,"vikum":3684,"skor":3685,"Ġkanna":3686,"ĠHÃ¶f":3687,"rÃŃÃ°ur":3688,"ĠhÃ¡degis":3689,"hverfis":3690,"Ġmeta":3691,"lugg":3692,"aÃ°an":3693,"ĠljÃ³smynd":3694,"Ġ+":3695,"Ġjafnt":3696,"bÃ¦tur":3697,"ĠlÃ¡tiÃ°":3698,"ĠbÃºs":3699,"jÃ¶rÃ°":3700,"Ġdegi":3701,"Ġframan":3702,"ĠSÃŃÃ°an":3703,"ĠmÃŃnum":3704,"ĠmÃ¶guleika":3705,"mitt":3706,"ĠskoÃ°un":3707,"ĠljÃº":3708,"ĠupplÃ½sing":3709,"Ġhvet":3710,"ĠÃºthlut":3711,"jÃºp":3712,"ĠfÃ¦ra":3713,"Ġeinhvern":3714,"vÃŃsindastofnun":3715,"ĠhÃ¶ndum":3716,"Ã³ka":3717,"Ġfjalla":3718,"Ġstyrkja":3719,"Ġlokum":3720,"ĠKat":3721,"unefnd":3722,"amÃ¶nnum":3723,"Ġtald":3724,"Ġheildar":3725,"ĠsuÃ°ur":3726,"ĠTÃ³n":3727,"Ã¡mskeiÃ°":3728,"amÃ¡la":3729,"ĠeingÃ¶ngu":3730,"ÃŃg":3731,"ĠaÃ°stoÃ°ar":3732,"ĠÃ¡kvar":3733,"ay":3734,"amma":3735,"ĠHvernig":3736,"ĠmÃŃnÃºtur":3737,"Ġmiklum":3738,"bÃ³l":3739,"Ġminnsta":3740,"Ġsetur":3741,"kast":3742,"Ġgangi":3743,"Ġkaffi":3744,"ĠKl":3745,"uneytiÃ°":3746,"ĠBolungar":3747,"ĠII":3748,"afirÃ°i":3749,"urum":3750,"ĠrÃ¦tt":3751,"ĠhÃºÃ°":3752,"Ġref":3753,"ĠmÃ¡lum":3754,"du":3755,"ĠÃ¡fang":3756,"ĠhjÃ¡lp":3757,"Ġranns":3758,"Ġafla":3759,"ĠmÃ¡lefni":3760,"Ġrekstur":3761,"ĠtilboÃ°":3762,"ĠdÃ¡":3763,"amb":3764,"ĠafleiÃ°":3765,"ĠÃ¾ekkingu":3766,"ĠnÃ¡nast":3767,"afrÃ¦Ã°":3768,"skipta":3769,"Ã¡ra":3770,"lingar":3771,"ĠorÃ°in":3772,"vara":3773,"vÃ©":3774,"Ġverkefna":3775,"Ġ36":3776,"co":3777,"efla":3778,"ĠVin":3779,"ĠnÃºverandi":3780,"ĠÃºtboÃ°":3781,"05":3782,"ĠnÃ¡kvÃ¦m":3783,"rip":3784,"vÃ¦g":3785,"ĠrÃ¶Ã°":3786,"ĠsjÃ¡lfs":3787,"Ġlos":3788,"ĠgarÃ°":3789,"ĠfjÃ¡rmÃ¡la":3790,"Ġforseti":3791,"unk":3792,"net":3793,"Ġmagn":3794,"firÃ°":3795,"ĠZ":3796,"hol":3797,"ĠskÃ¡ld":3798,"ĠVestfjarÃ°a":3799,"ĠÃ¡hygg":3800,"Ġselja":3801,"Ġspila":3802,"Ġ35":3803,"Ġkeppni":3804,"ĠÃŀÃ½":3805,"janna":3806,"ne":3807,"Ġraunver":3808,"Ġvelkom":3809,"ĠtjÃ¡":3810,"Ġvist":3811,"Ġhugsa":3812,"ĠtÃ³nleik":3813,"ĠSÃ¦":3814,"ĠfullorÃ°":3815,"ĠÃ¡hersla":3816,"oft":3817,"slunni":3818,"Ġfug":3819,"mÃ¶rk":3820,"Ġvinnum":3821,"Ġfjallar":3822,"yf":3823,"ĠStein":3824,"Ġtap":3825,"Ġvernd":3826,"ĠlÃŃta":3827,"ve":3828,"ĠgrÃ¡":3829,"ĠolÃŃ":3830,"ĠÃ¡rangri":3831,"auÃ°a":3832,"verndar":3833,"ĠFund":3834,"Ġgreidd":3835,"ĠsÃ©rfrÃ¦Ã°":3836,"runar":3837,"Ġgerist":3838,"ĠsÃ¡tt":3839,"Ġak":3840,"yndi":3841,"ĠJes":3842,"arkaÃ°i":3843,"rakk":3844,"Ġbreytingum":3845,"olta":3846,"Ġnei":3847,"afÃ©":3848,"restur":3849,"gre":3850,"Ġhugmyndir":3851,"ĠBreiÃ°":3852,"ĠLit":3853,"40":3854,"Ġeg":3855,"Ġsko":3856,"eistara":3857,"mennt":3858,"ĠSjÃ¡lfstÃ¦Ã°isflokksins":3859,"ĠskÃ¡":3860,"ĠsÃ½ningar":3861,"ĠMeÃ°al":3862,"ĠatvinnulÃŃf":3863,"Ġsamein":3864,"Ġdre":3865,"ĠHorn":3866,"nefndar":3867,"Ġkennara":3868,"ĠhingaÃ°":3869,"rÃ¦k":3870,"ĠpÃ³lit":3871,"met":3872,"mÃ¡lum":3873,"skÃ³lann":3874,"rÃŃm":3875,"Ġbandar":3876,"ĠSte":3877,"ĠSigurÃ°sson":3878,"Ġ2001":3879,"Ġgamla":3880,"Ġsent":3881,"Ġgist":3882,"ĠGunn":3883,"ĠNew":3884,"ĠfyrirtÃ¦kisins":3885,"aut":3886,"Ãºd":3887,"sÃ½n":3888,"skal":3889,"ĠfjÃ¡rm":3890,"afi":3891,"kjÃ¶rdÃ¦mi":3892,"Ġreynd":3893,"ĠâĢĶ":3894,"Ġyngri":3895,"ĠFramsÃ³knar":3896,"Ġyfirleitt":3897,"lda":3898,"ÃŃka":3899,"ĠEyjÃ³lfur":3900,"ratt":3901,"ĠendurnÃ½":3902,"Ġvorum":3903,"Ġgilda":3904,"Ġ80":3905,"Ġuppf":3906,"Ġskrifa":3907,"ĠÃºtgÃ¡fu":3908,"lir":3909,"ĠlÃ¦ra":3910,"Ġflokki":3911,"ĠmÃ¡ls":3912,"ĠÃįslensku":3913,"arsam":3914,"setning":3915,"ĠÃ¦ttu":3916,"Ãºbb":3917,"ĠTh":3918,"ĠTv":3919,"Ġlaganna":3920,"Ġeinmitt":3921,"auka":3922,"ĠgrunnskÃ³la":3923,"ĠEnn":3924,"ĠleiÃ°bein":3925,"ĠgÃ³Ã°ur":3926,"Ãĵ":3927,"ĠfjarlÃ¦g":3928,"ĠÃŃs":3929,"ah":3930,"ĠumboÃ°":3931,"jÃ³Ã°ur":3932,"ĠÃ¾Ã©tt":3933,"Ġsvefn":3934,"nÃ¡":3935,"Ġmanni":3936,"Ġgreinar":3937,"lagi":3938,"ĠbyggÃ°":3939,"enÃ¦r":3940,"vinnslu":3941,"ww":3942,"Ġbenda":3943,"boÃ°i":3944,"ras":3945,"ĠrÃº":3946,"ine":3947,"ĠÃ¡ttu":3948,"Ã³Ã°ur":3949,"ĠEld":3950,"ĠrÃŃkiss":3951,"ĠverÃ°laun":3952,"ĠBjarni":3953,"naÃ°a":3954,"Ġheiminum":3955,"inguna":3956,"Ġframhalds":3957,"Ġkynnt":3958,"ĠguÃ°":3959,"Ġleika":3960,"Ġsambandi":3961,"Ġsek":3962,"ĠlandsliÃ°":3963,"ĠSnÃ¦":3964,"Ġteik":3965,"Ġmatar":3966,"ĠtÃ³m":3967,"jarnan":3968,"Ġskref":3969,"Ġhest":3970,"Ġheils":3971,"Ġengu":3972,"Ġtonn":3973,"ĠlÃŃfeyriss":3974,"ĠtÃŃmi":3975,"andinn":3976,"jÃºkdÃ³m":3977,"ĠheimasÃŃÃ°u":3978,"ĠKÃ¦r":3979,"ĠFacebook":3980,"Ġlaugardaginn":3981,"Ġfullkom":3982,"brÃ©":3983,"Ã³ti":3984,"Ã¶Ã°um":3985,"Ġbaka":3986,"ĠlÃ³Ã°":3987,"ĠÃ¾Ã½Ã°":3988,"ĠdÃ³tt":3989,"ĠEir":3990,"ĠsveitarfÃ©lÃ¶g":3991,"ĠÃįslandsm":3992,"mÃ³t":3993,"ĠnÃ½jar":3994,"Ġskapa":3995,"ĠkostnaÃ°":3996,"ĠHins":3997,"ĠmÃ³Ã°ur":3998,"ddu":3999,"Ġreglum":4000,"ĠlitiÃ°":4001,"ĠnÃ¡nari":4002,"Ġhlutfall":4003,"Ã¶lum":4004,"ĠmÃ¶rk":4005,"ĠÃ¾rjÃ¡":4006,"Ġfat":4007,"laup":4008,"ĠfÃ¦ri":4009,"viti":4010,"ĠpÃ³st":4011,"eign":4012,"ris":4013,"ĠbjÃ³":4014,"ĠsÃ³lar":4015,"ĠJÃ¡":4016,"Ġful":4017,"ml":4018,"ilegu":4019,"ĠjÃ¶rÃ°":4020,"skÃ³li":4021,"ĠÃ¶ryggi":4022,"estir":4023,"ĠKristÃŃn":4024,"manni":4025,"ĠbeÃ°":4026,"Ġknattspyrnu":4027,"ola":4028,"Ġgildir":4029,"ĠMÃ¡":4030,"Ġbreg":4031,"Ġforseta":4032,"ĠhÃ¡skÃ³la":4033,"ĠÃģg":4034,"ĠhÃ¡r":4035,"Ã³Ã°a":4036,"Ġvefs":4037,"ute":4038,"Ġbrott":4039,"ĠtillÃ¶gu":4040,"ĠÃĸll":4041,"skonar":4042,"Ġhlaut":4043,"ĠGeir":4044,"Ġ90":4045,"ĠSmÃ¡":4046,"ĠnÃ³g":4047,"ĠbeiÃ°":4048,"ĠtilbÃº":4049,"ĠbifreiÃ°":4050,"dÃ¶gum":4051,"ĠNÃ¦st":4052,"ĠGuÃ°jÃ³n":4053,"ĠÃ³s":4054,"Ġrekstri":4055,"ĠumsÃ¦k":4056,"Ġ45":4057,"bor":4058,"ĠUmhverfis":4059,"ĠHef":4060,"ĠgÃ¦tu":4061,"ĠÃ¡kvaÃ°":4062,"not":4063,"Ã¦t":4064,"eys":4065,"ĠÃ¡b":4066,"ĠsÃŃÃ°ari":4067,"16":4068,"versl":4069,"skvÃ¶ld":4070,"Ġsparis":4071,"vog":4072,"tÃ¶kum":4073,"Ġhorfa":4074,"ĠniÃ°urstÃ¶Ã°u":4075,"ĠSveit":4076,"ĠÃ³g":4077,"ema":4078,"anni":4079,"ĠmÃŃnu":4080,"dda":4081,"Ġhvorki":4082,"ĠforsÃ¦tisrÃ¡Ã°herra":4083,"ĠglÃ¦s":4084,"shÃ³p":4085,"ĠbÃ½r":4086,"ĠÃ¾urfti":4087,"hrif":4088,"sal":4089,"eyma":4090,"Ġsamkeppni":4091,"ĠReykjan":4092,"ingurinn":4093,"Ġtaki":4094,"ĠalgjÃ¶r":4095,"Ġsvara":4096,"Ġbetra":4097,"ĠÃ¾ro":4098,"ĠgÃ¶ng":4099,"Ġdans":4100,"ham":4101,"ĠnÃ¡Ã°i":4102,"ou":4103,"till":4104,"grÃŃm":4105,"Ġkol":4106,"ĠHÃ¶r":4107,"ĠlÃ©t":4108,"ĠSÃ¡":4109,"ĠGuÃ°rÃºn":4110,"Ġlesendur":4111,"ĠlÃ½st":4112,"ĠYfir":4113,"Ã³g":4114,"Ġbendir":4115,"ĠbÃºinn":4116,"Ġfleira":4117,"foss":4118,"Ġhvern":4119,"Ġensku":4120,"ĠsÃ½n":4121,"Ġundanfarin":4122,"ĠsjÃ¡lfsÃ¶g":4123,"ylt":4124,"ĠmjÃ³l":4125,"ont":4126,"lÃŃtiÃ°":4127,"slunnar":4128,"spek":4129,"mik":4130,"Ġsegist":4131,"mÃ¶rku":4132,"ĠRÃŃkis":4133,"hÃ¦f":4134,"ĠKefla":4135,"byggÃ°ar":4136,"yst":4137,"ĠmÃ¶nnum":4138,"Ġvex":4139,"ĠnÃ¡mi":4140,"Ġtengjast":4141,"Ġnetfang":4142,"skir":4143,"oktor":4144,"ingunni":4145,"rÃŃki":4146,"ĠÃ¾Ã¦tti":4147,"Ġstunda":4148,"Ġseinni":4149,"ĠnotuÃ°":4150,"sent":4151,"erfi":4152,"ĠUni":4153,"ĠJÃ³nsdÃ³ttir":4154,"elti":4155,"jÃ³tt":4156,"ĠfjÃ¶lg":4157,"ofa":4158,"ĠmatvÃ¦":4159,"ĠtillÃ¶gur":4160,"Ġflestum":4161,"ĠGrÃŃm":4162,"jÃ³sa":4163,"ĠÃ³k":4164,"ungu":4165,"launa":4166,"Ġtilraun":4167,"dar":4168,"Ġneitt":4169,"Ġwww":4170,"saÃ°":4171,"ĠlÃ¡gmark":4172,"eypt":4173,"Ġhve":4174,"Ġkennar":4175,"Ġleigu":4176,"Ġverulega":4177,"ĠÃ½msu":4178,"Ġanna":4179,"ĠJarÃ°vÃŃsindastofnun":4180,"oggi":4181,"ĠFer":4182,"Ġheg":4183,"Ã¾jÃ³nust":4184,"Ġhjarta":4185,"Ġtals":4186,"Ġsetti":4187,"ĠgÃ¶gnum":4188,"holt":4189,"ĠÃ¡stand":4190,"gerÃ°a":4191,"ĠRÃº":4192,"ĠVestfjÃ¶rÃ°um":4193,"ĠSem":4194,"eysi":4195,"ĠstuÃ°la":4196,"Ġskipt":4197,"Ġatbur":4198,"egin":4199,"ĠBÃ¦jar":4200,"ĠfjÃ¶ldi":4201,"ĠsÃŃm":4202,"eldis":4203,"ĠBretl":4204,"Ġkrist":4205,"qu":4206,"Ġviljum":4207,"Ġnokkra":4208,"ĠMargrÃ©":4209,"ĠaÃ°ilar":4210,"essor":4211,"Â°":4212,"ĠfljÃ³t":4213,"hÃ³l":4214,"ĠbrÃ¡":4215,"Ġrif":4216,"ĠKom":4217,"ĠÃ¦vint":4218,"ĠLe":4219,"svar":4220,"Ġvefsins":4221,"ĠgÃ¶ngu":4222,"ĠstÃ¦rri":4223,"hring":4224,"rÃ¡Ã°i":4225,"ÃŃmi":4226,"ĠfjÃ³rum":4227,"ĠNorÃ°vestur":4228,"Ġalmennings":4229,"arit":4230,"ĠÃŃbÃºa":4231,"eyjum":4232,"ĠfÃ¦dd":4233,"Ġneyt":4234,"ĠHag":4235,"Ġopna":4236,"Ġdreng":4237,"ĠBygg":4238,"ĠsjÃ¡lfst":4239,"ĠVinn":4240,"irÃ°":4241,"ĠfyrirtÃ¦kiÃ°":4242,"Ġverkum":4243,"Ġkomist":4244,"ĠhÃ¶fuÃ°borgarsvÃ¦Ã°inu":4245,"fisins":4246,"Ġeinni":4247,"tÃ¦ki":4248,"ĠArn":4249,"Ġeinhverju":4250,"uni":4251,"Ġsitja":4252,"ĠSÃ©":4253,"Ġskipa":4254,"endingu":4255,"Ġupplif":4256,"ĠgrÃ¦":4257,"rest":4258,"Ã¦kni":4259,"arfrÃ¦Ã°":4260,"Ġspennandi":4261,"ĠmÃ¡naÃ°a":4262,"Ġlangar":4263,"ĠslÃ¡":4264,"ĠhafiÃ°":4265,"stofnun":4266,"ĠKv":4267,"ĠÃ¡lit":4268,"ĠÃ¾ingmaÃ°ur":4269,"ĠÃ¾urr":4270,"ĠÃ¾essarar":4271,"ĠÃ³skaÃ°":4272,"uneytisins":4273,"Ġkostur":4274,"Ġstel":4275,"ĠhÃ¡mark":4276,"ĠPÃŃratar":4277,"Ġskilja":4278,"ĠhjÃ³l":4279,"Ġ\\":4280,"tri":4281,"Ġerf":4282,"ĠJens":4283,"ssa":4284,"ĠnÃ½rri":4285,"25":4286,"form":4287,"ÃŃkur":4288,"Ġuppbyggingu":4289,"Ġafl":4290,"Ġrak":4291,"Ġtekju":4292,"rak":4293,"Ġsamkomulag":4294,"ĠÃŀÃ½skal":4295,"ĠstrÃ¡":4296,"pÃŃtal":4297,"SA":4298,"ĠstaÃ°rey":4299,"ĠRÃºss":4300,"Ġinnihald":4301,"Ġlengri":4302,"ĠEitt":4303,"ĠbrÃ¡Ã°":4304,"Ġeinst":4305,"ĠsjÃ¡lfsÃ¶gÃ°u":4306,"marg":4307,"ĠÃģrvak":4308,"ĠÃºrval":4309,"Ġkona":4310,"fjarÃ°ar":4311,"lf":4312,"ons":4313,"Ġhar":4314,"hildur":4315,"ĠumsÃ³k":4316,"Ġhelm":4317,"ĠatkvÃ¦Ã°i":4318,"nina":4319,"Ġfelst":4320,"Ġstefnum":4321,"raÃ°i":4322,"ulltrÃºi":4323,"ilegur":4324,"ĠblÃ³m":4325,"ĠembÃ¦tt":4326,"bili":4327,"rett":4328,"bÃºnaÃ°":4329,"vita":4330,"500":4331,"Ġeinstaklingar":4332,"ĠNorÃ°url":4333,"ity":4334,"ĠAnnar":4335,"ĠtÃ¦ki":4336,"ĠmilljarÃ°a":4337,"fÃ³lk":4338,"ĠsÃºpu":4339,"ĠÃ¾Ã½Ã°ir":4340,"ĠstaÃ°num":4341,"velt":4342,"linum":4343,"ĠsjÃ¡varÃºtveg":4344,"ĠGer":4345,"Ġtrey":4346,"ĠprÃ³sent":4347,"eyja":4348,"junum":4349,"ĠsambÃ¦r":4350,"ĠbrÃ©":4351,"Ġbyggir":4352,"Ġvilji":4353,"ĠsjÃ³Ã°sins":4354,"ĠÃģrvakur":4355,"ninguna":4356,"Ġâ":4357,"ĠBÃº":4358,"Ġtalin":4359,"Ġ08":4360,"19":4361,"ĠheimsÃ³kn":4362,"ĠDal":4363,"ĠlÃŃfiÃ°":4364,"ĠkÃ¦randi":4365,"Ġauki":4366,"efninu":4367,"ĠNokk":4368,"Ġefnis":4369,"ĠmiÃ°ur":4370,"Ġvara":4371,"ariÃ°":4372,"18":4373,"ĠÃ¦tlar":4374,"Ġoftast":4375,"Ġkunn":4376,"Ġstarfar":4377,"ĠMen":4378,"ĠvÃŃsaÃ°":4379,"ĠÃģrni":4380,"ĠstÃ¶Ã°um":4381,"hverfi":4382,"ĠsÃ©st":4383,"junni":4384,"Ġskyldi":4385,"ĠÃ½mis":4386,"ish":4387,"ĠsjÃ¡lfum":4388,"Ġhi":4389,"ĠGarÃ°a":4390,"Ġtengdur":4391,"ÃŃnum":4392,"legg":4393,"vogi":4394,"ugt":4395,"ĠauÃ°l":4396,"nÃ¦g":4397,"ĠrÃ©ttindi":4398,"ĠLa":4399,"Ġeinfaldlega":4400,"Ġkjarasam":4401,"ĠBryn":4402,"legir":4403,"ĠPr":4404,"ĠBerg":4405,"ĠtÃ¶f":4406,"Ġnemendum":4407,"ĠstÃ¦":4408,"to":4409,"ĠÃŀrÃ¡tt":4410,"acute":4411,"bÃ¡":4412,"ĠgÃ¦rkvÃ¶ld":4413,"Ġbls":4414,"ĠÃ¡kvarÃ°an":4415,"Ġvinstri":4416,"Ġkomst":4417,"Ġkirkju":4418,"ĠfrÃ©tta":4419,"ĠNÃ¡tt":4420,"ĠÃºtlend":4421,"ĠFjÃ¡rmÃ¡la":4422,"Ã¶tt":4423,"Ġmoggi":4424,"ĠspÃ¡":4425,"ĠnorÃ°an":4426,"Ġ$":4427,"ĠBÃ³k":4428,"ĠfÃ©laga":4429,"Ġoddviti":4430,"anlegt":4431,"agni":4432,"ĠtÃ¶lvu":4433,"ĠkjÃ¶":4434,"drÃ¡tt":4435,"Ġnafni":4436,"ĠKar":4437,"abil":4438,"Ġhaming":4439,"Ġbreytingu":4440,"ĠÃ¾jÃ³Ã°arinnar":4441,"ĠhvenÃ¦r":4442,"ĠfulltrÃºa":4443,"ĠrÃŃkisstjÃ³rnar":4444,"ĠGu":4445,"Ã¶mmu":4446,"Ġmenntun":4447,"ĠÃįs":4448,"Ġreynt":4449,"ĠVestmanna":4450,"mm":4451,"festa":4452,"ĠsamÃ¾ykki":4453,"ĠmÃ¡naÃ°ar":4454,"leiÃ°slu":4455,"ĠmÃ¶gu":4456,"UR":4457,"emma":4458,"rÃ¡Ã°s":4459,"ĠhÃ³pi":4460,"gjafar":4461,"ĠhÃ¡lfu":4462,"TA":4463,"Ġdagsins":4464,"Ġskrifstofu":4465,"ĠgÃ³Ã°ar":4466,"45":4467,"ea":4468,"Ġeinhverjum":4469,"isku":4470,"ĠDanmÃ¶rku":4471,"ĠbÃ¦kur":4472,"ĠNorÃ°vesturkjÃ¶rdÃ¦mi":4473,"ĠSh":4474,"ĠslÃ¦m":4475,"oti":4476,"ĠgrÃ³Ã°ur":4477,"ĠmÃ¦last":4478,"Ġheyra":4479,"Ġ500":4480,"ĠlÃ¶ndum":4481,"min":4482,"Ġfellur":4483,"Ġglugg":4484,"skÃ³lum":4485,"aÃ°sdÃ³m":4486,"ĠvÃ¶rur":4487,"Ġreglulega":4488,"lak":4489,"ĠborÃ°a":4490,"Ġhol":4491,"takanna":4492,"Ġeigum":4493,"jÃºkra":4494,"ĠNoregi":4495,"ba":4496,"eyrar":4497,"ĠumfjÃ¶llun":4498,"ĠfjÃ¡rmagn":4499,"Ġvetrarins":4500,"ĠatvinnumÃ¡l":4501,"Ġsamskipti":4502,"ĠskÃ³g":4503,"ĠJafnframt":4504,"ĠÃĵlafsson":4505,"ĠhÃ¶nnun":4506,"jarnar":4507,"kran":4508,"Ã¾ingi":4509,"ĠbjÃ¶rg":4510,"fel":4511,"ssv":4512,"ĠutanrÃŃkis":4513,"ĠJak":4514,"ndum":4515,"Ġmetra":4516,"Ġhina":4517,"skuld":4518,"Ġverkefnum":4519,"Ġgrun":4520,"ĠframboÃ°":4521,"Ġ193":4522,"ĠaÃ°ildar":4523,"allt":4524,"ĠAnna":4525,"ĠlÃ¦kk":4526,"ferÃ°i":4527,"Ġhepp":4528,"Ġkeyp":4529,"Ġsner":4530,"Ġmikinn":4531,"Ġeigu":4532,"ĠrÃ©ttar":4533,"Ġhinu":4534,"bbamein":4535,"ĠHoll":4536,"ĠRe":4537,"ĠÃ¡Ã¦tlun":4538,"Ġdeil":4539,"Ġtilheyr":4540,"ĠlÃ¶gregl":4541,"ool":4542,"ĠgÃ³l":4543,"ĠheilbrigÃ°ismÃ¡l":4544,"jiÃ°":4545,"14":4546,"ĠstjÃ³rnvalda":4547,"aum":4548,"ĠfÃ¶studag":4549,"Ġveru":4550,"Ġstaf":4551,"ĠstyÃ°ja":4552,"bind":4553,"ĠsÃŃns":4554,"Ġunnu":4555,"ĠVig":4556,"Ġathugasemdir":4557,"one":4558,"Ġformi":4559,"ĠlÃŃfs":4560,"Ġverslun":4561,"tÃ¶kin":4562,"lÃ¦ti":4563,"lof":4564,"ĠfÃ©lagar":4565,"13":4566,"ĠÃ¡stÃ¦Ã°a":4567,"Ġrang":4568,"ĠviÃ°miÃ°":4569,"ĠtalaÃ°":4570,"Ġson":4571,"reglu":4572,"ĠtrÃºn":4573,"etu":4574,"ĠeÃ°lilegt":4575,"ĠNÃ¡nari":4576,"Ġkynningar":4577,"Ġbraut":4578,"oc":4579,"rauÃ°":4580,"Ã³Ã°um":4581,"ĠHelgi":4582,"Ġstefn":4583,"ĠMargir":4584,"ĠÃ¾eirrar":4585,"ĠStÃ³r":4586,"ildu":4587,"ĠviÃ°bÃ³tar":4588,"Ġundirrit":4589,"ĠafstÃ¶Ã°u":4590,"ĠhÃºsiÃ°":4591,"fangs":4592,"ĠjarÃ°ar":4593,"ĠstaÃ°sett":4594,"ĠMi":4595,"eiÃ°ar":4596,"ĠÃ¾rjÃ¡r":4597,"Ã¶st":4598,"ĠstjÃ³rnsÃ½slu":4599,"ĠGunnarsson":4600,"ĠHrafn":4601,"ĠFlug":4602,"ĠReg":4603,"aÃ°u":4604,"skra":4605,"Ġvinnust":4606,"bak":4607,"Ġtraust":4608,"ĠFriÃ°rik":4609,"ry":4610,"ĠlÃ½Ã°rÃ¦Ã°i":4611,"smÃ¶nnum":4612,"Ġkonu":4613,"ĠÃ³l":4614,"ĠsÃ³knar":4615,"sÃ¶gu":4616,"ĠJen":4617,"ĠviÃ°skiptavin":4618,"ĠstaÃ°inn":4619,"ĠstaÃ°a":4620,"Ġbb":4621,"ĠLÃŃf":4622,"Ġvo":4623,"22":4624,"angreind":4625,"ĠopiÃ°":4626,"prÃ³f":4627,"ĠÃ¡runum":4628,"Ġhygg":4629,"Ġleitt":4630,"Ġmans":4631,"Ġtilkynningu":4632,"ĠnÃ½jan":4633,"ĠSch":4634,"Ġhanda":4635,"Ġflutti":4636,"Ã¶Ã°u":4637,"Ġstein":4638,"ĠMan":4639,"angur":4640,"lass":4641,"raf":4642,"ĠÃĸrn":4643,"Ġkosningarnar":4644,"ĠÃ¾urfum":4645,"ĠkÃº":4646,"Ġtengsl":4647,"geir":4648,"ĠtÃ¡k":4649,"Ġbaki":4650,"AN":4651,"aÃ°ri":4652,"ĠviÃ°hor":4653,"ĠtÃºl":4654,"sÃ½ni":4655,"rinum":4656,"Ġdan":4657,"03":4658,"brau":4659,"Ġhefja":4660,"ĠferÃ°aÃ¾jÃ³nustu":4661,"Ġsakar":4662,"ph":4663,"ĠAkran":4664,"Ġyr":4665,"Ġmyndinni":4666,"ĠjÃ¡kv":4667,"Ã³Ã°u":4668,"Ġsamtali":4669,"ĠFramsÃ³knarflokk":4670,"finn":4671,"Ġaldar":4672,"ĠtrÃºar":4673,"Ġlykil":4674,"Ġfullt":4675,"St":4676,"ĠvirÃ°":4677,"engis":4678,"Ġmyndum":4679,"Ġ09":4680,"Ġlitla":4681,"starfi":4682,"Ġlifa":4683,"ĠSÃŃ":4684,"Ġaustur":4685,"ĠBolungarvÃŃk":4686,"ĠBo":4687,"tust":4688,"Ã¶llum":4689,"Ġhagsmuna":4690,"Ġtilkynnt":4691,"Ã©Ã°":4692,"ĠSm":4693,"Ġheimilis":4694,"Ġfundinum":4695,"Ġfelur":4696,"Ġuppfyl":4697,"Ġvind":4698,"tam":4699,"Ġsein":4700,"Ġ37":4701,"ĠvÃ©":4702,"Ġofbeldi":4703,"Ġumfram":4704,"hafa":4705,"ĠstÃŃ":4706,"ĠfjÃ¶r":4707,"bankans":4708,"Ġhim":4709,"Ġsvokall":4710,"ĠLÃŃk":4711,"ĠCafÃ©":4712,"otn":4713,"ĠvÃ¶rum":4714,"Ġfyrirhug":4715,"ĠkjÃ¶lfariÃ°":4716,"ĠvarÃ°a":4717,"Ġhugleik":4718,"stan":4719,"ĠJakob":4720,"ĠHam":4721,"ĠvaldiÃ°":4722,"vÃŃsindastofnunar":4723,"ĠBÃŃ":4724,"ĠstÃ³ra":4725,"Ġlest":4726,"fund":4727,"Ġflott":4728,"rÃ©tti":4729,"ĠÃ¡lag":4730,"anefndar":4731,"hluti":4732,"ĠÃģs":4733,"ĠafgreiÃ°slu":4734,"Ġunnt":4735,"ĠfrÃ¦":4736,"eyjar":4737,"07":4738,"Ġbent":4739,"ĠmannrÃ©tt":4740,"ĠBjÃ¶r":4741,"uleiÃ°":4742,"ĠstrÃŃÃ°":4743,"Ġnein":4744,"ĠLandspÃŃtal":4745,"ĠbarniÃ°":4746,"??":4747,"pl":4748,"Ġklukkust":4749,"ĠAuÃ°":4750,"Ġbann":4751,"Ġsendir":4752,"ini":4753,"Ġmiklar":4754,"Ġgei":4755,"09":4756,"ĠbarÃ¡ttu":4757,"runa":4758,"ĠÃ¡hÃ¦ttu":4759,"slÃ¡tt":4760,"ĠSelfoss":4761,"Ã°ung":4762,"Ġleikinn":4763,"Ġsunnudag":4764,"Ġvott":4765,"Ġoddvita":4766,"Ġgerast":4767,"fÃ©lÃ¶g":4768,"Ġminnst":4769,"ĠvÃ¦ndi":4770,"Ġgeri":4771,"per":4772,"ĠrÃ¦Ã°":4773,"ĠorÃ°um":4774,"ĠNemendur":4775,"Ġgreitt":4776,"ĠnÃ½skÃ¶p":4777,"ĠliÃ°inni":4778,"ĠrannsÃ³kna":4779,"ldar":4780,"Ġtillit":4781,"ĠSl":4782,"votta":4783,"hlutverk":4784,"ĠmiÃ°a":4785,"gangs":4786,"Ġmeistar":4787,"ĠgÃ³Ã°an":4788,"Ġgrundvallar":4789,"bir":4790,"ĠFerÃ°":4791,"06":4792,"ĠÃ¾yng":4793,"ĠhÃºsinu":4794,"afjarÃ°ar":4795,"ĠRit":4796,"ĠSlÃŃk":4797,"ĠprÃ³fessor":4798,"ĠlÃ¦kni":4799,"ĠskrifaÃ°":4800,"ĠVeÃ°ur":4801,"ĠlÃŃkur":4802,"yss":4803,"Ġ32":4804,"ĠgrÃŃ":4805,"Ġskjal":4806,"Ġsjald":4807,"Ġnefndu":4808,"ygl":4809,"ĠÃ³vart":4810,"Ġsamanbur":4811,"ĠMatt":4812,"heldur":4813,"ĠÃ¡kvÃ¦Ã°um":4814,"Ġvinnslu":4815,"ord":4816,"ĠmÃŃna":4817,"ĠgerÃ°u":4818,"ĠvitaÃ°":4819,"ĠÃĵsk":4820,"vum":4821,"sÃŃ":4822,"ton":4823,"Ġkg":4824,"ĠmÃ¶guleik":4825,"ĠflÃ³k":4826,"Ã¶ldu":4827,"Ãºmer":4828,"ĠFjÃ¡rmÃ¡laeftirlit":4829,"ĠFÃ³lk":4830,"Ġvestur":4831,"Ġframl":4832,"vef":4833,"junar":4834,"skÃ³linn":4835,"ĠauÃ°velt":4836,"Ġhagn":4837,"ĠAllar":4838,"Ġforn":4839,"Ġtakmark":4840,"Ġtiln":4841,"Ġvatni":4842,"Ġbyggt":4843,"fÃ¦rslu":4844,"ĠInt":4845,"ĠGÃŃsli":4846,"Ã¶gunum":4847,"Ġhlutverki":4848,"afyrirtÃ¦k":4849,"ĠLjÃ³":4850,"ĠKen":4851,"Ġsamtals":4852,"halds":4853,"Ġkosning":4854,"ĠnÃ¦stkomandi":4855,"sgeir":4856,"ĠbÃŃÃ°a":4857,"ĠdÃ½":4858,"ĠÃ¡kÃ¦r":4859,"ÃŀaÃ°":4860,"ĠÃ¡rlega":4861,"ĠÃģkv":4862,"Ġmarga":4863,"ĠskÃ³lanum":4864,"ĠfrÃ¦Ã°i":4865,"Ġbeitt":4866,"ĠleitaÃ°":4867,"Ġfullu":4868,"Ġrenn":4869,"Ġslepp":4870,"Ġhreins":4871,"Ġvirka":4872,"ĠmÃ¡nuÃ°um":4873,"ĠÃ³f":4874,"Ġfit":4875,"eyris":4876,"ĠgÃ¦rkvÃ¶ldi":4877,"kvÃ¦Ã°agreiÃ°":4878,"gis":4879,"Ġhugleikin":4880,"ĠRÃ©tt":4881,"Ġannast":4882,"Ġtopp":4883,"ĠGrein":4884,"ĠskrifaÃ°i":4885,"oo":4886,"ulltrÃºa":4887,"ĠboriÃ°":4888,"Ġuppl":4889,"skot":4890,"ĠaÃ°gerÃ°ir":4891,"ĠslÃŃkum":4892,"ĠLeiÃ°":4893,"ĠkÃŃl":4894,"bÃ³ta":4895,"ĠÃ½msar":4896,"ĠfÃ¡tÃ¦k":4897,"ĠRiis":4898,"ĠUms":4899,"ood":4900,"Ġunglinga":4901,"ĠLista":4902,"04":4903,"Ġtit":4904,"Ġbund":4905,"sluna":4906,"Ã³f":4907,"ĠleiÃ°in":4908,"ĠmikilvÃ¦gi":4909,"Ġhamingju":4910,"ĠAlls":4911,"ĠsÃ¡r":4912,"Ġxml":4913,"ĠlÃº":4914,"Ġsamhengi":4915,"ĠJensson":4916,"ĠOdd":4917,"ĠÃ¾rÃ³unar":4918,"ĠhÃ¦rri":4919,"mundur":4920,"Ġhefir":4921,"ĠpÃ¡":4922,"ĠUndir":4923,"Ġkenna":4924,"ĠÃ¾Ã³tti":4925,"ĠvarÃ°v":4926,"ĠbyrjaÃ°i":4927,"ĠtÃŃmann":4928,"Ġkeyr":4929,"ĠFrakk":4930,"Ġmerki":4931,"02":4932,"Ġskrifar":4933,"01":4934,"ĠFÃ©lagsvÃŃsindastofnunar":4935,"Ġleidd":4936,"ĠKol":4937,"Ġvanda":4938,"ĠSA":4939,"fÃ¦ra":4940,"ore":4941,"Ġspurning":4942,"ĠhljÃ³msveit":4943,"Ġdval":4944,"ÃļV":4945,"ong":4946,"ĠÃ¡vallt":4947,"ĠpÃŃ":4948,"ĠÃ¾aÃ°an":4949,"Ġlausn":4950,"ĠstjÃ³r":4951,"Ã¶lluÃ°":4952,"ĠFisk":4953,"Ġverslunar":4954,"ov":4955,"ĠMann":4956,"ĠmaÃ°urinn":4957,"Ġ1998":4958,"jÃ¶rnu":4959,"ĠferÃ°amanna":4960,"ĠÃģst":4961,"Ġfimmtudaginn":4962,"Ġbland":4963,"ĠGunnlaug":4964,"ĠSigrÃŃÃ°ur":4965,"eppni":4966,"ĠstofnaÃ°":4967,"08":4968,"age":4969,"Ġbeita":4970,"Ġheimi":4971,"Ġflokka":4972,"gjÃ¶ld":4973,"Ġlax":4974,"Ġgjarnan":4975,"arsdÃ³ttir":4976,"bundiÃ°":4977,"ĠfyrirtÃ¦kjum":4978,"ĠveiÃ°i":4979,"ĠhÃ³pur":4980,"heimili":4981,"ĠEES":4982,"skoÃ°un":4983,"ĠhÃ¡degisfundur":4984,"ĠÃ¶Ã°last":4985,"Ã¶kkum":4986,"ĠsnÃºa":4987,"Ġeinstakling":4988,"lÃ½singu":4989,"Ġstu":4990,"mÃ¦ti":4991,"ĠLÃŃ":4992,"eistari":4993,"ĠsÃºpufundi":4994,"aÃ°st":4995,"ĠlÃ¶ngu":4996,"ĠvelferÃ°ar":4997,"ĠÃ¾Ã¡tttakendur":4998,"Ġmansali":4999,"ĠsammÃ¡la":5000,"ĠsveitarstjÃ³rnar":5001,"ĠReykjanes":5002,"ttast":5003,"ĠSkrÃ¡":5004,"ĠÃ³trÃºlega":5005,"rÃ¦Ã°a":5006,"ĠRÃļV":5007,"ĠMa":5008,"Ġveitingast":5009,"ĠtÃ¦plega":5010,"Ġrekja":5011,"ĠdregiÃ°":5012,"ĠmÃ¦ld":5013,"ĠVilhjÃ¡l":5014,"Ġgull":5015,"Ġvekja":5016,"ĠÃŃt":5017,"ĠJÃ³na":5018,"Ġmbl":5019,"Ġrafmagn":5020,"Ġlauna":5021,"ĠkostnaÃ°ar":5022,"ĠtrÃ©":5023,"Ġtengist":5024,"afÃ©lags":5025,"ĠÃ¡hersluatriÃ°i":5026,"ĠnÃ½lega":5027,"ĠverkefniÃ°":5028,"Ġfyll":5029,"Ġkem":5030,"ĠÃºtvarp":5031,"ĠstÃ¦rsta":5032,"Ġuppfyll":5033,"sÃ¡r":5034,"ĠÃ¦f":5035,"ĠfrÃ©ttir":5036,"ĠtÃŃmabili":5037,"ilegri":5038,"Ġerlendum":5039,"ĠgÃ¦Ã°a":5040,"ĠhjÃ¡lpar":5041,"Ġsamninga":5042,"ĠMargrÃ©t":5043,"ĠLÃ¦k":5044,"ĠsumariÃ°":5045,"ĠgetiÃ°":5046,"haldi":5047,"hÃ¶nd":5048,"skyldu":5049,"ĠsjÃ³nvarps":5050,"Ġmannesk":5051,"unnan":5052,"Ġhafnar":5053,"Ġfyrirspur":5054,"luÃ°u":5055,"ĠsamrÃ¦m":5056,"ĠblÃ¡":5057,"Ġstytt":5058,"Ġfrest":5059,"...":5060,"steins":5061,"ĠVatn":5062,"ĠmeÃ°ferÃ°ar":5063,"Ġskilgrein":5064,"ĠsamfÃ©laginu":5065,"ĠgÃ¦ta":5066,"ĠmargvÃŃ":5067,"Ġsker":5068,"Ġmargra":5069,"ĠLang":5070,"ĠfÃŃk":5071,"Ġ300":5072,"ĠHÃ³tel":5073,"garÃ°":5074,"ĠstÃ©tt":5075,"nesi":5076,"ĠhjÃ¡lpa":5077,"ĠNet":5078,"holti":5079,"Ġdraum":5080,"ca":5081,"ĠÃŀorg":5082,"de":5083,"ĠÃ¾rÃŃr":5084,"Ġtilvikum":5085,"ĠtÃ³kst":5086,"ĠÃ¡nÃ¦gju":5087,"ĠfÃ©laginu":5088,"minn":5089,"sleik":5090,"ĠSvÃŃÃ¾jÃ³Ã°":5091,"auk":5092,"turinn":5093,"Ġvega":5094,"ĠÃ¾jÃ³Ã°fylkingarinnar":5095,"Ġsykur":5096,"ĠÃįbÃºÃ°":5097,"ĠVinstri":5098,"ĠharÃ°":5099,"ĠmÃ³tinu":5100,"ĠgjÃ¶r":5101,"ĠumsÃ¦kj":5102,"ĠÃ¾jÃ³nust":5103,"ĠvirÃ°ast":5104,"fÃ©lagiÃ°":5105,"Ġtexta":5106,"rÃºm":5107,"Ã°un":5108,"Ġengan":5109,"fast":5110,"ĠFÃ¦r":5111,"ĠGam":5112,"fellt":5113,"ĠHin":5114,"Ġundanf":5115,"ĠmiÃ°vikudaginn":5116,"ĠSkÃº":5117,"ĠstÃ³rum":5118,"Ã¾Ã½":5119,"ran":5120,"ĠslÃ¶kk":5121,"Ġspurningar":5122,"ted":5123,"Ġam":5124,"Ġefn":5125,"fÃ©lags":5126,"hrey":5127,"ĠSkag":5128,"uneytinu":5129,"ĠSe":5130,"ĠGrÃ¦n":5131,"Ġnefndarinnar":5132,"ĠbÃ¦num":5133,"tÃ¶lu":5134,"kunar":5135,"ĠkÃ³r":5136,"ĠÃ¡horf":5137,"ettur":5138,"Ġsamskiptum":5139,"einuÃ°u":5140,"ofu":5141,"Ġev":5142,"leikar":5143,"Ġeinkenni":5144,"vega":5145,"Ġskemmtilegt":5146,"Ã³stur":5147,"Ġhvatt":5148,"stefnu":5149,"ĠCo":5150,"Ġkomandi":5151,"Ġannarri":5152,"ĠvÃ¶ldum":5153,"otiÃ°":5154,"ĠEndur":5155,"alaust":5156,"ĠnÃºtÃŃm":5157,"ddir":5158,"heimild":5159,"ĠÃ¾essir":5160,"rannsÃ³k":5161,"etta":5162,"stra":5163,"bert":5164,"ikar":5165,"lÃ½sing":5166,"ĠÃŀÃ¡tt":5167,"amark":5168,"ĠferÃ°ast":5169,"sfÃ©lag":5170,"Ã¡ri":5171,"Ġkonum":5172,"ĠmÃ¡tt":5173,"Ġ1999":5174,"bÃºa":5175,"samning":5176,"Ã¾ega":5177,"leikum":5178,"ĠÃģsgeir":5179,"ĠÃ¾Ã¦g":5180,"ĠrÃŃkiÃ°":5181,"ĠKyn":5182,"Ġsinnar":5183,"Ġskulda":5184,"ĠbrÃ©fi":5185,"ĠstÃ³rt":5186,"Ġseinna":5187,"tein":5188,"ĠfulltrÃºar":5189,"Ġkerfi":5190,"ĠdÃ½ra":5191,"ĠÃĿ":5192,"Ġsannarlega":5193,"ĠfjÃ¡rhÃ¦Ã°":5194,"ĠvaliÃ°":5195,"ĠFramkvÃ¦md":5196,"ĠbjÃ¶rgunar":5197,"ĠÃ¡kvarÃ°anir":5198,"Ġok":5199,"ĠHlut":5200,"verÃ°laun":5201,"ĠUng":5202,"ĠFyl":5203,"ĠÂĵ":5204,"ĠlÃŃÃ°ur":5205,"erÃ°ar":5206,"ĠOf":5207,"ĠÃºtt":5208,"Ġfyrsti":5209,"tingar":5210,"ĠlÃ½kur":5211,"ĠFrÃ©tta":5212,"lykt":5213,"erfiÃ°":5214,"nuÃ°u":5215,"afÃ©lagiÃ°":5216,"ST":5217,"ĠAri":5218,"ĠviÃ°tal":5219,"Ġveginn":5220,"Ã¡Ã°ir":5221,"ĠskoÃ°unar":5222,"ĠleiÃ°inni":5223,"myndir":5224,"Ġtakast":5225,"ER":5226,"anta":5227,"ĠEvrÃ³p":5228,"ĠÃ¾ol":5229,"rÃ¦ti":5230,"aft":5231,"Ġkross":5232,"verka":5233,"Ġatkv":5234,"ĠhÃºss":5235,"vir":5236,"stofn":5237,"ness":5238,"ĠskÃ¡k":5239,"Ġkli":5240,"Ãĸ":5241,"ĠIS":5242,"atna":5243,"Ã¾rÃ³un":5244,"Ġborist":5245,"ps":5246,"bÃ½li":5247,"eislu":5248,"ĠfrÃ¦g":5249,"mir":5250,"com":5251,"ĠumrÃ¦Ã°":5252,"Ġgagna":5253,"ĠVel":5254,"ĠhjÃºkrun":5255,"yÃ°ju":5256,"Ġhentar":5257,"Ġsumir":5258,"ĠljÃ³Ã°":5259,"ĠtungumÃ¡l":5260,"ĠsjÃ³narmiÃ°":5261,"nni":5262,"ĠFors":5263,"Ġbankans":5264,"Ġunnin":5265,"ruÃ°":5266,"ĠHelg":5267,"Ġtekjur":5268,"ĠlandbÃºnaÃ°ar":5269,"ĠdÃ³ttur":5270,"Ã¶fnun":5271,"ĠSkipulag":5272,"ĠSeg":5273,"ĠflÃ³tt":5274,"ells":5275,"Ġtoll":5276,"ellum":5277,"Ġors":5278,"ĠAnn":5279,"Ã¾jÃ³nusta":5280,"ĠVÃŃk":5281,"verÃ°u":5282,"ĠmilljÃ³n":5283,"ĠÃ¶ku":5284,"Ġmein":5285,"Ã¾rÃ³tt":5286,"insson":5287,"ĠAthug":5288,"Ã¦rÃ°":5289,"skÃ¡":5290,"kst":5291,"ĠMarÃŃa":5292,"Ġkunna":5293,"Ġ55":5294,"ĠGÃŃsla":5295,"ĠÃģgÃºst":5296,"bjÃ³Ã°":5297,"Ġtegundir":5298,"smÃ¡la":5299,"Ġfm":5300,"ĠÃ¡hrifum":5301,"gerÃ°ir":5302,"Ã¾rÃ³tta":5303,"II":5304,"ĠumferÃ°ar":5305,"ĠbÃŃla":5306,"Ġvalda":5307,"Ġprent":5308,"ĠHjÃ¡l":5309,"nesk":5310,"ĠÃ³ska":5311,"ĠbyggÃ°a":5312,"Ġ38":5313,"Ġfars":5314,"ĠrÃ¡Ã°gjÃ¶f":5315,"Ġopinbera":5316,"ĠsjÃ¡lfstÃ¦Ã°i":5317,"ĠhÃ¡tÃŃÃ°ar":5318,"yggju":5319,"ĠÃ¾ekkja":5320,"Ġtekist":5321,"lik":5322,"ĠLÃ¶greg":5323,"Ġbreyting":5324,"Ġseld":5325,"Ġleikmenn":5326,"Ġnetinu":5327,"sjÃ³n":5328,"greina":5329,"ati":5330,"Ġgreint":5331,"Ġfyrirlest":5332,"ĠstÃ½r":5333,"ĠfjÃ¶gurra":5334,"Ġtaldi":5335,"ĠskilaÃ°":5336,"Ġmikilli":5337,"ĠBjÃ¶rnsson":5338,"Ġegg":5339,"eigu":5340,"ĠÃ¦sk":5341,"ĠhÃº":5342,"rÃ¦nu":5343,"Ã¶kur":5344,"ĠÃ¡kveÃ°in":5345,"ester":5346,"ĠBandarÃŃkjanna":5347,"ĠhÃ¶r":5348,"ĠtÃŃmum":5349,"Ġneyslu":5350,"ĠkveÃ°iÃ°":5351,"ĠviÃ°skiptav":5352,"ĠljÃºka":5353,"ĠstarfaÃ°":5354,"breytingar":5355,"koma":5356,"ĠSameinuÃ°u":5357,"ĠhÃ¡lfleik":5358,"ĠSpÃ¡":5359,"Ã¸":5360,"Ġtelst":5361,"mÃ¦lis":5362,"ĠÃ¡hyggjur":5363,"Ġeth":5364,"ĠSkÃ³la":5365,"ĠbÃ¡Ã°um":5366,"Ã¡hrif":5367,"Ġ1997":5368,"ĠÃ¾ver":5369,"ĠTek":5370,"ĠInd":5371,"kkul":5372,"ĠyrÃ°u":5373,"OR":5374,"ĠDÃ³m":5375,"ĠÃĸnnur":5376,"Ġofn":5377,"Ġtegund":5378,"ĠkjÃ³sa":5379,"Ġpott":5380,"verÃ°i":5381,"Ã¶tum":5382,"gan":5383,"ĠStjÃ³rnar":5384,"Ġteljast":5385,"amÃ¡lum":5386,"Ġstrand":5387,"Ġ75":5388,"ĠÃŀÃ³rar":5389,"ĠMennta":5390,"ÃŃkja":5391,"Ġrei":5392,"ĠGrunn":5393,"ĠundanfÃ¶rnum":5394,"Ġlitlu":5395,"ilinn":5396,"Ġmyndast":5397,"ĠnÃŃu":5398,"ĠaÃ°allega":5399,"Ġheimspek":5400,"ĠStaÃ°":5401,"ĠviÃ°brÃ¶gÃ°":5402,"ĠJÃ³hannes":5403,"ĠfullnÃ¦g":5404,"Ġleysa":5405,"ĠÃ¾ÃŃn":5406,"Ġmunum":5407,"ugu":5408,"ĠTÃ³m":5409,"ĠÃŃtar":5410,"ĠSteing":5411,"ĠGrinda":5412,"tunar":5413,"Ġlegg":5414,"Sk":5415,"dur":5416,"ie":5417,"ĠlÃ¶nd":5418,"ĠlÃ¦tur":5419,"Ġslys":5420,"Ġberi":5421,"ĠKristjÃ¡nsson":5422,"ĠÃ¾ingmenn":5423,"ĠÃ¾ekkt":5424,"brÃ©fa":5425,"ĠLok":5426,"ÃŃÃ°i":5427,"ĠThor":5428,"ĠrÃ¡Ã°stefn":5429,"ĠhÃ¦gri":5430,"kerfiÃ°":5431,"ĠÃ¾yrfti":5432,"ĠÃŃbÃºÃ°ar":5433,"ĠhÃ¦kkun":5434,"Ġsafna":5435,"bÃºÃ°ir":5436,"Ġpist":5437,"Ġdoktor":5438,"ĠviÃ°eigandi":5439,"skr":5440,"ĠJÃºlÃŃ":5441,"Ã¶tur":5442,"Ġvantar":5443,"ĠverÃ°um":5444,"LA":5445,"ĠPar":5446,"Ġaugum":5447,"Ġleiki":5448,"ĠÃ¾jÃ¡lfun":5449,"ĠjÃ¡kvÃ¦Ã°":5450,"skemm":5451,"ĠviÃ°fangs":5452,"ĠlÃ½sa":5453,"vax":5454,"ĠfÃ¶Ã°ur":5455,"Ġru":5456,"ĠhrÃ¡":5457,"Ġgefin":5458,"ĠnafniÃ°":5459,"rÃ¦Ã°slu":5460,"sjÃºkdÃ³m":5461,"ĠlÃ©k":5462,"ĠrÃ©tta":5463,"Ġendilega":5464,"hÃ¡tt":5465,"Ġtilliti":5466,"ĠhÃ¶fÃ°":5467,"ingarf":5468,"ĠEngl":5469,"ĠÃ¾urft":5470,"Ġ44":5471,"Ġberast":5472,"Ġfullyr":5473,"lendis":5474,"ĠskrÃ¡ningu":5475,"ĠVald":5476,"ĠumrÃ¦Ã°ur":5477,"ĠorÃ°inn":5478,"skipulagi":5479,"ĠforstÃ¶Ã°um":5480,"ĠÃ¶kum":5481,"bjar":5482,"veru":5483,"Ġleiknum":5484,"ĠskÃ¶p":5485,"Ġkynsl":5486,"alÃ¶g":5487,"ĠsveitarfÃ©lagsins":5488,"osa":5489,"Ġmarkv":5490,"Ã¾ykk":5491,"urt":5492,"skt":5493,"Ġ34":5494,"sheim":5495,"Ã¾r":5496,"Ġframlag":5497,"Ġsil":5498,"Ġill":5499,"ĠSigurjÃ³n":5500,"Ġvikunni":5501,"ĠvÃŃst":5502,"ĠfljÃ³tt":5503,"ĠstÃºd":5504,"heil":5505,"ĠennÃ¾Ã¡":5506,"Ġstandi":5507,"ĠhÃ¡skÃ³l":5508,"Ãºni":5509,"ĠflÃŃs":5510,"Ġmega":5511,"vÃŃsi":5512,"Ġek":5513,"ĠÃºtl":5514,"ĠInter":5515,"Ġsamstarfs":5516,"ĠJohn":5517,"Ã¾jÃ³":5518,"Ġslit":5519,"ĠauÃ°lind":5520,"bÃ¶nd":5521,"hit":5522,"Ġveldur":5523,"nunar":5524,"bragÃ°":5525,"ĠÃ¾v":5526,"ĠfundiÃ°":5527,"ĠRa":5528,"ĠmÃ³tt":5529,"ĠÃ¦fingar":5530,"Ġkomnir":5531,"ĠHÃ³lma":5532,"hlaup":5533,"Ġnokkru":5534,"Ġefnum":5535,"ĠmilljÃ³num":5536,"steinsson":5537,"ĠaÃ°stÃ¶Ã°u":5538,"Ġsunnan":5539,"ĠhÃ©rna":5540,"Ġhinna":5541,"Ġvettvangi":5542,"lista":5543,"Ġhratt":5544,"hneig":5545,"ĠfrÃ¦Ã°a":5546,"ĠhraÃ°":5547,"Ġmyndu":5548,"Ġ150":5549,"Ġskilyr":5550,"ĠsÃ©rstaka":5551,"99":5552,"Ġ43":5553,"alÃ¡":5554,"ungur":5555,"Ġumfang":5556,"eift":5557,"Ġ^":5558,"Ġvegg":5559,"esson":5560,"ĠÃºrskurÃ°ar":5561,"ĠDV":5562,"ĠhliÃ°ar":5563,"ĠfjÃ¶lmiÃ°la":5564,"ĠjafnaÃ°i":5565,"ÃŃsku":5566,"Ġfundur":5567,"Ġsamnings":5568,"mund":5569,"Ġsat":5570,"ĠtrÃºnaÃ°ar":5571,"ĠeÃ°li":5572,"Ã¶sk":5573,"Ġvaldi":5574,"ĠsÃ½k":5575,"ĠhÃ¦kka":5576,"Ġmorg":5577,"meti":5578,"rÃŃn":5579,"ĠbeiÃ°ni":5580,"ĠvÃ¦g":5581,"Ġkrafist":5582,"vÃ¦nt":5583,"Ġvi":5584,"ĠstjÃ³rnarskrÃ¡":5585,"Ġ48":5586,"ĠVegna":5587,"ĠÃ¡ramÃ³t":5588,"aÃ°ili":5589,"kku":5590,"Ã¶fnum":5591,"Ġsly":5592,"ĠbrÃ½":5593,"Ġgolf":5594,"Ġinnheim":5595,"Ġmennta":5596,"ĠJÃ³ns":5597,"Ã¾ings":5598,"Ġ1996":5599,"ĠspurÃ°i":5600,"Ġdregur":5601,"Ġstefnt":5602,"ĠembÃ¦tti":5603,"ĠdÃ¶gunum":5604,"ĠgrÃŃÃ°arlega":5605,"ĠframkvÃ¦mda":5606,"alda":5607,"Ġsnemma":5608,"ĠbrjÃ³":5609,"fÃ©lagi":5610,"ĠnÃ³gu":5611,"ĠbregÃ°ast":5612,"ĠgjÃ¶f":5613,"Ġhrun":5614,"ĠEur":5615,"amynd":5616,"Ġlengra":5617,"staÃ°an":5618,"Ġinniheldur":5619,"Ġstofnunarinnar":5620,"ĠÃŀÃ³rÃ°ar":5621,"Ġvop":5622,"ĠForeld":5623,"ileik":5624,"ĠriÃ°":5625,"Ġaukist":5626,"NI":5627,"ĠmarkaÃ°i":5628,"ĠaukiÃ°":5629,"ennu":5630,"pr":5631,"Ġhvetja":5632,"ÃŃt":5633,"ĠrannsÃ³knum":5634,"Ġsaga":5635,"ĠSteingrÃŃm":5636,"Ġungling":5637,"Ġhverja":5638,"Ġman":5639,"ĠundirbÃºning":5640,"ĠÃŃmynd":5641,"Ġdeili":5642,"amik":5643,"ĠEinarsson":5644,"aland":5645,"Ġbarst":5646,"ndon":5647,"ĠÃįR":5648,"Ġkeppendur":5649,"ĠgÃ³lfi":5650,"ĠÃģÃ°ur":5651,"efnir":5652,"ĠfÃ³lkiÃ°":5653,"ĠKR":5654,"rÃ¦nt":5655,"atrygg":5656,"ĠÃ¾jÃ³nusta":5657,"ĠfÃ³rum":5658,"ĠSkÃ½r":5659,"Ġfyrirvara":5660,"bÃºnaÃ°i":5661,"Ġleitar":5662,"ferÃ°ir":5663,"ĠHallgrÃŃm":5664,"ĠÃŀÃ½skalandi":5665,"ĠslÃŃka":5666,"ĠskÃ³lann":5667,"urs":5668,"kona":5669,"riÃ°um":5670,"hÃºsum":5671,"Ġhefjast":5672,"ĠkallaÃ°":5673,"ĠmÃ¦la":5674,"oni":5675,"ĠnÃºmer":5676,"zt":5677,"ĠÃ¾jÃ³Ã°anna":5678,"Ġ46":5679,"ĠrÃ¡Ã°her":5680,"sgrein":5681,"ĠÃ¡fengis":5682,"Ġpass":5683,"ĠÃĵskar":5684,"emi":5685,"Ġmuna":5686,"Ġvarla":5687,"Ġmist":5688,"ĠnetfangiÃ°":5689,"ĠbrÃº":5690,"vÃ¦gi":5691,"ĠÃŀorsteinn":5692,"ĠFimm":5693,"ĠsniÃ°":5694,"Ġakstur":5695,"ĠÃ¦Ã°":5696,"Ġeigna":5697,"ĠFre":5698,"Ġrannsak":5699,"ĠalÃ¾jÃ³Ã°a":5700,"ĠLondon":5701,"ĠBarna":5702,"ĠbyggÃ°ar":5703,"ĠsvÃ¦Ã°iÃ°":5704,"Ġvikum":5705,"Ġtilfellum":5706,"ĠstaÃ°reynd":5707,"Ġfyrirkomulag":5708,"ĠFrum":5709,"ĠbÃ³kmenn":5710,"Ġkvenn":5711,"ĠNÃ¡mskeiÃ°":5712,"Ġskipuleg":5713,"sar":5714,"ĠbreiÃ°":5715,"Ġvaxandi":5716,"lin":5717,"ĠHafnarfirÃ°i":5718,"ĠHvÃŃ":5719,"Ġenga":5720,"ĠSigurÃ°ardÃ³ttir":5721,"ĠBaldur":5722,"Ġeiginlega":5723,"Ġ#":5724,"ĠvÃŃn":5725,"erni":5726,"ĠSnor":5727,"Ġsunnudaginn":5728,"Ġreyndist":5729,"Ġ56":5730,"vis":5731,"ĠfjÃ³rÃ°a":5732,"ĠFyrsta":5733,"ĠklÃ¡r":5734,"jÃ³si":5735,"stÃ¶rf":5736,"Ġnk":5737,"ĠstÃ¦rstu":5738,"ĠhÃ³pa":5739,"ĠSuÃ°urnes":5740,"tic":5741,"ĠhaustiÃ°":5742,"ĠliÃ°i":5743,"ĠAd":5744,"Ġefnahags":5745,"ĠsÃŃÃ°astliÃ°inn":5746,"ĠafmÃ¦li":5747,"ĠliÃ°in":5748,"sdal":5749,"Ġteknar":5750,"ĠGyl":5751,"ĠgÃ¶mlu":5752,"Ġskatta":5753,"Ġstefna":5754,"leiki":5755,"ĠNiÃ°urstÃ¶Ã°ur":5756,"stÃ¶Ã°inni":5757,"Ã¶gur":5758,"juna":5759,"ĠfÃŃn":5760,"Ã¶rygg":5761,"Ġengar":5762,"ĠumsÃ³knar":5763,"Ġfla":5764,"ĠslÃŃkar":5765,"iggjandi":5766,"vÃ¶ll":5767,"ĠfÃ©lagsmenn":5768,"ĠfrÃ³Ã°":5769,"undan":5770,"Ġsleg":5771,"ID":5772,"Ġtilgangi":5773,"ho":5774,"ĠKÃ¦randi":5775,"Ã¦Ã°ar":5776,"ĠgerÃ°ist":5777,"Ã¦kja":5778,"taki":5779,"zz":5780,"unga":5781,"Ġalmennum":5782,"lastofnun":5783,"Ġkostar":5784,"ĠlÃ½sir":5785,"Ġhit":5786,"urek":5787,"ĠvÃ¡":5788,"ĠSÃŃm":5789,"Ġpening":5790,"isvar":5791,"Ġherbergi":5792,"skjal":5793,"Ã³a":5794,"Ġdeildar":5795,"ĠÂ«":5796,"ĠsÃ¦n":5797,"ĠtÃ³nleika":5798,"kort":5799,"Ġfyrirmynd":5800,"24":5801,"ĠÃŀessar":5802,"Ã¶nsku":5803,"Ã¾Ã½Ã°u":5804,"ĠÃ¾akka":5805,"Ġathygl":5806,"Ġmeng":5807,"Ġferli":5808,"ĠSnÃ¦fell":5809,"rÃ©ttis":5810,"ĠvÃŃsa":5811,"Ġ1995":5812,"ĠDe":5813,"Ã°uÃ°":5814,"Ġeit":5815,"26":5816,"taÃ°":5817,"ĠgreinargerÃ°":5818,"alist":5819,"ĠfÃ¦Ã°ingar":5820,"ĠverÃ°bÃ³l":5821,"asviÃ°":5822,"afla":5823,"ĠÃ¾inn":5824,"verÃ°a":5825,"Ã¾ekk":5826,"ĠÃºtskrif":5827,"ns":5828,"junnar":5829,"ĠaÃ°stÃ¦Ã°um":5830,"maÃ°urinn":5831,"ĠaÃ°gengi":5832,"heimil":5833,"Ġnefn":5834,"ĠhlÃ½tur":5835,"ĠnÃ¡kvÃ¦mlega":5836,"Ġspyrja":5837,"blÃ¡":5838,"Ġkeypt":5839,"ĠskÃ½":5840,"ĠmÃ¡nuÃ°":5841,"Ġvarafor":5842,"...]":5843,"Ġ[...]":5844,"ĠBu":5845,"ĠalÃ¾ing":5846,"aferÃ°":5847,"lÃ¡ss":5848,"Ġholl":5849,"ĠHu":5850,"ndan":5851,"ĠkjÃ³s":5852,"ĠiÃ°naÃ°ar":5853,"Ġstofnanir":5854,"Ġhverri":5855,"Ġsettar":5856,"setur":5857,"ĠstÃ³Ã°u":5858,"ĠtÃ¶lvupÃ³st":5859,"Ġgler":5860,"Ġborginni":5861,"ĠEgg":5862,"ĠmarkaÃ°s":5863,"Ġfallega":5864,"Ġvestan":5865,"ĠÃ³breytt":5866,"ĠtjÃ³n":5867,"ĠÃŃtrek":5868,"ĠumsÃ¶gn":5869,"ĠatvinnulÃŃfsins":5870,"ĠÃ¦vintÃ½r":5871,"fÃ©lagsins":5872,"ĠNei":5873,"Ġdreif":5874,"gÃ¶tu":5875,"ingarnar":5876,"ĠupphÃ¦Ã°":5877,"ĠSauÃ°":5878,"Ġmyndband":5879,"ĠframkvÃ¦mdir":5880,"ÃŃtal":5881,"rÃ³Ã°ur":5882,"ĠYork":5883,"ĠAug":5884,"leif":5885,"ĠTÃŃm":5886,"ĠNefnd":5887,"ĠÃ¾itt":5888,"Ġnefndar":5889,"skÃ¡ld":5890,"Ġfundinn":5891,"Ġ66":5892,"ĠsigraÃ°i":5893,"reglur":5894,"ĠstÃ³ru":5895,"jafn":5896,"ĠviÃ°tali":5897,"sÃ¡Ã¦tlun":5898,"marka":5899,"ĠÃ¡kveÃ°a":5900,"ĠhÃºssins":5901,"ĠbrjÃ³st":5902,"ĠfaliÃ°":5903,"Ã©ttur":5904,"Ġverki":5905,"Ã¡Ã¦tl":5906,"Ġfeg":5907,"ĠaÃ°ili":5908,"Ġdrykk":5909,"Ġkven":5910,"........":5911,"ĠEyr":5912,"Ġtagi":5913,"ĠÂ·":5914,"pool":5915,"Ġdyr":5916,"ĠÃ³lÃ¶g":5917,"ĠnÃ¦rri":5918,"takiÃ°":5919,"ĠmÃ¦tt":5920,"ĠfÃ¡um":5921,"ĠMosf":5922,"ĠÃ³skar":5923,"ĠUpplÃ½singar":5924,"ĠframfÃ¦ri":5925,"Ġgu":5926,"launin":5927,"Ġreyk":5928,"ĠÃ¶rugglega":5929,"Ġskipulags":5930,"stÃ½r":5931,"hÃºssins":5932,"Ġanda":5933,"ĠsÃ©rstÃ¶k":5934,"Ġykkar":5935,"Ã¦slu":5936,"eiÃ°ur":5937,"ox":5938,"vÃ¦gt":5939,"ĠhlotiÃ°":5940,"ĠsÃŃÃ°unni":5941,"Ġdeila":5942,"ĠSal":5943,"Ġmarka":5944,"ĠlÃ¡t":5945,"Ġfimmtudag":5946,"Ġhorf":5947,"ĠolÃŃu":5948,"Ġgengi":5949,"ĠtvÃ¶f":5950,"ĠQ":5951,"slegum":5952,"ĠSjÃ³":5953,"28":5954,"ending":5955,"ĠfÃ©ll":5956,"Ġvatns":5957,"ĠviÃ°horf":5958,"Ġfasteign":5959,"Ġlyfja":5960,"ĠBÃ¶rn":5961,"Ġja":5962,"bÃ³ka":5963,"ĠstÃºlk":5964,"arÃ¶Ã°":5965,"ĠsÃ½ningu":5966,"ĠvÃ¶Ã°":5967,"ĠRagn":5968,"ĠskaÃ°a":5969,"ĠmarkmiÃ°i":5970,"ĠvÃ¦n":5971,"ĠhÃºsi":5972,"Ġ400":5973,"ĠferÃ°amenn":5974,"dir":5975,"ĠHelstu":5976,"Ġgreinir":5977,"ĠbÃ¡r":5978,"vrÃ³p":5979,"lÃŃn":5980,"Ã³na":5981,"ĠdauÃ°":5982,"ĠeigiÃ°":5983,"asti":5984,"varnar":5985,"ĠhÃ¶fundar":5986,"tr":5987,"Ġis":5988,"ĠmÃ¡nudaginn":5989,"ĠÃ¡byrgÃ°ar":5990,"ĠaÃ°gerÃ°a":5991,"ĠKaupmanna":5992,"ĠskaÃ°":5993,"mÃ¦lum":5994,"anlegar":5995,"eind":5996,"ĠSver":5997,"hliÃ°a":5998,"bÃ½lis":5999,"ĠSo":6000,"Ġuppfylla":6001,"Ã³Ã°ar":6002,"ningarf":6003,"ĠrithÃ¶f":6004,"ĠmjÃ³lkur":6005,"Ġgos":6006,"21":6007,"ĠbrÃ¡Ã°a":6008,"ĠEll":6009,"ĠtÃŃmabilinu":6010,"ĠorÃ°a":6011,"ilm":6012,"ĠKatrÃŃn":6013,"ĠKÃ³pavogi":6014,"ystu":6015,"ĠgÃ¶mul":6016,"Ġinnlend":6017,"eypis":6018,"Ġkapp":6019,"ĠBretlandi":6020,"alÃ¦k":6021,"Ġkvikmynda":6022,"Ġhind":6023,"ĠGuÃ°s":6024,"fara":6025,"Ã³sti":6026,"ĠSag":6027,"ĠÃºts":6028,"reiÃ°slu":6029,"vu":6030,"ĠMenningar":6031,"ĠvÃ¦ntanlega":6032,"ĠÃ¡lykt":6033,"tÃ¦kni":6034,"Ġskemmtilega":6035,"erki":6036,"Ġvissulega":6037,"Ġbol":6038,"Ġnefnilega":6039,"ÃŃÃ°um":6040,"ĠÃ¡rabil":6041,"verpool":6042,"ĠMÃ¡r":6043,"Ġ65":6044,"Ġfela":6045,"Ġtutt":6046,"hÃ¶ll":6047,"ĠsvolÃŃtiÃ°":6048,"ĠmÃ¦lt":6049,"ĠuppfÃ¦r":6050,"ĠprÃ³fa":6051,"ĠÃŀarna":6052,"fundar":6053,"stigi":6054,"Ġeignast":6055,"ĠsamfÃ©lagi":6056,"ĠMyndin":6057,"Ġbirta":6058,"setningar":6059,"ennt":6060,"ĠBlÃ¡":6061,"mÃ¡li":6062,"ci":6063,"Ġsumum":6064,"ĠfÃ¦rÃ°":6065,"Ġspurningum":6066,"yrirtÃ¦kiÃ°":6067,"hi":6068,"ĠbÃ¡rust":6069,"efnis":6070,"Ã¡tta":6071,"Ġtann":6072,"krÃ³k":6073,"ĠSamfylk":6074,"bi":6075,"vet":6076,"Ġaustan":6077,"ĠFlat":6078,"ĠnotiÃ°":6079,"ĠhrÃ¦":6080,"ĠKann":6081,"ors":6082,"ĠtÃ¶luvert":6083,"unarf":6084,"Ġnokkurn":6085,"ĠbÃ³kinni":6086,"aflokki":6087,"hÃ¡skÃ³la":6088,"ĠHeilbrigÃ°i":6089,"ĠFÃ¡":6090,"Ġborgarinnar":6091,"ĠinnrÃ©tt":6092,"23":6093,"rÃ©ttir":6094,"ĠskoraÃ°i":6095,"Ġformlega":6096,"ney":6097,"Ġalmenning":6098,"Ġblogg":6099,"ĠHÃ¦star":6100,"Ã¦n":6101,"Ġspor":6102,"ĠsÃºkkul":6103,"Ġnam":6104,"ĠEgil":6105,"slÃ¶g":6106,"ĠaÃ°ilum":6107,"ĠfÃ¦st":6108,"Ġeignir":6109,"ĠgetaÃ°":6110,"ĠvÃ¶x":6111,"ĠÃ¡stÃ¦Ã°u":6112,"ileika":6113,"Ġgeim":6114,"stjÃ³rar":6115,"Ġsnyr":6116,"ĠKÃ³pavog":6117,"ĠsÃ½ndi":6118,"jÃ³na":6119,"ĠhraÃ°a":6120,"aldri":6121,"ĠLiverpool":6122,"menni":6123,"ĠÃįslenska":6124,"hÃºsnÃ¦Ã°i":6125,"rinu":6126,"Ġverkefninu":6127,"ĠÃŀÃ³tt":6128,"Ġmunn":6129,"Ġandlit":6130,"Ġhugsanlega":6131,"ĠSjÃºkra":6132,"Ġskuldbind":6133,"ĠsamÃ¾ykkir":6134,"agerÃ°ar":6135,"Ġleyfa":6136,"ĠfjÃ¶lmÃ¶r":6137,"Ġtjald":6138,"Ġth":6139,"ht":6140,"afram":6141,"ĠsamrÃ¡Ã°i":6142,"ĠsÃ½ni":6143,"Ġ39":6144,"Ġframh":6145,"Ġlifandi":6146,"Ġeinstaklingum":6147,"ĠÃŀr":6148,"Ġnokkrir":6149,"ĠHjal":6150,"Ġforeldrum":6151,"Ġoftar":6152,"tanir":6153,"Ġfangelsi":6154,"Ġfyrrum":6155,"Ġkleift":6156,"Ãºtvarp":6157,"ĠÃ¾Ã¶rfum":6158,"ĠGe":6159,"ĠÃŃslenskri":6160,"byl":6161,"ytj":6162,"Ġnemur":6163,"Ġfarin":6164,"Ġreka":6165,"ĠniÃ°urstaÃ°a":6166,"Ġkrabbamein":6167,"ĠÃ¡rÃ¡s":6168,"ĠsauÃ°":6169,"ĠskÃ½rt":6170,"ĠÃįsafjarÃ°arbÃ¦jar":6171,"tional":6172,"fariÃ°":6173,"stofnunar":6174,"ĠTF":6175,"staÃ°ar":6176,"Ġfur":6177,"ĠframhaldsskÃ³la":6178,"ĠSet":6179,"ĠskeiÃ°":6180,"ĠnÃ¡lÃ¦gt":6181,"ĠumsjÃ³n":6182,"leysi":6183,"ĠÃįtal":6184,"ĠkÃ¶rf":6185,"Ġerl":6186,"ĠÃ³m":6187,"umst":6188,"ĠsparisjÃ³Ã°":6189,"Ġkirkjunnar":6190,"lÃ¡t":6191,"ĠÃ¾Ã¡gu":6192,"Ã³li":6193,"ĠEvrÃ³pusambandsins":6194,"ĠUn":6195,"Ġunga":6196,"Ġjafna":6197,"Ġpar":6198,"ĠbragÃ°":6199,"ave":6200,"ĠhvÃŃt":6201,"eignar":6202,"Ã¶pp":6203,"ĠlÃ©st":6204,"ĠbauÃ°":6205,"ĠInga":6206,"ĠBjart":6207,"ĠAld":6208,"arkit":6209,"ĠsÃ©rstakt":6210,"ĠTr":6211,"ĠÃ½mislegt":6212,"rÃ¦num":6213,"Ġfagn":6214,"Ġborga":6215,"ĠlÃ¦kka":6216,"ĠÃĵlafs":6217,"Ġeyr":6218,"prÃ³":6219,"ĠsjÃ¡l":6220,"sset":6221,"Ġeinhvers":6222,"stefn":6223,"ĠsÃ½ndu":6224,"Ġmesta":6225,"ĠflÃ½":6226,"ĠplÃ¶n":6227,"Ġnefnt":6228,"ĠnÃ¦tur":6229,"ĠIceland":6230,"ĠfÃ¦Ã°u":6231,"Ġun":6232,"ĠHarÃ°ar":6233,"ilegan":6234,"NA":6235,"ĠEirÃŃk":6236,"Ġskylt":6237,"Ġverkefnisins":6238,"bolta":6239,"safni":6240,"ĠfrumsÃ½":6241,"ĠAkureyrar":6242,"Ġhlusta":6243,"verÃ°ur":6244,"Ġsamningi":6245,"ĠSand":6246,"ĠlÃŃkams":6247,"ĠfljÃ³tlega":6248,"ĠFrÃ©ttablaÃ°":6249,"agnir":6250,"Ġminnka":6251,"Ġskyldu":6252,"verÃ°um":6253,"alegt":6254,"ĠEyjaf":6255,"gÃ¶t":6256,"Ġhinsvegar":6257,"ĠRÃºnar":6258,"SS":6259,"ĠJÃ³nas":6260,"ĠforstjÃ³ri":6261,"ĠÃ¦tlaÃ°i":6262,"firÃ°inga":6263,"Ġeign":6264,"Ġ07":6265,"Ġmats":6266,"virkni":6267,"ĠaÃ°alfundi":6268,"ĠÃŀorvald":6269,"ĠlÃŃfinu":6270,"Ġlanda":6271,"ĠrauÃ°":6272,"fremur":6273,"ĠfjÃ¡rfestingar":6274,"Ġbotn":6275,"stand":6276,"ĠÃ¾riÃ°judaginn":6277,"2006":6278,"Ġskilningi":6279,"ilja":6280,"ĠÃ¶f":6281,"ĠsnÃ½st":6282,"ĠfjÃ¶lmiÃ°lum":6283,"ĠsagÃ°ist":6284,"ViÃ°":6285,"afÃ©lagsins":6286,"orp":6287,"orm":6288,"ĠMikilvÃ¦gt":6289,"ĠfÃŃkni":6290,"aldar":6291,"hlÃŃÃ°":6292,"tÃ¡n":6293,"Ġtilkynna":6294,"vinna":6295,"agr":6296,"Ġgerst":6297,"Ġsorg":6298,"27":6299,"IR":6300,"ĠliÃ°sins":6301,"ĠtÃ¶kum":6302,"Ġumtals":6303,"ĠhjÃ³na":6304,"ĠJesÃº":6305,"ĠLagt":6306,"Ġvelkomnir":6307,"Ã¶kv":6308,"Ġeinelti":6309,"Ġtug":6310,"ĠskÃ½ra":6311,"ĠaÃ°ferÃ°ir":6312,"Ġtilnefnd":6313,"ĠKristinn":6314,"rÃ¦ktar":6315,"Ġbilinu":6316,"otkun":6317,"ĠstarfsmÃ¶nnum":6318,"Ġgamall":6319,"ĠValur":6320,"ĠembÃ¦ttis":6321,"tÃŃu":6322,"ĠÃ¾roska":6323,"ĠGott":6324,"utÃŃma":6325,"veiÃ°i":6326,"ĠfÃ©lÃ¶g":6327,"Ġstigum":6328,"Ġatvinnurek":6329,"ĠsÃ½slum":6330,"Ġjafnan":6331,"Ġsla":6332,"ĠRaf":6333,"Ġhinir":6334,"Ã¶rk":6335,"ĠBlÃ¶nd":6336,"oli":6337,"Ġ58":6338,"Ġfylgt":6339,"ĠHÃ³lmavÃŃk":6340,"ĠferÃ°inni":6341,"agrein":6342,"ĠKF":6343,"Ġkallast":6344,"ĠbarÃ¡tt":6345,"ĠauglÃ½st":6346,"29":6347,"ulltrÃºar":6348,"Ã¾jÃ¡lfun":6349,"aset":6350,"Ã³met":6351,"Ġeinstaka":6352,"ĠleiÃ°andi":6353,"Ġverja":6354,"ĠÃ¡skor":6355,"ĠkvÃŃ":6356,"ĠsjÃ¡lfbÃ¦r":6357,"ĠsjÃ¡lfan":6358,"ĠAnnars":6359,"ĠgÃ¦Ã°i":6360,"tÃ³n":6361,"staf":6362,"ĠUnited":6363,"Ġba":6364,"illinn":6365,"ĠsviÃ°um":6366,"Ġvissi":6367,"ĠÃºtlit":6368,"ĠFjÃ³r":6369,"Ġstraum":6370,"ĠmÃ¡tti":6371,"ĠstÃ¶Ã°ugt":6372,"uÃ°a":6373,"Ġeflaust":6374,"Ġstarfsl":6375,"ĠneyÃ°ar":6376,"gleika":6377,"starfsemi":6378,"Ġskilning":6379,"Ġregl":6380,"Ġopnar":6381,"Ġstarfandi":6382,"ĠfjÃ¶lmarg":6383,"shÃ¦":6384,"kaÃ°":6385,"gun":6386,"ĠÃŃslenskt":6387,"Ġstiga":6388,"eiÃ°a":6389,"gri":6390,"smÃ¡lum":6391,"ĠdÃ¡l":6392,"ĠfÃ¦rt":6393,"ĠrÃ¦Ã°ir":6394,"ĠjÃ³lin":6395,"Ġinnkaup":6396,"ĠfjÃ¶lbreyt":6397,"our":6398,"sjÃ¡":6399,"Ġloks":6400,"ĠsamtÃŃm":6401,"erÃŃ":6402,"ĠEx":6403,"Ġloftslag":6404,"jist":6405,"ĠKjartan":6406,"Ġalmenna":6407,"ĠboÃ°a":6408,"Ġheilbrig":6409,"legrar":6410,"bu":6411,"jam":6412,"ĠKÃŃna":6413,"ĠÃ¾ÃŃnum":6414,"hrepps":6415,"stÃ¦Ã°u":6416,"ĠÃ¾Ã¡ttur":6417,"ĠFundargerÃ°":6418,"jarna":6419,"Ġlei":6420,"speg":6421,"Ġstuttu":6422,"ĠHefur":6423,"skipt":6424,"tÃŃmi":6425,"Ġcm":6426,"vÃ¶rur":6427,"Ġspreng":6428,"Ġlengd":6429,"arÃ¡Ã°s":6430,"ĠmeÃ°hÃ¶nd":6431,"Ġmak":6432,"ĠleikiÃ°":6433,"ĠrÃ¦Ã°ur":6434,"ĠHa":6435,"umiÃ°":6436,"Ġ47":6437,"ĠlÃŃÃ°a":6438,"Ġreikning":6439,"ĠtÃ¡kn":6440,"ĠeyÃ°":6441,"insdÃ³ttir":6442,"ĠpÃ³litÃŃsk":6443,"Ġkynnast":6444,"arÃ°i":6445,"Ġstofnana":6446,"Ã°in":6447,"ĠgleÃ°i":6448,"Ġsitur":6449,"alÃŃf":6450,"ĠsÃŃfellt":6451,"ĠmÃ¶gulegt":6452,"ĠnÃ½rra":6453,"ugga":6454,"Ġhinnar":6455,"Ġ1993":6456,"Ġell":6457,"ĠframtÃŃÃ°inni":6458,"ĠsÃ¶kum":6459,"llinn":6460,"ĠsÃ½ning":6461,"ĠeÃ°lis":6462,"Ġtalsvert":6463,"vers":6464,"ĠMaÃ°ur":6465,"viliÃ°":6466,"ĠinnleiÃ°":6467,"ces":6468,"ĠÃ³hÃ¡Ã°":6469,"agjald":6470,"ĠmeÃ°altali":6471,"ĠumrÃ¦Ã°um":6472,"bakka":6473,"ĠlokaÃ°":6474,"ĠNA":6475,"ĠbeÃ°iÃ°":6476,"Ġkemst":6477,"Ġrennur":6478,"ĠevrÃ³p":6479,"ĠgÃ³Ã°ri":6480,"smÃ³t":6481,"Ġspar":6482,"ĠÃ¡kveÃ°num":6483,"als":6484,"Ġmenningu":6485,"Ġ00":6486,"Ġseint":6487,"ÃŃku":6488,"ĠBjÃ¶rk":6489,"dÃ¡":6490,"ĠmÃ¶gulega":6491,"ĠgerÃ°ur":6492,"ĠhundraÃ°":6493,"ĠlÃŃn":6494,"ĠverkiÃ°":6495,"ĠvirÃ°ingu":6496,"ĠSva":6497,"ĠNÃ½ja":6498,"EF":6499,"35":6500,"Ġgraf":6501,"gjafa":6502,"ĠhÃ©rlendis":6503,"ilegra":6504,"ansi":6505,"ĠMÃ³t":6506,"Ġmin":6507,"ĠaÃ°stand":6508,"ĠendurskoÃ°un":6509,"ÃºtgÃ¡":6510,"ĠstÃ½ri":6511,"ĠAir":6512,"ĠathÃ¶fn":6513,"Ġleyf":6514,"Ġplast":6515,"ĠvakiÃ°":6516,"ĠvirÃ°i":6517,"lagt":6518,"Ġ1994":6519,"brÃºn":6520,"ĠlÃ¶greglum":6521,"Ġstofu":6522,"Ġgeyma":6523,"ĠBreyt":6524,"andair":6525,"ÃŃmu":6526,"Ġ89":6527,"bÃºnaÃ°ur":6528,"lingum":6529,"ĠIngÃ³lf":6530,"Ġforystu":6531,"Ġband":6532,"ĠstefnumÃ³t":6533,"ttu":6534,"ĠÃ¾votta":6535,"kerfinu":6536,"konu":6537,"ĠDagskrÃ¡":6538,"ĠgreiÃ°slur":6539,"ĠfÃ³l":6540,"sleiÃ°":6541,"Ġbyggingu":6542,"ĠlagiÃ°":6543,"ĠÃ¡s":6544,"ĠskÃ¡l":6545,"ĠDÃ½r":6546,"ĠSveitar":6547,"ĠdrÃ³":6548,"Ġrig":6549,"flu":6550,"ĠskiliÃ°":6551,"spil":6552,"Ã¦rum":6553,"vÃ¦Ã°":6554,"stjÃ³rinn":6555,"skjÃ¡lf":6556,"Ġtvisvar":6557,"bÃ¦ra":6558,"Ġrefs":6559,"ĠOrku":6560,"kvÃ¦ma":6561,"upa":6562,"Ġerlendra":6563,"alÃ½Ã°":6564,"ĠhÃ¦fi":6565,"vÃ¶x":6566,"ĠHÃºsa":6567,"Ġskrifstof":6568,"ĠMun":6569,"ĠâĨ":6570,"ĠGuÃ°mundsdÃ³ttir":6571,"Ġallri":6572,"ĠAm":6573,"hljÃ³Ã°":6574,"ĠhegÃ°un":6575,"jer":6576,"fÃ©laga":6577,"RA":6578,"ĠPat":6579,"ĠmÃ¡nudag":6580,"ĠsÃ³larhring":6581,"Ã¡mi":6582,"ĠmÃ¦ttu":6583,"ĠskjÃ¡lf":6584,"ĠsÃ¶gur":6585,"ĠtÃ³lf":6586,"Ġuppruna":6587,"ĠPÃ©tursson":6588,"ĠskoÃ°anir":6589,"ith":6590,"berandi":6591,"ldi":6592,"Ġmyndin":6593,"aÃ°ilar":6594,"ĠafmÃ¦lis":6595,"ĠhjÃºkrunarfrÃ¦Ã°":6596,"Ġhaldi":6597,"Ġhorft":6598,"ĠâĨĴ":6599,"Ġsamtakanna":6600,"ĠalÃ¾jÃ³Ã°lega":6601,"ĠSkil":6602,"ama":6603,"Ġbankanna":6604,"amlega":6605,"Ġsemja":6606,"rufl":6607,"ĠLaugardal":6608,"ĠhÃ¦fni":6609,"bre":6610,"ĠÃ¡kvÃ¶rÃ°":6611,"linu":6612,"ĠhryÃ°ju":6613,"ĠnÃ½tingu":6614,"affi":6615,"Ġvelta":6616,"ĠsamrÃ¡Ã°":6617,"ĠalvÃ¶ru":6618,"ĠalgjÃ¶rlega":6619,"ĠveiÃ°a":6620,"bankinn":6621,"ĠstarfsmaÃ°ur":6622,"ĠsuÃ°":6623,"ingja":6624,"ĠsvaraÃ°i":6625,"Ġsegi":6626,"Ġ1990":6627,"kennara":6628,"ĠAg":6629,"ĠÃ³viss":6630,"ĠstuÃ°nings":6631,"aÃ°ra":6632,"ĠhÃ¡Ã°":6633,"Ã¦tur":6634,"ssÃ½":6635,"Ġinnri":6636,"ĠgrÃ¦nmeti":6637,"ĠlÃ¡na":6638,"Ġfasteigna":6639,"enta":6640,"ĠGÃŃsl":6641,"Ġmer":6642,"ĠEkkert":6643,"ostnaÃ°ur":6644,"luÃ°um":6645,"Ġstill":6646,"Ġgestir":6647,"ĠframkvÃ¦mdastjÃ³ra":6648,"EN":6649,"ĠhjÃ³n":6650,"Ġgreind":6651,"Ġuppsetningu":6652,"slegu":6653,"jÃ¶k":6654,"ĠÃ¾jÃ³Ã°in":6655,"Ġsettur":6656,"nÃº":6657,"IÃĲ":6658,"varnir":6659,"ĠEggert":6660,"ĠsjÃ¡lfir":6661,"Ġmm":6662,"Ġhinni":6663,"Ġeinkenn":6664,"Ġeinhverja":6665,"Ġhagsmun":6666,"ĠhÃ¦rra":6667,"Ġ57":6668,"ĠÃ¡stÃ¦Ã°ur":6669,"lingur":6670,"alaus":6671,"Ġ1991":6672,"Ġgif":6673,"Ġkyr":6674,"Ġverka":6675,"Ġferm":6676,"Ġkarlar":6677,"jÃ¶kul":6678,"Ġendursk":6679,"ĠsvÃ¦Ã°is":6680,"ĠEnginn":6681,"blÃ¶Ã°":6682,"Ġaldrinum":6683,"jarf":6684,"ĠList":6685,"ĠsamiÃ°":6686,"ĠHring":6687,"ĠkostnaÃ°i":6688,"Ġtey":6689,"Ġgildandi":6690,"Ġlangan":6691,"iskup":6692,"Ġmundi":6693,"slug":6694,"ĠÃ³keypis":6695,"ĠyfirborÃ°":6696,"ĠSama":6697,"ĠbÃºast":6698,"Ġpre":6699,"Ġofur":6700,"ĠvinnumarkaÃ°i":6701,"Ġgleym":6702,"ĠbÃ¦jarins":6703,"ĠlÃ¦gri":6704,"ĠmÃ³Ã°ir":6705,"ĠÃ³n":6706,"ĠReykjavÃŃkurborgar":6707,"Ġalmann":6708,"ĠferÃ°ir":6709,"Ġbyrjar":6710,"ĠÃ¾Ã¦ttir":6711,"Ġheimildir":6712,"ĠskÃ¶mmu":6713,"Ġdagur":6714,"Ġkallar":6715,"leikur":6716,"ĠFjÃ¶ldi":6717,"ĠbrauÃ°":6718,"Ã¶fnunar":6719,"afniÃ°":6720,"kall":6721,"Ġkirk":6722,"ĠBjarnason":6723,"gjaf":6724,"ĠmÃ¶rkum":6725,"ĠhjÃºkrunar":6726,"ĠbÃ¡Ã°ir":6727,"ĠVÃŃ":6728,"ĠMatvÃ¦":6729,"ĠviÃ°skipti":6730,"drÃ¦":6731,"ĠsvÃ¦Ã°um":6732,"ii":6733,"ddum":6734,"ĠÃ¾ak":6735,"ĠIcelandair":6736,"alaga":6737,"ĠÃ¦tlum":6738,"Ġfalli":6739,"ĠTrum":6740,"Ġheila":6741,"lt":6742,"sstofnun":6743,"ĠfiskveiÃ°":6744,"ĠFormaÃ°ur":6745,"ĠgagnrÃ½ni":6746,"kra":6747,"Ġerind":6748,"ĠPress":6749,"ĠsÃºr":6750,"ĠSumir":6751,"Ġbrug":6752,"Ġhugsun":6753,"ĠEm":6754,"ĠRÃ¡Ã°herra":6755,"Ġefstu":6756,"ĠdauÃ°a":6757,"ĠHval":6758,"ĠSamfylkingarinnar":6759,"ĠsÃ¶gÃ°u":6760,"Ġgreinilega":6761,"Ġefri":6762,"Ġvilt":6763,"Ġpla":6764,"ĠtÃŃmanum":6765,"2003":6766,"ĠgÃ³lf":6767,"Ġrenna":6768,"Ġvildu":6769,"ferÃ°is":6770,"ĠbÃ¦tir":6771,"ĠsvaraÃ°":6772,"virkjun":6773,"Ġleitast":6774,"ĠKeflavÃŃkur":6775,"ĠAnnaÃ°":6776,"frÃ¦Ã°ingar":6777,"Ġmi":6778,"Ġvonandi":6779,"verslun":6780,"skiptum":6781,"sinn":6782,"ĠhrÃ³":6783,"Ġeinken":6784,"mum":6785,"ĠHjÃ¶r":6786,"ÃĨ":6787,"teg":6788,"hugs":6789,"Ġhaldnir":6790,"ĠstarfaÃ°i":6791,"skirkju":6792,"ĠHjÃ¡":6793,"ĠfalliÃ°":6794,"ĠeldhÃºs":6795,"alegu":6796,"ĠfulltrÃºi":6797,"afjÃ¶l":6798,"ĠSkrif":6799,"ĠÃŀriÃ°":6800,"ĠvÃŃsar":6801,"ko":6802,"Ġathyglis":6803,"ĠJÃ³hannesson":6804,"Ġ85":6805,"ĠAth":6806,"Ġheimsm":6807,"smiÃ°ju":6808,"nanna":6809,"Ġupplifun":6810,"heiÃ°ur":6811,"rÃ¶Ã°":6812,"Ġvexti":6813,"ĠFariÃ°":6814,"elsis":6815,"ĠÃ¡hÃ¦tt":6816,"Ġvefnum":6817,"ĠÃ¦fing":6818,"efnin":6819,"SK":6820,"jÃ³msveit":6821,"Ġalmanna":6822,"Ġheita":6823,"Ã¶fnu":6824,"bol":6825,"hita":6826,"vott":6827,"ĠEd":6828,"Ġdaglega":6829,"Ġmyndina":6830,"ĠkÃ¦mi":6831,"ĠfÃ¦rri":6832,"Ġkynnti":6833,"veig":6834,"ĠHarald":6835,"ĠsamhliÃ°a":6836,"ÃŃtiÃ°":6837,"ĠtÃ¶lul":6838,"Ġsaf":6839,"Ġsundlaug":6840,"lÃ¦":6841,"ĠÃ¡framhald":6842,"Ġlofti":6843,"ĠhÃ©ldu":6844,"ĠkynferÃ°i":6845,"ĠSuÃ°urlands":6846,"ĠlÃ¶greglunnar":6847,"ĠSigrÃºn":6848,"Ġhverjir":6849,"ĠskilaboÃ°":6850,"Ġhross":6851,"Ġberjast":6852,"Ġeinang":6853,"legs":6854,"Ã³lfur":6855,"ĠfÃ³stur":6856,"Ġbolt":6857,"alÃ¡nas":6858,"ĠrÃ¡Ã°staf":6859,"ĠlÃŃnu":6860,"ĠHÃ³p":6861,"Ġforset":6862,"Ġhandtek":6863,"ĠMart":6864,"nÃ¡mi":6865,"fÃ©":6866,"Ġvirkilega":6867,"aleiÃ°":6868,"ĠIngibjÃ¶rg":6869,"Ġathugasemdum":6870,"Ġan":6871,"Ġbreyst":6872,"ĠÃ³venju":6873,"kkaÃ°":6874,"ĠrÃ¡Ã°iÃ°":6875,"asÃ½":6876,"helgis":6877,"Ġfengum":6878,"Ġklst":6879,"ĠSvar":6880,"Ġtengja":6881,"Ġvirkni":6882,"ĠjÃ¶kul":6883,"Ġ67":6884,"vÃ¦Ã°i":6885,"ĠTel":6886,"Ġallur":6887,"ĠtÃŃmarit":6888,"ĠMjÃ¶g":6889,"astarf":6890,"ĠHo":6891,"jÃ¡rn":6892,"ĠBi":6893,"greidd":6894,"2005":6895,"ack":6896,"tÃ¶kur":6897,"lags":6898,"ĠframhjÃ¡":6899,"Ġstofna":6900,"ĠsjÃ¡lft":6901,"fÃ©laginu":6902,"Ġheill":6903,"ĠlÃŃtill":6904,"ĠkrÃ¶fum":6905,"bbameins":6906,"hafi":6907,"Ġsvarar":6908,"ĠvefsÃŃÃ°u":6909,"sÃ³knir":6910,"Ġstefnd":6911,"ĠFljÃ³t":6912,"ĠsjÃºklinga":6913,"ĠÃ¾ykk":6914,"ĠgerÃ°ir":6915,"gildi":6916,"Ġmyn":6917,"fan":6918,"ĠGuÃ°laug":6919,"ĠstjÃ¶rnu":6920,"ĠIÃ°":6921,"ĠPÃ¡lsson":6922,"veriÃ°":6923,"ĠÃ¶nd":6924,"Ã¡Ã°s":6925,"ĠefniÃ°":6926,"rÃŃku":6927,"ĠskoÃ°aÃ°":6928,"Ġ84":6929,"ĠafleiÃ°ingar":6930,"lym":6931,"stum":6932,"Ã¶nnuÃ°":6933,"bÃŃl":6934,"ĠSkÃ³g":6935,"ĠÃ¡berandi":6936,"ĠEB":6937,"Ġvakti":6938,"ĠParÃŃs":6939,"ĠNoreg":6940,"Ġhorn":6941,"ĠmÃŃnÃºtu":6942,"Ġkennarar":6943,"ĠvoriÃ°":6944,"Ġnotar":6945,"sÃ¶lu":6946,"Ġmannvirk":6947,"ĠÃ¾Ã¡ttum":6948,"ĠbjÃ³r":6949,"ĠmeÃ°li":6950,"ĠkostnaÃ°ur":6951,"Ġpapp":6952,"ani":6953,"stÃ¦Ã°ur":6954,"ildar":6955,"ĠsÃ½nd":6956,"Ãīg":6957,"shaf":6958,"ĠlÃŃfeyrissjÃ³Ã°":6959,"vÃ¦n":6960,"amat":6961,"Ã¶fur":6962,"Ġforsendum":6963,"ĠfrumkvÃ¦Ã°i":6964,"vatni":6965,"ĠtÃ¶lvupÃ³sti":6966,"sÃ¶gum":6967,"ĠvÃ¡trygg":6968,"Ġkeppa":6969,"ĠtÃ¶lur":6970,"ĠSamtÃ¶k":6971,"ĠhljÃ³m":6972,"ĠNÃ¡nar":6973,"ĠHannes":6974,"ĠfjÃ³rir":6975,"ena":6976,"ĠBri":6977,"ĠÃįbÃºÃ°alÃ¡nas":6978,"Ġarkit":6979,"ĠLu":6980,"Ġ86":6981,"ion":6982,"ĠKeflavÃŃk":6983,"Ġinnflutning":6984,"stÃ¶Ã°vum":6985,"ĠmilljarÃ°ar":6986,"osningar":6987,"kunn":6988,"mist":6989,"ĠsÃ½ningunni":6990,"ĠniÃ°":6991,"flytj":6992,"36":6993,"ĠvÃŃg":6994,"falli":6995,"ĠÃ³dÃ½r":6996,"Ġeinstaklega":6997,"ĠskjÃ³l":6998,"ĠfaÃ°ir":6999,"Ġskemmti":7000,"Ġeinstakra":7001,"Ġfasteignas":7002,"tas":7003,"leys":7004,"verja":7005,"Ġspjall":7006,"ĠÃ¡grein":7007,"Ġloknu":7008,"ĠfÃ¦rni":7009,"Ġvona":7010,"ĠbÃºnir":7011,"ĠumrÃ¦Ã°a":7012,"punk":7013,"samlega":7014,"Ġpeninga":7015,"Ġbarns":7016,"Ġmissa":7017,"ĠarÃ°":7018,"ĠgÃ¦tt":7019,"ĠdÃ³mi":7020,"ÃŃÃ°unni":7021,"ĠsamtÃ¶k":7022,"frum":7023,"oÃ°iÃ°":7024,"Ġgreinum":7025,"ON":7026,"Ġgestum":7027,"Ġgrip":7028,"Ġkveik":7029,"ferÃ°a":7030,"sviÃ°s":7031,"Ġkeypti":7032,"ĠstÃŃl":7033,"ĠHÃ¶rpu":7034,"ĠStefÃ¡nsson":7035,"birg":7036,"Ġsennilega":7037,"Ġfest":7038,"ĠklÃ¡ra":7039,"atil":7040,"valla":7041,"Ġmel":7042,"ĠtÃ¦kn":7043,"verÃ°ar":7044,"brey":7045,"afyrirtÃ¦ki":7046,"ĠLÃ¶gÃ°":7047,"Ġhelsta":7048,"lyndi":7049,"ĠForeldrar":7050,"ĠfundargerÃ°":7051,"gjafi":7052,"yfirvÃ¶ld":7053,"ĠlÃ¦kna":7054,"ĠliÃ°ur":7055,"Ġgesta":7056,"ĠundirbÃºa":7057,"heit":7058,"ĠnÃ¡grenni":7059,"ĠliÃ°inu":7060,"Ġafs":7061,"horn":7062,"ĠkÃ¦ru":7063,"Ġkennt":7064,"ĠLÃ¡ru":7065,"ĠStÃ¶Ã°":7066,"Ġskyldur":7067,"ĠSelfossi":7068,"ĠSauÃ°Ã¡r":7069,"ĠSkÃ³l":7070,"ĠrÃ¦ddi":7071,"kirkju":7072,"ĠhlutabrÃ©f":7073,"amaÃ°urinn":7074,"ĠstarfsfÃ³lki":7075,"ĠÃ¡vÃ¶x":7076,"Ġvaf":7077,"ĠAu":7078,"ĠFÃ©lagiÃ°":7079,"ĠnÃ¡i":7080,"deildinni":7081,"2004":7082,"ĠFull":7083,"Ġbjart":7084,"ĠrÃ¦Ã°u":7085,"ĠGuÃ°nÃ½":7086,"ĠmÃ¦list":7087,"ĠÃ½mist":7088,"ĠhÃ³pnum":7089,"ĠVor":7090,"ĠÃģsta":7091,"ĠbÃ³l":7092,"ĠverÃ°launa":7093,"ppa":7094,"Ġendurspeg":7095,"arfirÃ°i":7096,"ĠverÃ°trygg":7097,"fylgjandi":7098,"ĠCom":7099,"ÃŃel":7100,"ĠjÃ¶k":7101,"Ġgefst":7102,"ĠKannski":7103,"ddar":7104,"ĠÃ¡rsreik":7105,"essu":7106,"Ġrekur":7107,"ĠHauk":7108,"ĠSigf":7109,"Ġfiski":7110,"ĠMc":7111,"ĠstjÃ³rnmÃ¡la":7112,"Ġvikna":7113,"Ã¦la":7114,"Ġnefndin":7115,"pan":7116,"Ġneit":7117,"Ġatvik":7118,"frÃ¦Ã°ing":7119,"vÃ©lar":7120,"veitu":7121,"helgisgÃ¦":7122,"Ġmeirihluta":7123,"ĠFrey":7124,"hÃ¡l":7125,"ĠumfjÃ¶llunar":7126,"ĠbÃ¦ti":7127,"afÃ©lÃ¶g":7128,"Ġlanga":7129,"ĠlÃŃfeyris":7130,"Ġtilskip":7131,"ĠSauÃ°Ã¡rkrÃ³k":7132,"ĠÃģrnason":7133,"ĠMosfells":7134,"Ġvirkar":7135,"Ġhvat":7136,"Ã¡Ã°i":7137,"ĠGri":7138,"ĠfrÃ¡bÃ¦rt":7139,"ĠLax":7140,"Ġleyfis":7141,"ĠheimsÃ³tt":7142,"Ġstarfsem":7143,"ĠAlex":7144,"ĠkjÃ¶t":7145,"Ġframmi":7146,"ĠStundum":7147,"Ġhvattir":7148,"ĠÃºthlutun":7149,"ĠmilljÃ¶rÃ°um":7150,"ĠEF":7151,"lei":7152,"Ġeinb":7153,"ĠStur":7154,"Ġvitni":7155,"Ġansi":7156,"Ġven":7157,"Ġork":7158,"ĠÃ¾ings":7159,"Ġdvel":7160,"lok":7161,"Ġkynningu":7162,"ĠSta":7163,"ĠrÃŃkisstjÃ³rnarinnar":7164,"ĠAlÃ¾Ã½Ã°u":7165,"ĠblÃ¶Ã°":7166,"ĠSparis":7167,"ĠÃ¶Ã°ruvÃŃsi":7168,"ĠmarkmiÃ°um":7169,"Ġafur":7170,"Ġbreytinga":7171,"Ã¾ykkt":7172,"ĠÃ¡rangurs":7173,"Ġvini":7174,"Ġstopp":7175,"ĠstÃ¶kk":7176,"Ġvenjulega":7177,"Ġkast":7178,"sneyti":7179,"Ġsalt":7180,"ĠsjÃºkling":7181,"arÃŃk":7182,"afur":7183,"ĠhÃ¦st":7184,"ÃŃfi":7185,"ĠfjÃ³rar":7186,"ĠTÃ¶l":7187,"ĠHalldÃ³rsson":7188,"ĠhÃ¡degi":7189,"ĠreglugerÃ°ar":7190,"Ġfly":7191,"ĠeyÃ°a":7192,"ĠÃŃbÃºar":7193,"ĠUndan":7194,"stuÃ°":7195,"ĠHinn":7196,"ĠskÃŃr":7197,"vera":7198,"ĠniÃ°urstÃ¶Ã°um":7199,"Ġheilsug":7200,"ĠOl":7201,"sstjÃ³ri":7202,"ĠPÃŃrata":7203,"vind":7204,"Ġhreyfingu":7205,"ĠÃ¡gÃ¦t":7206,"ĠFlestir":7207,"Ġeftirlits":7208,"Ġraforku":7209,"deginum":7210,"ĠLag":7211,"ĠJesÃºs":7212,"Ã³Ã°i":7213,"jÃ³ni":7214,"Ġvitum":7215,"Ġ42":7216,"Ġelska":7217,"ĠfÃ¦ddist":7218,"Ġtim":7219,"ĠÃįslensk":7220,"ĠElÃŃ":7221,"ĠjafnrÃ©ttis":7222,"ĠlesiÃ°":7223,"Ġframangreind":7224,"ĠHafi":7225,"Ġhugmyndum":7226,"ĠUM":7227,"Ġsmella":7228,"ĠHÃºsiÃ°":7229,"ĠmÃº":7230,"Ġhlutir":7231,"Ġfyrirfram":7232,"ĠlÃŃklegt":7233,"ĠNÃ¡ttÃºru":7234,"ĠHÃ¡l":7235,"Ġhlutum":7236,"ĠSkot":7237,"lunni":7238,"ĠsamfÃ©lagsins":7239,"Ġch":7240,"Ã°iÃ°":7241,"vÃŃsun":7242,"heimilt":7243,"ĠbrotiÃ°":7244,"ĠkÃ¦runefnd":7245,"ĠrÃ©tti":7246,"ĠfÃ©lÃ¶gum":7247,"ĠskÃ³lum":7248,"ĠMich":7249,"ĠAmer":7250,"ĠnÃ½justu":7251,"mennsku":7252,"blaÃ°i":7253,"ĠfrjÃ¡ls":7254,"vari":7255,"ĠBenediktsson":7256,"ĠaÃ°stoÃ°a":7257,"snefndar":7258,"Ġaugu":7259,"svÃ¦Ã°inu":7260,"ĠstrÃ¡k":7261,"ĠsamfÃ©lagiÃ°":7262,"ĠhÃ©t":7263,"Ġvegi":7264,"lugerÃ°":7265,"ĠÃ¡framhaldandi":7266,"ĠviÃ°skipt":7267,"ĠnÃ½skÃ¶punar":7268,"ĠÃŀrÃ³":7269,"engja":7270,"smeÃ°ferÃ°":7271,"varna":7272,"ĠÃ¾Ã¡tta":7273,"ĠTÃ³nlistar":7274,"ĠÃ¡stÃ¦Ã°um":7275,"Ġbeina":7276,"Ġta":7277,"Ġvekur":7278,"Ã¶gnun":7279,"Ġyfirlit":7280,"ĠLjÃ³smynd":7281,"ĠVik":7282,"ritun":7283,"Ġtuttugu":7284,"ilÃŃf":7285,"Ġbirti":7286,"ĠmenntamÃ¡l":7287,"ĠstarfiÃ°":7288,"Ġsamhl":7289,"ĠGÃ³Ã°":7290,"ĠTÃ³mas":7291,"hall":7292,"Ġskel":7293,"sleit":7294,"ĠleiÃ°arl":7295,"Ġbla":7296,"Ġalvarlega":7297,"jÃ³ti":7298,"rÃ¡Ã°uneytiÃ°":7299,"gju":7300,"UM":7301,"Ġstur":7302,"ĠstoÃ°":7303,"Ġapp":7304,"ĠhagkvÃ¦m":7305,"fÃ¡":7306,"ĠrÃ³t":7307,"ĠSveinbjÃ¶rn":7308,"Ġmundir":7309,"slok":7310,"Ġheiminn":7311,"Ġskammt":7312,"ĠsvÃŃ":7313,"reins":7314,"exti":7315,"Ġ1992":7316,"ĠMinn":7317,"Ġstyrki":7318,"ĠsannfÃ¦r":7319,"Ġdau":7320,"Ġforsendur":7321,"ĠKonur":7322,"ĠferÃ°alag":7323,"verjar":7324,"drag":7325,"ĠkvÃ¶ldiÃ°":7326,"Ġframundan":7327,"ĠLiÃ°":7328,"Ã¾Ã¦tti":7329,"ĠÃ¡Ã¦tlanir":7330,"ĠmiÃ°jan":7331,"brÃº":7332,"ĠstjÃ³rnarskrÃ¡r":7333,"Ġgesti":7334,"len":7335,"ĠÃ³Ã¾Ã¦g":7336,"55":7337,"Ġhlaupa":7338,"ĠviÃ°urkenningu":7339,"ĠÃ¡gÃ¦":7340,"ĠmÃ¦tir":7341,"ĠnÃ¦stum":7342,"ĠtÃ½":7343,"ĠfatlaÃ°":7344,"stÃ¶Ã°in":7345,"ĠtÃ¦":7346,"Ġlistamenn":7347,"Ġmenning":7348,"lustu":7349,"Ġhvetur":7350,"Ġtilkynn":7351,"ĠÃļtl":7352,"ĠKirkju":7353,"ĠtÃ³":7354,"ĠmÃ¡lefnum":7355,"Ã°ra":7356,"ĠÃ¾rÃ½st":7357,"Ġ!!":7358,"reisn":7359,"ĠÃ¦fa":7360,"ĠÃ¾Ã½Ã°ingu":7361,"ĠgrÃŃpa":7362,"vÃ¶llur":7363,"bÃ¦tt":7364,"anÃ¡m":7365,"ĠmiÃ°vikudag":7366,"Ġgul":7367,"ĠÃºtflutning":7368,"Ġ78":7369,"ĠyfirlÃ½singu":7370,"ritiÃ°":7371,"ĠhÃ¦kkaÃ°":7372,"ĠFjall":7373,"ĠrÃ½mi":7374,"skan":7375,"ĠTak":7376,"Ġmannsins":7377,"ĠfyrirtÃ¦kinu":7378,"Ġrekstr":7379,"ĠmÃ³tiÃ°":7380,"ĠmÃ³ta":7381,"Ġleikjum":7382,"ĠvirÃ°is":7383,"ĠstaÃ°an":7384,"Ġalmenningi":7385,"Ġreynst":7386,"ĠAlÃ¾jÃ³Ã°a":7387,"ĠHÃ©raÃ°sdÃ³m":7388,"ĠumsÃ³knir":7389,"Ġ49":7390,"fyrirtÃ¦k":7391,"stofan":7392,"ĠglÃ¦p":7393,"Ġafhent":7394,"ĠHvaÃ°a":7395,"44":7396,"ĠalÃ¾ingis":7397,"Ã¦li":7398,"afÃ³lks":7399,"Ã¶dd":7400,"ĠbÃ³kina":7401,"ĠlÃ¶ng":7402,"Ġtillaga":7403,"ĠskilyrÃ°um":7404,"Ġsundur":7405,"Ġmunur":7406,"ĠrÃ¡Ã°stefnu":7407,"33":7408,"skÃ¡l":7409,"ĠTveir":7410,"Ġfata":7411,"jug":7412,"Ġfinnur":7413,"ĠPer":7414,"off":7415,"ĠbÃ¦ndur":7416,"ĠframkvÃ¦mdar":7417,"ĠleiÃ°beiningar":7418,"ĠviÃ°halda":7419,"ĠKana":7420,"ĠlÃ¶gin":7421,"ĠbÃ¦k":7422,"press":7423,"ĠfjÃ³ra":7424,"Ġkyns":7425,"Ġupplifa":7426,"ĠJÃ³hanna":7427,"bÃºÃ°um":7428,"Ġtrygging":7429,"ÃŃni":7430,"ĠMorgunblaÃ°inu":7431,"Ġfrelsi":7432,"styrk":7433,"Ġlandslag":7434,"Ġlokinni":7435,"Ġnokkurra":7436,"ĠkÃ¦ra":7437,"Ġ69":7438,"ĠhafnaÃ°":7439,"van":7440,"ĠdÃ³mstÃ³l":7441,"Ġhelgar":7442,"ĠskipiÃ°":7443,"ĠsamfÃ©lagsmiÃ°":7444,"Ġvart":7445,"ĠKaupmannahÃ¶fn":7446,"ĠkÃŃlÃ³met":7447,"veik":7448,"stÃ¦Ã°an":7449,"Ġspurningu":7450,"ĠsjÃ¡lfu":7451,"Ġalger":7452,"herberg":7453,"osning":7454,"ĠLandhelgisgÃ¦":7455,"Ġgalla":7456,"ĠuppgÃ¶t":7457,"ĠSiglu":7458,"Ã³tta":7459,"Ġon":7460,"ĠÃ¾ekkingar":7461,"ĠhÃ¶gg":7462,"Ã¶stu":7463,"ĠfÃ©lagsmanna":7464,"ĠMikiÃ°":7465,"ĠHafnarfjarÃ°ar":7466,"ĠsamÃ¾ykkti":7467,"ĠÃĸn":7468,"lunum":7469,"fit":7470,"ĠâĢĺ":7471,"ĠSil":7472,"ĠEM":7473,"Ġgleyma":7474,"sgjald":7475,"ĠÃºtil":7476,"Ġfj":7477,"amp":7478,"Ġhinar":7479,"ĠverÃ°mÃ¦ti":7480,"ĠtrjÃ¡":7481,"ÃŃtar":7482,"ĠMÃ¶r":7483,"ĠatkvÃ¦Ã°a":7484,"ĠFyrst":7485,"Ġgra":7486,"ĠÃŃbÃºÃ°ir":7487,"ĠPet":7488,"ĠFrakklandi":7489,"ĠMM":7490,"ĠframbjÃ³Ã°":7491,"hÃ³la":7492,"Ġpark":7493,"Ġauknum":7494,"mÃ¦la":7495,"ĠstjÃ³rnmÃ¡laflokk":7496,"ĠrÃŃkja":7497,"ĠSamtaka":7498,"Ġ....":7499,"liÃ°aleik":7500,"ĠsjÃ¡um":7501,"byrgÃ°":7502,"ĠAkranesi":7503,"ĠKepp":7504,"tÃ³":7505,"ĠMS":7506,"Ã¡rs":7507,"ĠsÃ¶gunnar":7508,"drÃ¡ttar":7509,"ĠVestmannaeyjum":7510,"ĠSÃ©rstak":7511,"Ġleiddi":7512,"ĠÃºtsÃ½ni":7513,"skÃºr":7514,"ĠlÃ¶gÃ°u":7515,"ingastofnun":7516,"ĠÃ½msa":7517,"ĠAlÃ¾jÃ³Ã°":7518,"ttar":7519,"ĠrjÃ³":7520,"ĠhundruÃ°":7521,"arÃ°a":7522,"Ã¦riÃ°":7523,"ĠstjÃ³rnendur":7524,"ĠsjÃ¡lfa":7525,"sig":7526,"tÃŃmabil":7527,"hÃ¦ttu":7528,"ĠCar":7529,"ĠÃŀorlÃ¡":7530,"Ġnu":7531,"Ġopinberra":7532,"ssviÃ°":7533,"Ġtilnef":7534,"ennslu":7535,"ĠSpur":7536,"ĠÃŀeim":7537,"ĠFramsÃ³knarflokksins":7538,"Ġkynnir":7539,"Ġhvergi":7540,"Ġveruleika":7541,"ĠvÃŃÃ°ar":7542,"kor":7543,"ĠfÃ¡st":7544,"Ġ188":7545,"âĢ¦âĢ¦":7546,"ĠmiÃ°la":7547,"Ġmarki":7548,"ĠkÃ¦rÃ°a":7549,"Ġkring":7550,"vegur":7551,"ĠMel":7552,"Ã¶flum":7553,"ĠstjÃ³rna":7554,"ĠÃºtskÃ½r":7555,"ĠMegin":7556,"ĠSkÃ¡l":7557,"ĠSvavar":7558,"Ġbind":7559,"myndin":7560,"smann":7561,"ĠÃ¾ÃŃna":7562,"ren":7563,"skÃ½rslu":7564,"notkun":7565,"ĠHand":7566,"sambands":7567,"Ġsameiginlegt":7568,"Ġ01":7569,"ĠrÃ¡Ã°stÃ¶f":7570,"ĠsamstÃ¶Ã°u":7571,"ĠTrump":7572,"Ġloknum":7573,"ĠSunnu":7574,"Ġsamningur":7575,"ĠGunnarsdÃ³ttir":7576,"ĠhÃ©raÃ°sdÃ³m":7577,"keppnis":7578,"brag":7579,"Ġslag":7580,"Ġtilgang":7581,"ĠsÃ³":7582,"Ġeigendur":7583,"Ġca":7584,"Ã¦lt":7585,"ment":7586,"ĠHe":7587,"torg":7588,"Ġfagna":7589,"ĠleiÃ°to":7590,"ĠHn":7591,"Ġ59":7592,"ĠlÃŃtur":7593,"ginn":7594,"Ġnefni":7595,"ĠDi":7596,"ĠendaÃ°i":7597,"ĠEru":7598,"ĠmiÃ°ju":7599,"ĠMarkmiÃ°iÃ°":7600,"smÃ¡larÃ¡Ã°herra":7601,"ĠEngin":7602,"hreppi":7603,"Ġeigandi":7604,"ĠÃįtalÃŃu":7605,"nÃ¡mskeiÃ°":7606,"ĠhliÃ°sjÃ³n":7607,"UN":7608,"Ġkrefst":7609,"ĠfÃ©lagi":7610,"ĠLind":7611,"ĠÃ¾ingi":7612,"ĠbyrjaÃ°":7613,"ĠskipuÃ°":7614,"ĠvÃŃsu":7615,"ĠÃºtivist":7616,"ĠâĢĻ":7617,"ĠklÃºbb":7618,"ĠHjar":7619,"atur":7620,"Ġformanns":7621,"Ġheyrt":7622,"lausn":7623,"ĠVerkefniÃ°":7624,"ĠÃºtgef":7625,"ĠstÃ³rkost":7626,"vÃŃsu":7627,"strÃ¦ti":7628,"Ġflytur":7629,"Ġdul":7630,"Ġ54":7631,"kennslu":7632,"uleiÃ°is":7633,"ĠPh":7634,"sfrÃ¦Ã°":7635,"Ġkosninga":7636,"gel":7637,"Ġvei":7638,"ĠHÃ³lm":7639,"ĠmeiÃ°":7640,"Ġster":7641,"vegis":7642,"ĠmistÃ¶k":7643,"sfirÃ°i":7644,"Ġgetu":7645,"Ġskiptist":7646,"tÃŃmab":7647,"bÃ¶rn":7648,"Ġaukin":7649,"Ġopinberum":7650,"ĠGjald":7651,"Ġaukinni":7652,"akerfi":7653,"ĠmetnaÃ°":7654,"snar":7655,"ĠafslÃ¡tt":7656,"ĠGÃŃslason":7657,"ĠlÃ¶greglan":7658,"ĠsÃ©rfrÃ¦Ã°inga":7659,"ĠAnt":7660,"ĠyfirvÃ¶ld":7661,"Ġlenti":7662,"verkiÃ°":7663,"ĠFlokk":7664,"ĠCon":7665,"Ġkrafa":7666,"ĠLÃ¶greglan":7667,"Ġeinhverjar":7668,"ĠÃ¡ratugi":7669,"Ġsta":7670,"Ġgjaf":7671,"Ġtext":7672,"lingu":7673,"ĠVG":7674,"ĠdÃ³mara":7675,"Ġupprun":7676,"ĠundanÃ¾Ã¡":7677,"abygg":7678,"ĠÃģlf":7679,"ĠhÃ¶fundur":7680,"ĠJap":7681,"Ã¾rey":7682,"Ġminningar":7683,"ĠeinfÃ¶ld":7684,"ydd":7685,"Ġbyggist":7686,"Ġkla":7687,"Ġmerkingu":7688,"ĠnÃ¶fn":7689,"ĠtillÃ¶gum":7690,"jalli":7691,"Ã©tti":7692,"egg":7693,"Ġeinstaklingur":7694,"ĠÃ¡kveÃ°ur":7695,"ĠbÃŃlast":7696,"Ġper":7697,"ĠÃ¡fanga":7698,"Ġleiks":7699,"Ãºla":7700,"Ġliggi":7701,"ista":7702,"ĠundanfariÃ°":7703,"Ġvaxta":7704,"Ġgreiningu":7705,"ĠhugsaÃ°":7706,"ĠgerÃ°um":7707,"Ã¡kv":7708,"lif":7709,"Ġstol":7710,"elt":7711,"Ġundantek":7712,"linn":7713,"lest":7714,"ĠÃ¾y":7715,"burÃ°ar":7716,"Ġdeildinni":7717,"ĠstuÃ°ningi":7718,"ĠslÃŃku":7719,"Ġ06":7720,"ĠFrjÃ¡l":7721,"ĠviÃ°tÃ¶l":7722,"ĠGarÃ°abÃ¦":7723,"Ã¾Ã¦tt":7724,"Ġkerfinu":7725,"ninnar":7726,"ĠmÃ¦lti":7727,"ĠopnaÃ°i":7728,"Ġborgara":7729,"ĠFH":7730,"vell":7731,"andans":7732,"ĠbrÃºn":7733,"ĠheitiÃ°":7734,"ĠbÃ¡t":7735,"ĠfrÃ©ttum":7736,"Ġ120":7737,"ĠLauga":7738,"ĠSveinn":7739,"ĠÃºrskurÃ°":7740,"sÃŃÃ°u":7741,"Ġtilvik":7742,"sheimil":7743,"ĠÃºttekt":7744,"Ġgildist":7745,"vun":7746,"ĠlÃŃÃ°an":7747,"Ġtekinn":7748,"felld":7749,"ĠASÃį":7750,"ĠKvenna":7751,"gaÃ°":7752,"eni":7753,"skyn":7754,"Ġflokks":7755,"Ã³i":7756,"ĠsetiÃ°":7757,"AÃ°":7758,"heiÃ°i":7759,"Ġsameiginlega":7760,"ĠjafnvÃ¦gi":7761,"ĠsnÃ½r":7762,"alk":7763,"Ġskilgreind":7764,"ĠGuÃ°ni":7765,"ĠVef":7766,"kir":7767,"annar":7768,"ĠByr":7769,"Ġathaf":7770,"ĠUnn":7771,"IL":7772,"Ġhitta":7773,"ÃŃskum":7774,"ĠvikiÃ°":7775,"smik":7776,"Ġframhaldi":7777,"Ġprest":7778,"varÃ°":7779,"Ġfrumkv":7780,"ĠStokk":7781,"ĠÃºtlendinga":7782,"avÃ©l":7783,"ĠsekÃº":7784,"dum":7785,"ash":7786,"ĠRek":7787,"Ġ41":7788,"smanns":7789,"bandalag":7790,"Ġ189":7791,"alÃ¶gum":7792,"agjÃ¶f":7793,"Ã¶ndunum":7794,"erli":7795,"Ġmeir":7796,"rÃ¦Ã°is":7797,"Ġerlenda":7798,"ĠstaÃ°i":7799,"Ġopinn":7800,"ĠmÃ¦ldist":7801,"ĠGlit":7802,"ĠÃ¡ttum":7803,"rÃ©ttar":7804,"ykt":7805,"ssi":7806,"ĠVins":7807,"Ã³ma":7808,"ĠVegagerÃ°":7809,"46":7810,"Ġdagar":7811,"ĠprÃ³sen":7812,"ick":7813,"ĠÃ¡lyktun":7814,"Ġbeit":7815,"ĠÃ¡tak":7816,"ĠSaga":7817,"Ã¶nnunum":7818,"Ġreynir":7819,"ĠÃºtreik":7820,"int":7821,"Ġhress":7822,"ĠsÃºkkulaÃ°i":7823,"Ġloksins":7824,"ĠfÃ¦tur":7825,"ĠVan":7826,"Ġrannsaka":7827,"hjÃ³":7828,"Ġreyndi":7829,"ĠmÃ³tmÃ¦l":7830,"Ġbyl":7831,"Ġstarfsh":7832,"Ġaka":7833,"ĠhÃ¶g":7834,"ĠSÃ½ningin":7835,"ĠBjÃ¶rgvin":7836,"ĠgÃ¡tu":7837,"ĠpÃŃan":7838,"ĠPÃ³l":7839,"ĠÃ¾riÃ°judag":7840,"kvÃ³ta":7841,"ĠviÃ°skiptum":7842,"ĠstrÃ¶nd":7843,"Ġkart":7844,"Ġku":7845,"ĠÃ¡form":7846,"lÃŃka":7847,"Ġnb":7848,"ĠviÃ°kvÃ¦m":7849,"ĠKÃ³pavogs":7850,"ĠBe":7851,"aÃ°inn":7852,"ĠFrÃŃ":7853,"Ġflokkum":7854,"Ġfarar":7855,"Ġtelji":7856,"fÃ¶rnu":7857,"ĠumsjÃ³nar":7858,"ĠLandspÃŃtala":7859,"ĠvÃ©lar":7860,"ĠliÃ°a":7861,"ĠHelgason":7862,"ĠmeÃ°vit":7863,"ĠhÃºsa":7864,"Ġhagsmuni":7865,"Ã¾egar":7866,"Ġ1987":7867,"ĠBÃ³kin":7868,"ĠvirÃ°isauka":7869,"Ġskapandi":7870,"Ġinnl":7871,"Ġlandam":7872,"Ġskapast":7873,"eildar":7874,"ĠfjÃ¡rmÃ¡larÃ¡Ã°herra":7875,"bundin":7876,"leyfi":7877,"lastofnunar":7878,"ĠopnaÃ°":7879,"ĠlÃ½sti":7880,"slegar":7881,"ÃŃum":7882,"ĠvinnubrÃ¶gÃ°":7883,"Ġkjarn":7884,"jafa":7885,"mis":7886,"ÃºÃ°ar":7887,"ĠskjÃ¡":7888,"aÃ°iÃ°":7889,"ĠskÃ³gar":7890,"ĠbÃ¦jarstjÃ³rnar":7891,"vÃŃg":7892,"Ġherberg":7893,"ĠleikmaÃ°ur":7894,"ĠjÃ¶rÃ°inni":7895,"ĠFlateyri":7896,"ĠaÃ°drag":7897,"âĢĻ":7898,"varf":7899,"Ġheimsins":7900,"ĠÃ¾ekki":7901,"ĠMA":7902,"Ġreynsla":7903,"ĠhÃ¦li":7904,"ĠÃ¾rÃ¡":7905,"jÃ¶rÃ°ur":7906,"eyÃ°":7907,"Ã¦Ã°isins":7908,"ĠlÃŃkama":7909,"ĠÃ¾jÃ¡":7910,"merki":7911,"Ġkonan":7912,"ĠGeorg":7913,"ĠvÃ¶k":7914,"ĠFlest":7915,"ĠOft":7916,"ĠFast":7917,"Ġnbsp":7918,"ĠfjÃ¡rfesta":7919,"narar":7920,"Ġheiti":7921,"arfÃ©lagi":7922,"Ġsvari":7923,"Ġtilein":7924,"safns":7925,"undu":7926,"ĠkÃ¶lluÃ°":7927,"ĠJÃº":7928,"Ġathuga":7929,"vÃ¶rum":7930,"eli":7931,"Ġpunk":7932,"bÃºar":7933,"taÃ°i":7934,"Ġfundist":7935,"ĠmÃ³ts":7936,"ĠfjarlÃ¦gÃ°":7937,"Ġfallegt":7938,"Ġstigi":7939,"Ġneikv":7940,"Ġarf":7941,"ĠÃ¡fangast":7942,"Ġfatl":7943,"Ġinnra":7944,"ĠJÃ¶kul":7945,"ĠerfÃ°a":7946,"ĠÃįvar":7947,"Ġgeymslu":7948,"ĠplÃ¡ss":7949,"still":7950,"ĠsÃ©rhÃ¦":7951,"fisk":7952,"Ġinnihalda":7953,"ĠMig":7954,"ĠnÃ¡Ã°u":7955,"Ġlas":7956,"ĠVinnu":7957,"ĠBÃ¦Ã°i":7958,"Ġ05":7959,"Ġtalsins":7960,"ĠHvort":7961,"ĠSÃŃÃ°a":7962,"Ġ63":7963,"ĠsÃ©rlega":7964,"ĠspÃŃtal":7965,"ĠbÃ¦tti":7966,"Ġgreininni":7967,"ĠvÃ¶kv":7968,"ĠfÃ©lagsleg":7969,"fjÃ¶rÃ°":7970,"ĠKÃ¡ra":7971,"Ġbarnanna":7972,"aÃ°ilum":7973,"Ġformann":7974,"Ã³re":7975,"Ġmyndirnar":7976,"ĠAthugiÃ°":7977,"ĠstÃŃga":7978,"Ġsnjall":7979,"ĠbÃºsetu":7980,"ÃŃfa":7981,"ĠHraun":7982,"ĠGrindavÃŃk":7983,"ĠforÃ°ast":7984,"ĠHÃ¶fn":7985,"ĠlandsbyggÃ°":7986,"ĠÃºrslitum":7987,"arfÃ©lags":7988,"Ġkennari":7989,"frv":7990,"ĠFran":7991,"ĠGau":7992,"ĠnotaÃ°ar":7993,"vÃ¶llum":7994,"ĠRannsÃ³knar":7995,"ĠstarfsfÃ³lks":7996,"Ġkomust":7997,"ĠAÃ°eins":7998,"kvÃ¦Ã°agreiÃ°slu":7999,"lus":8000,"rat":8001,"ĠundanfÃ¶rnu":8002,"arson":8003,"vest":8004,"ĠIngvar":8005,"ĠÃ¾rosk":8006,"ĠHlu":8007,"ĠlÃŃfsins":8008,"ĠhÃ³purinn":8009,"ĠÃŀessir":8010,"Ġhraun":8011,"ĠSauÃ°Ã¡rkrÃ³ki":8012,"bÃ¦kur":8013,"Ġgegna":8014,"ĠverÃ°mÃ¦":8015,"ĠÃ¾ÃŃnu":8016,"ĠÃ¾rÃ³a":8017,"ĠSkrÃ¡ning":8018,"rast":8019,"sturinn":8020,"Ġhrepp":8021,"Ġbey":8022,"areg":8023,"Ġhreint":8024,"ĠleiÃ°arljÃ³si":8025,"brÃ¶gÃ°um":8026,"ĠSpÃ¡ni":8027,"kÃ¶st":8028,"Ġflokkur":8029,"Ġsonur":8030,"ĠframleiÃ°a":8031,"ĠPort":8032,"blaÃ°iÃ°":8033,"ĠFar":8034,"ennd":8035,"Ġeinkar":8036,"ĠhÃ¶nnunar":8037,"ulÃ¶g":8038,"Ġlitlum":8039,"ĠTor":8040,"Ġkafli":8041,"larnir":8042,"Ġnaut":8043,"Ġskipuleggja":8044,"ĠvariÃ°":8045,"eyriss":8046,"Ġtilfinning":8047,"ĠblÃ¶nd":8048,"ĠvÃŃsb":8049,"Ġsynd":8050,"gengni":8051,"ĠstÃ¦rÃ°frÃ¦Ã°i":8052,"Ġstyrkt":8053,"vid":8054,"Ġeykur":8055,"slaus":8056,"Ġgjaldeyris":8057,"ĠÃºtb":8058,"Ġaugn":8059,"ĠsjÃ¡varÃºtvegs":8060,"ĠVon":8061,"Ġsamanst":8062,"Ġplan":8063,"Ġpab":8064,"ĠsÃ©rstÃ¶kum":8065,"nustu":8066,"ĠnauÃ°synleg":8067,"ĠHlutverk":8068,"ugjald":8069,"Ġskyni":8070,"rÃ¦Ã°u":8071,"Ġbens":8072,"ĠVatna":8073,"ĠheiÃ°ur":8074,"ÃŃÃ°ur":8075,"chester":8076,"Ġeinstaklings":8077,"ĠnÃ¦ringar":8078,"ĠfjÃ¡rmÃ¡lafyrirtÃ¦k":8079,"Ġbesti":8080,"eÃ°li":8081,"Ġnemandi":8082,"Ġhvarf":8083,"ĠliÃ°s":8084,"abar":8085,"ĠdÃº":8086,"ĠdjÃº":8087,"ĠSkemm":8088,"ĠnÃ½rrar":8089,"Ġbirtast":8090,"ĠEÃ°a":8091,"Ġkenni":8092,"Ġverndar":8093,"ĠforstÃ¶Ã°umaÃ°ur":8094,"ĠCont":8095,"beiÃ°":8096,"ĠgjÃ¶ld":8097,"cc":8098,"ĠÃ¾eg":8099,"ĠÃŃslenskir":8100,"liÃ°i":8101,"Ã°ri":8102,"Ġfalleg":8103,"ĠSuÃ°urlandi":8104,"FÃį":8105,"aÃ°ferÃ°":8106,"Ġtekst":8107,"ĠGest":8108,"ĠSumar":8109,"ĠinnanrÃŃkis":8110,"ink":8111,"ĠskrÃ¡ningar":8112,"ĠSeÃ°labanka":8113,"ĠfarÃ¾ega":8114,"Ġhreinlega":8115,"Ã¾jÃ³nustunnar":8116,"ĠVi":8117,"boÃ°um":8118,"ĠSa":8119,"Ġvinnumark":8120,"Ġha":8121,"dagurinn":8122,"kÃ³r":8123,"kerfisins":8124,"Ġkyrr":8125,"ĠIII":8126,"jung":8127,"ĠSund":8128,"Ġfran":8129,"ĠRang":8130,"sferÃ°":8131,"aÃ°gerÃ°":8132,"ĠnÃ½tur":8133,"rÃ³Ã°ir":8134,"Ġflestar":8135,"sviÃ°i":8136,"ĠHS":8137,"Ġmikils":8138,"ĠBjartrar":8139,"herjar":8140,"Ġeinfalt":8141,"Ġmyndar":8142,"ĠÃŀorlÃ¡k":8143,"ĠBÃ¡r":8144,"ĠsÃ¦ta":8145,"ĠfjÃ¶ld":8146,"ĠGarÃ°ar":8147,"aker":8148,"37":8149,"ĠlÃ¦knir":8150,"Ġkunnugt":8151,"ĠbrjÃ³ta":8152,"Ġjaf":8153,"stÃ¦Ã°um":8154,"ĠfÃ¡tt":8155,"Ġveturinn":8156,"ĠÃ¾jÃ³Ã°arat":8157,"Ġgengu":8158,"ĠST":8159,"reglum":8160,"ĠsamhljÃ³Ã°a":8161,"ĠÃ¡fengi":8162,"ĠfÃ¦ddur":8163,"ear":8164,"meÃ°ferÃ°":8165,"ĠframkvÃ¦ma":8166,"rÃŃÃ°ar":8167,"ĠkynlÃŃf":8168,"ĠValdim":8169,"ope":8170,"ĠskjÃ¶l":8171,"ha":8172,"umhverfi":8173,"ĠÃŃbÃºÃ°a":8174,"Ã¶ryggi":8175,"ĠÃļtlend":8176,"Ġuppskrift":8177,"ate":8178,"ĠrÃŃs":8179,"ĠkosiÃ°":8180,"Ġros":8181,"rita":8182,"ĠlÃ¦kkun":8183,"ĠRÃŃkisÃºtvarp":8184,"Ġmyr":8185,"ĠSc":8186,"ĠvatniÃ°":8187,"kenna":8188,"ĠbÃ³ta":8189,"Ġframleidd":8190,"skvÃ¶ldiÃ°":8191,"afell":8192,"amlegast":8193,"skilyrÃ°i":8194,"ĠSjÃºkratrygg":8195,"Ã¶rÃ°u":8196,"kirkj":8197,"ĠloÃ°":8198,"ĠJÃ³hannsson":8199,"ĠslÃ¶kkviliÃ°":8200,"stunda":8201,"Ġsveig":8202,"Ġraunar":8203,"piÃ°":8204,"Ġgerum":8205,"Ġ1000":8206,"skemmt":8207,"Ġskapi":8208,"etti":8209,"Ġblanda":8210,"asafn":8211,"ĠkjÃºk":8212,"ĠAftur":8213,"ĠmjÃ³lk":8214,"ĠviÃ°fangsefni":8215,"ĠvÃ¶rn":8216,"Ġ64":8217,"ĠgjaldmiÃ°":8218,"ĠSkal":8219,"nattleik":8220,"framleiÃ°slu":8221,"ĠauglÃ½singar":8222,"ĠRannsÃ³knir":8223,"ĠÃŃslenskrar":8224,"Ġlengst":8225,"Ġvernda":8226,"engiÃ°":8227,"ĠandstÃ¦Ã°":8228,"hlutfall":8229,"Ġ77":8230,"elg":8231,"Ġbenti":8232,"rid":8233,"ðŁ":8234,"ĠHell":8235,"ĠrÃŃkissjÃ³Ã°s":8236,"ÃŃfur":8237,"fyrirtÃ¦ki":8238,"Ġ68":8239,"ĠEgils":8240,"ĠGre":8241,"ander":8242,"rin":8243,"ĠðŁ":8244,"Ġsvon":8245,"Ġvalin":8246,"ĠneikvÃ¦Ã°":8247,"ĠSiÃ°":8248,"ĠNefndin":8249,"ĠHil":8250,"Ġmyndlistar":8251,"Ġbeggja":8252,"ĠsÃ¡tu":8253,"ĠCol":8254,"grunn":8255,"stÃ¦Ã°a":8256,"ĠdjÃºp":8257,"ĠÃģkvÃ¦Ã°i":8258,"ĠBa":8259,"sy":8260,"ĠgÃ¶tu":8261,"Ġdeildarinnar":8262,"ĠkerfiÃ°":8263,"ĠGrÃ©":8264,"ĠÃ¡hugi":8265,"ĠEvrÃ³pum":8266,"Ġbreytist":8267,"Ġgri":8268,"ĠerfiÃ°a":8269,"Ġheimila":8270,"Ġ250":8271,"hef":8272,"ĠPal":8273,"dreg":8274,"anak":8275,"imp":8276,"onald":8277,"ĠjÃº":8278,"ĠfrÃŃstund":8279,"eitni":8280,"lausu":8281,"Ġtryggt":8282,"ĠmenningarmÃ¡l":8283,"ĠVigdÃŃs":8284,"ĠdrÃ¶g":8285,"Ġtilra":8286,"ĠÃįÃ¾rÃ³tta":8287,"ĠFyrstu":8288,"ĠbÃ¦jarstjÃ³rn":8289,"ĠHiÃ°":8290,"Ġbless":8291,"ĠlÃ¦knis":8292,"Ġkerfis":8293,"Ef":8294,"ĠmÃ³ttÃ¶ku":8295,"be":8296,"Ãºna":8297,"Ġbarnsins":8298,"ĠbrÃ¡Ã°abirg":8299,"ĠfÃ³lksins":8300,"ĠeinstÃ¶kum":8301,"Ġkunni":8302,"Ġinnanlands":8303,"ĠÃ¾ingsins":8304,"afrum":8305,"Ġspilar":8306,"ftu":8307,"ĠSÃį":8308,"ingastofnunar":8309,"ĠleiÃ°rÃ©tt":8310,"dÃ½ra":8311,"ĠstÃ¦rsti":8312,"DA":8313,"ĠÃ³skum":8314,"Ġafrek":8315,"Ġkor":8316,"ĠÃ¡ratugum":8317,"Ġkjall":8318,"rÃ½st":8319,"Ġfundum":8320,"ulÃ½Ã°":8321,"ĠmiÃ°ast":8322,"ĠFoss":8323,"Ġsagn":8324,"ĠÃºthlutaÃ°":8325,"ĠGert":8326,"ĠnÃ¦gilega":8327,"sjÃ³Ã°":8328,"ettir":8329,"ĠÃ¡stÃ¦Ã°":8330,"Ġfugla":8331,"Ġvirtist":8332,"Ġsyst":8333,"ĠUr":8334,"ĠrÃºmg":8335,"Ġhrif":8336,"ĠaÃ°dÃ¡":8337,"ĠKri":8338,"hÃºsa":8339,"ĠgreiÃ°slum":8340,"Ġsyngja":8341,"ĠhÃ¶nnu":8342,"ĠMaÃ°urinn":8343,"ĠplÃ¶tu":8344,"ĠReykjavÃŃkurborg":8345,"Ġsystur":8346,"ĠEnglandi":8347,"ĠrÃ©ttur":8348,"ĠrÃ¦kt":8349,"red":8350,"hÃ³pur":8351,"ĠKanada":8352,"skÃŃr":8353,"ilegir":8354,"ĠstÃ³ran":8355,"Ġtilgreind":8356,"bÃºiÃ°":8357,"ĠrÃ¡Ã°ast":8358,"ĠekiÃ°":8359,"ĠÃ¡standi":8360,"ĠRauÃ°a":8361,"ĠbiÃ°ja":8362,"Ġ95":8363,"ĠfullnÃ¦gjandi":8364,"ĠneÃ°ri":8365,"gil":8366,"rÃ¡Ã°uneytisins":8367,"ĠfjallaÃ°i":8368,"Ġsamkomulagi":8369,"oy":8370,"Ġlandsmanna":8371,"skri":8372,"ĠrÃ¡Ã°sins":8373,"Ġtalinn":8374,"ĠsauÃ°fjÃ¡r":8375,"Ġgreindi":8376,"rÃ¡Ã°a":8377,"ĠSkaft":8378,"ĠGull":8379,"ĠslÃŃkra":8380,"Ġsmit":8381,"ĠauÃ°velda":8382,"hljÃ³Ã°andi":8383,"ĠÃģsm":8384,"Ġgrunni":8385,"minja":8386,"Ġdrekka":8387,"Ġgangandi":8388,"ĠSigmundur":8389,"Ġsleppa":8390,"ĠrÃ³m":8391,"Ġstarfsmann":8392,"narl":8393,"tekt":8394,"Ã³sa":8395,"Ġ800":8396,"ĠÃŀorsteinsson":8397,"ĠÃĵlafsdÃ³ttir":8398,"Ġkass":8399,"entar":8400,"Ġeftirliti":8401,"ĠspilaÃ°":8402,"ĠsjÃ¡lfstÃ¦tt":8403,"eÃ°i":8404,"ĠheilbrigÃ°isÃ¾jÃ³nustu":8405,"Ġnef":8406,"ĠsjÃºkdÃ³ma":8407,"ĠpappÃŃr":8408,"stÃŃm":8409,"ĠHeimilt":8410,"ĠElÃŃn":8411,"ĠÃ¾arft":8412,"Ġkrefjast":8413,"ĠHornafjarÃ°ar":8414,"deil":8415,"ĠÃŃtrekaÃ°":8416,"ĠSÃ¶gu":8417,"greiÃ°sla":8418,"ĠbÃŃlnum":8419,"Ġberst":8420,"Ġsinnt":8421,"ĠveÃ°ri":8422,"Ġeinhverjir":8423,"ĠHeiÃ°":8424,"ĠtÃŃsku":8425,"ĠforrÃ¡Ã°":8426,"ĠmÃ¡laflokk":8427,"ĠutanrÃŃkisrÃ¡Ã°herra":8428,"ĠverÃ°brÃ©f":8429,"gin":8430,"Ġklass":8431,"aÃ°arins":8432,"ĠManchester":8433,"ĠbÃ¶rnunum":8434,"Ġfundarins":8435,"farir":8436,"ĠÃ¡kveÃ°inn":8437,"ĠSamÃ¾ykkt":8438,"ĠÃ¾vert":8439,"sland":8440,"angi":8441,"Ġinnflytj":8442,"????":8443,"ĠLei":8444,"ĠstrÃŃ":8445,"ĠAtl":8446,"ĠhljÃ³ta":8447,"Ġpip":8448,"Ġnotkunar":8449,"ĠtiltÃ¶lu":8450,"ĠrannsakaÃ°":8451,"reisnar":8452,"stofunnar":8453,"Ġupphaflega":8454,"Ġfresti":8455,"Ġburt":8456,"leiÃ°is":8457,"Ġopnum":8458,"ĠÃ¾rÃ³ast":8459,"Ġspurt":8460,"rÃºmsl":8461,"ĠSveinsson":8462,"Ġsvig":8463,"IS":8464,"ĠstÃ¶Ã°va":8465,"ĠMag":8466,"ĠmÃ¶rgu":8467,"uneytis":8468,"ĠrÃ¦tur":8469,"boÃ°aliÃ°":8470,"ĠdÃ½p":8471,"ĠMars":8472,"Ġas":8473,"Ġ53":8474,"lÃ½singa":8475,"skapur":8476,"ĠInst":8477,"hÃ¦tti":8478,"ĠhÃ¡deg":8479,"ĠBirgi":8480,"ĠÃįsra":8481,"ĠBÃ³ka":8482,"Ġfylgdi":8483,"ĠkynferÃ°is":8484,"ĠsvohljÃ³Ã°andi":8485,"ĠbÃ¡Ã°ar":8486,"ĠKristjÃ¡nsdÃ³ttir":8487,"Ã¦rri":8488,"ĠvÃŃmu":8489,"Ġbit":8490,"ĠheimsÃ¦kja":8491,"ĠÃºrvals":8492,"engt":8493,"Ġminnir":8494,"ĠvaraformaÃ°ur":8495,"Ġtef":8496,"ĠTilgangur":8497,"aÃ°stÃ¶Ã°u":8498,"Ġveitti":8499,"ĠlagÃ°ur":8500,"ĠyÃ°ur":8501,"ĠheyrÃ°i":8502,"ĠHaraldur":8503,"ĠAust":8504,"ĠÃ¾inginu":8505,"Ġaukast":8506,"Ġhreyf":8507,"Ġsameiningu":8508,"lÃŃnu":8509,"ĠHÃ¦starÃ©ttar":8510,"Ġkomnar":8511,"skost":8512,"IF":8513,"ĠbÃ¦inn":8514,"ĠTa":8515,"ĠAÃ°rir":8516,"ĠstjÃ³rnun":8517,"yp":8518,"ĠJan":8519,"hÃ¦kk":8520,"ninn":8521,"Ġtalar":8522,"ÃŃnar":8523,"slen":8524,"ĠTal":8525,"virkja":8526,"ĠsamgÃ¶ngu":8527,"ĠNot":8528,"Ġfermet":8529,"ĠstarfshÃ³p":8530,"Ġbjarga":8531,"ĠBÃ¦jarrÃ¡Ã°":8532,"inginn":8533,"Ġfylgst":8534,"ektar":8535,"ĠTaliÃ°":8536,"ĠStarfsmenn":8537,"ĠmatvÃ¦la":8538,"nab":8539,"ĠVarÃ°":8540,"ĠMatth":8541,"ĠDrott":8542,"Ġskynd":8543,"ĠaÃ°gerÃ°um":8544,"dÃ¦mis":8545,"oga":8546,"ĠReik":8547,"estu":8548,"Ġtilfinningar":8549,"Ġupps":8550,"national":8551,"ĠfÃ¶t":8552,"Ġtreysta":8553,"ĠSvan":8554,"ĠLandsbankans":8555,"shÃ¶f":8556,"Ġspill":8557,"Ġdisk":8558,"Ġforgangs":8559,"ĠmiÃ°bÃ¦":8560,"Ġkraft":8561,"ĠrÃŃkisborg":8562,"ĠfjÃ¶lgun":8563,"ĠgÃ³Ã°ir":8564,"Ġris":8565,"ĠraÃ°":8566,"ĠÃģhug":8567,"ĠvÃŃk":8568,"ĠSÃ¦m":8569,"ĠnotaÃ°ur":8570,"ĠÃ¾Ã¦tt":8571,"Ġstofnunin":8572,"ĠhagnÃ½":8573,"Ġlenda":8574,"ĠMad":8575,"ĠÃįS":8576,"kennari":8577,"ĠHof":8578,"afrÃŃ":8579,"ĠLilja":8580,"lÃŃÃ°an":8581,"Ġefa":8582,"ĠrÃŃkjum":8583,"bankanum":8584,"ĠhÃ³pinn":8585,"ĠTim":8586,"ĠjarÃ°skjÃ¡lf":8587,"ĠgÃ¶t":8588,"Ġgrill":8589,"tuÃ°u":8590,"ĠsÃ¦kir":8591,"valiÃ°":8592,"orlof":8593,"ĠSverri":8594,"Ġbreska":8595,"stÃ¶Ã°varinnar":8596,"49":8597,"ĠSku":8598,"stÃŃma":8599,"ĠbÃ¦tur":8600,"NIC":8601,"ĠBÃºn":8602,"ĠlÃ½sing":8603,"ningurinn":8604,"Ġ88":8605,"ĠhÃ©raÃ°":8606,"ĠHvers":8607,"ĠReykhÃ³la":8608,"inf":8609,"ĠnÃŃ":8610,"Ġvonum":8611,"Ġfleir":8612,"ĠsmÃ¡tt":8613,"eysis":8614,"ĠÃ³t":8615,"ĠmikilvÃ¦gur":8616,"ĠSer":8617,"Ġlosun":8618,"ĠGrikk":8619,"Ġ600":8620,"shÃºs":8621,"Ġhverfa":8622,"ĠEirÃŃkur":8623,"ĠalfariÃ°":8624,"ĠstaÃ°festa":8625,"ĠaÃ°draganda":8626,"Ġkosningum":8627,"ĠHans":8628,"ĠtilbÃºin":8629,"ĠsveitarstjÃ³rn":8630,"ading":8631,"ĠleiÃ°sÃ¶gn":8632,"naÃ°ist":8633,"Ġaftan":8634,"ĠHafa":8635,"ĠfurÃ°u":8636,"safniÃ°":8637,"arferÃ°":8638,"ĠviÃ°auka":8639,"jÃ¶t":8640,"Ġhafna":8641,"irÃ°u":8642,"eitur":8643,"hÃ¡tÃŃÃ°ar":8644,"nuÃ°i":8645,"ĠApp":8646,"mail":8647,"Ġeykst":8648,"Ġreikna":8649,"ĠÃ¡rsf":8650,"ĠDagur":8651,"odd":8652,"ĠJa":8653,"ĠvelferÃ°":8654,"Ġsanna":8655,"virÃ°i":8656,"Ġminnis":8657,"fingarinnar":8658,"Ġsigri":8659,"Ġ101":8660,"janda":8661,"Ġspan":8662,"full":8663,"ĠsamÃ¾ykkja":8664,"ĠHverager":8665,"Ġsambandsins":8666,"staÃ°ur":8667,"Ġvinir":8668,"ĠÃ¦tli":8669,"ĠNÃ¡m":8670,"ungiÃ°":8671,"Ġtekjum":8672,"gengi":8673,"ĠsveitarfÃ©laganna":8674,"ĠViÃ°skipta":8675,"hraun":8676,"ĠStyr":8677,"Ġpanta":8678,"Ã°inn":8679,"Ã¶kunar":8680,"Ġsamningum":8681,"ĠÃĵl":8682,"eigendur":8683,"ĠLyf":8684,"ĠBirna":8685,"ĠopnuÃ°":8686,"ugl":8687,"Ġfarinn":8688,"Ġtilkynningar":8689,"Sam":8690,"ĠgjaldÃ¾r":8691,"ĠsvokÃ¶l":8692,"ingas":8693,"Ġalt":8694,"sÃ¶gur":8695,"Ġlausnir":8696,"skjÃ¶r":8697,"Ã½sing":8698,"ĠBÃ¡":8699,"burÃ°i":8700,"frÃ¦Ã°inga":8701,"Ġvinum":8702,"Ġauga":8703,"anlegum":8704,"ĠlÃ¦gra":8705,"Ġfelld":8706,"AL":8707,"ĠLjÃ³st":8708,"Ġungmenna":8709,"ĠheilbrigÃ°isker":8710,"ĠsamfÃ©lags":8711,"ĠrÃºss":8712,"igt":8713,"eÃ°l":8714,"hafnar":8715,"spurn":8716,"fni":8717,"ĠMal":8718,"Ġbleik":8719,"Ġeldsneyti":8720,"Ġmeistara":8721,"miÃ°stÃ¶Ã°":8722,"sheimilinu":8723,"reinum":8724,"borÃ°i":8725,"ĠSÃ¶ng":8726,"ĠÃ¡bendingar":8727,"38":8728,"Ã¦ki":8729,"essa":8730,"Ġvissu":8731,"raÃ°a":8732,"Ġtau":8733,"amarkaÃ°i":8734,"ĠritgerÃ°":8735,"ĠskrÃ¡ning":8736,"shÃ³l":8737,"ĠArion":8738,"Ġnefndinni":8739,"verkum":8740,"ĠEinhver":8741,"opn":8742,"ĠSegir":8743,"ĠHaukur":8744,"ĠVÃŃsind":8745,"ĠdrÃ¡tt":8746,"Ġpress":8747,"ĠfulltrÃºum":8748,"Ã¶rÃ°um":8749,"ĠrÃŃkir":8750,"Ã³d":8751,"ĠMÃ½r":8752,"ĠmarkaÃ°sset":8753,"fÃ¶ll":8754,"Ġ1989":8755,"Ġnefnist":8756,"ĠbjÃ³Ã°um":8757,"ĠKÃ¡ri":8758,"Ġ74":8759,"ĠbÃ¦r":8760,"Ġeini":8761,"ĠprÃ½":8762,"ĠvÃ©r":8763,"ĠGuÃ°na":8764,"ĠgreiÃ°ir":8765,"ĠmetiÃ°":8766,"sjÃ³Ã°s":8767,"ĠÃŃslenskar":8768,"ams":8769,"ĠandrÃºmsl":8770,"slna":8771,"ĠkveÃ°a":8772,"ĠstjÃ³rnvald":8773,"ĠEgill":8774,"lÃŃÃ°ar":8775,"ĠframÃºr":8776,"ĠLeif":8777,"ĠBru":8778,"ĠeinstÃ¶k":8779,"Ġlent":8780,"ĠtalaÃ°i":8781,"takendur":8782,"ĠGuÃ°jÃ³nsson":8783,"ÃŃta":8784,"ttur":8785,"orld":8786,"ĠIces":8787,"byggingu":8788,"Ġopnun":8789,"2002":8790,"ĠgÃ¡fu":8791,"lad":8792,"TT":8793,"Ġmyndlist":8794,"lauk":8795,"heimum":8796,"Ã¾ol":8797,"Ġaukna":8798,"ĠmiÃ°n":8799,"ljÃ³s":8800,"ĠFrÃ¦Ã°":8801,"ĠhjÃ³la":8802,"Ġselt":8803,"ĠviÃ°skiptavina":8804,"ĠlÃ¡gmarki":8805,"ĠhÃ³t":8806,"Ġeldg":8807,"ĠviÃ°rÃ¦Ã°um":8808,"Ġfullum":8809,"ĠsamÃ¾ykktar":8810,"Ã¤":8811,"ĠlagÃ°ar":8812,"ĠForseti":8813,"ĠbaÃ°herbergi":8814,"Ġmag":8815,"eÃ°iÃ°":8816,"ĠkÃ¶nnuninni":8817,"rÃºÃ°":8818,"ĠVilhjÃ¡lmur":8819,"klÃºbb":8820,"ĠEvrÃ³pusambandiÃ°":8821,"varandi":8822,"ĠhlÃ©":8823,"ĠÃ³Ã¾arf":8824,"hyggju":8825,"ĠOrk":8826,"Ġmisst":8827,"Ã¾rÃ½st":8828,"ĠÃ¾jÃ¡lfari":8829,"ĠfÃ¶rum":8830,"okka":8831,"ĠSind":8832,"ĠHek":8833,"ĠsjÃ³num":8834,"ĠfjÃ¶lskyldum":8835,"ĠStranda":8836,"ĠmilljÃ³na":8837,"Ġneinum":8838,"riti":8839,"ĠbandarÃŃska":8840,"ĠDÃ¦mi":8841,"ĠsafnaÃ°":8842,"Ġskuldir":8843,"ud":8844,"sjÃ³Ã°i":8845,"Ġkrafti":8846,"ĠSÃŃÃ°ast":8847,"ĠÃ¡kveÃ°na":8848,"ĠSuÃ°urnesjum":8849,"markmiÃ°":8850,"ĠÃŀur":8851,"ĠdÃ³ttir":8852,"ĠskurÃ°":8853,"ĠfrÃ¡bÃ¦ra":8854,"ĠTyrk":8855,"ĠalÃ¾jÃ³Ã°legum":8856,"ÃŃfiÃ°":8857,"ĠÃ¡herslur":8858,"ĠÃ½missa":8859,"ĠÃ¦Ã°i":8860,"illu":8861,"ĠPage":8862,"ĠNorÃ°urland":8863,"alir":8864,"ence":8865,"Ġtali":8866,"ĠMagnÃºsdÃ³ttir":8867,"ĠÃ¡hrifa":8868,"ĠBÃį":8869,"ĠÃŀorsteins":8870,"ĠsÃ¶k":8871,"Ġsvonefnd":8872,"ĠEyrar":8873,"hjÃ³l":8874,"Ġgeisl":8875,"ĠrÃŃkisstjÃ³rnin":8876,"Ġbreytast":8877,"ĠMMR":8878,"ĠtiltÃ¶lulega":8879,"ĠfrÃ³Ã°leik":8880,"nÃ¡ms":8881,"ĠInternational":8882,"Ã¶fu":8883,"arÃ¡Ã°uneytiÃ°":8884,"ĠAusturlandi":8885,"Ġafn":8886,"ĠArc":8887,"Ġsand":8888,"ĠvÃŃsinda":8889,"ĠmeÃ°fylgjandi":8890,"banki":8891,"ĠkynslÃ³Ã°":8892,"Ġhunda":8893,"Ġvina":8894,"lagan":8895,"ĠsÃ³tti":8896,"Ã¡nÃ¦g":8897,"arins":8898,"ĠsÃ¡u":8899,"Ġslysa":8900,"ĠHÃ¶rÃ°ur":8901,"Ġframmist":8902,"ĠfÃ¦Ã°ingu":8903,"Ġengum":8904,"ĠMÃ½":8905,"frestur":8906,"dagar":8907,"ĠaÃ°komu":8908,"ez":8909,"Ġbirtar":8910,"ĠFjÃ¡rmÃ¡laeftirlitiÃ°":8911,"Ġbrau":8912,"Ġramma":8913,"Ġfella":8914,"ĠÃģfram":8915,"ima":8916,"ĠhÃ¡marki":8917,"ĠfjÃ¶lga":8918,"ĠtÃ¶ldu":8919,"ĠFyrirtÃ¦kiÃ°":8920,"otta":8921,"Ãī":8922,"ĠÃĵlym":8923,"ĠsÃŃÃ°degis":8924,"ral":8925,"Ġefst":8926,"ĠbÃºnaÃ°":8927,"ĠfjÃ¶lskyldur":8928,"jÃ³nvarp":8929,"Ġinter":8930,"ildum":8931,"ori":8932,"arfÃ©laga":8933,"ĠRÃ³m":8934,"ĠKvik":8935,"ĠsÃ¶gunni":8936,"ĠStuÃ°":8937,"ĠAuÃ°vitaÃ°":8938,"Ġalmannatrygg":8939,"ĠmÃŃnar":8940,"ĠiÃ°n":8941,"Ġmal":8942,"ĠFal":8943,"Ġfyrirlestur":8944,"ĠsveitarfÃ©lÃ¶gum":8945,"ĠhÃ³l":8946,"ĠÃ¾arfir":8947,"boÃ°a":8948,"eyta":8949,"Ġstofnunum":8950,"Ġfinnast":8951,"ĠsÃ³ttu":8952,"Ġhenta":8953,"ĠsjÃ¡varÃºtvegi":8954,"eyfis":8955,"dem":8956,"sfrÃ¦Ã°i":8957,"strÃ¶nd":8958,"barna":8959,"randi":8960,"sÃ¶lum":8961,"ĠvÃ¶ld":8962,"Ãºg":8963,"eitu":8964,"ĠÃŀrÃŃ":8965,"ĠÃ¡kvÃ¡":8966,"dyr":8967,"Ġyfirgef":8968,"ĠbÃ³kun":8969,"slÃŃf":8970,"Ġendurtek":8971,"ĠfjÃ¡rmÃ¶gnun":8972,"Ġex":8973,"ĠsjÃ¡lfsagt":8974,"ĠNÃ¡mskeiÃ°iÃ°":8975,"ĠBB":8976,"ĠorÃ°i":8977,"ĠNÃºna":8978,"ĠUnniÃ°":8979,"ingjar":8980,"verki":8981,"dags":8982,"Ã¦Ã°is":8983,"ĠNiÃ°urstaÃ°a":8984,"ĠaÃ°ferÃ°um":8985,"skriftir":8986,"Ġmeirihluti":8987,"ĠhjÃ¡lpaÃ°":8988,"Ġhafin":8989,"ĠvÃŃsan":8990,"ĠkÃ³l":8991,"ĠÃ¡hugavert":8992,"ĠIcesave":8993,"Ġfrost":8994,"ĠEftirfarandi":8995,"rÃ¡Ã°uneytinu":8996,"Ġstelp":8997,"ĠtakmÃ¶rk":8998,"teini":8999,"ĠEvrÃ³pska":9000,"ĠÃ³hÃ¦tt":9001,"ĠveiÃ°ar":9002,"ĠÃ¡vinn":9003,"ĠHermann":9004,"ĠlÃ¶ngum":9005,"ĠAndre":9006,"ĠSnorra":9007,"Ġkosta":9008,"ĠgÃ³Ã°s":9009,"ĠBrynjar":9010,"anlegur":9011,"ĠOkkur":9012,"ĠnÃ¡mskeiÃ°inu":9013,"Ġkynni":9014,"tamÃŃn":9015,"ĠhagsmunaaÃ°ila":9016,"ĠÃŀÃ³rÃ°arson":9017,"ĠSÃŃÃ°u":9018,"Ġskilar":9019,"Ġlek":9020,"ĠlÃŃkamans":9021,"ĠslegiÃ°":9022,"starfiÃ°":9023,"ĠInni":9024,"ĠKjÃ¶r":9025,"jÃ¶kli":9026,"ĠtÃŃÃ°ina":9027,"Ã©kk":9028,"verÃ°s":9029,"ogn":9030,"efli":9031,"ĠkrÃ³num":9032,"ĠseÃ°la":9033,"fÃ¦rt":9034,"Ġ187":9035,"56":9036,"ĠÃģstr":9037,"Ġungt":9038,"EG":9039,"Ġviti":9040,"afjÃ¡r":9041,"ĠsveitarfÃ©laginu":9042,"Ġmargf":9043,"Ġstyrktar":9044,"Ġsameiginlegu":9045,"ĠstjÃ³rnvÃ¶ldum":9046,"Ġforvit":9047,"Ġ87":9048,"Ġvarp":9049,"ble":9050,"ĠtrÃºa":9051,"ĠRau":9052,"ĠfÃ³tbolta":9053,"ĠbyggÃ°akvÃ³ta":9054,"ĠviÃ°burÃ°i":9055,"Ġleikurinn":9056,"skyni":9057,"hÃ³purinn":9058,"jendur":9059,"bÃ³tum":9060,"starfs":9061,"ĠFundurinn":9062,"ĠskÃ¶mm":9063,"ĠskÃ½ringar":9064,"liggjandi":9065,"Ġmetin":9066,"ĠrÃŃf":9067,"ĠNÃ¡ttÃºr":9068,"Ġkomum":9069,"hagsm":9070,"Ġleiksins":9071,"Ġhelmingur":9072,"svÃ¦Ã°iÃ°":9073,"ĠNÃ¦stu":9074,"ster":9075,"Ġnotendur":9076,"ĠsmjÃ¶r":9077,"Ã¾ro":9078,"ĠtÃŃmabundiÃ°":9079,"Ġraunveru":9080,"ĠGolf":9081,"Ġsatt":9082,"Um":9083,"brautar":9084,"Ġstyrkir":9085,"ĠfjÃ¡rlag":9086,"lÃ¦knir":9087,"ge":9088,"jÃ³narmiÃ°":9089,"ĠLeit":9090,"ĠniÃ°ri":9091,"Ġhandrit":9092,"Ġkrakk":9093,"Ġlangur":9094,"ĠJam":9095,"ĠBirgir":9096,"Ġbrota":9097,"ikv":9098,"jÃ³rÃ°ung":9099,"Ġvikunnar":9100,"tÃ¦kja":9101,"ĠSvona":9102,"ĠnÃ½tist":9103,"ĠverkalÃ½Ã°":9104,"ĠdÃ¦mdur":9105,"2017":9106,"ĠkrÃ³nunnar":9107,"Ġyndi":9108,"Ġfylla":9109,"ĠOpiÃ°":9110,"ĠaÃ°ildarrÃŃk":9111,"pen":9112,"ulum":9113,"gerÃ°ur":9114,"Ġinnif":9115,"ugrein":9116,"bÃºnir":9117,"Ġ99":9118,"eymslu":9119,"ĠAx":9120,"ĠÃŃbÃºum":9121,"ĠstÃ¶Ã°v":9122,"ĠvÃŃsindamenn":9123,"ĠbÃ³karinnar":9124,"alinn":9125,"riÃ°a":9126,"ĠskÃ½rslunni":9127,"ĠÃįSÃį":9128,"Ġframs":9129,"ugla":9130,"ĠpÃ¶n":9131,"ĠinnviÃ°":9132,"skÃ¡p":9133,"ĠuppgjÃ¶r":9134,"Ġ52":9135,"ĠlÃŃfsg":9136,"verton":9137,"ĠskiptiÃ°":9138,"aÃ°num":9139,"ĠDanÃŃel":9140,"ĠÃ¾orsk":9141,"ĠÃ³ttast":9142,"ĠbÃ³kin":9143,"ĠlÃ¦kkaÃ°":9144,"rann":9145,"ĠbjÃ³Ã°":9146,"ogiÃ°":9147,"Ġopinberlega":9148,"ĠmjÃºk":9149,"ĠslÃŃkri":9150,"ide":9151,"ĠKra":9152,"sstofnunar":9153,"ĠÃģtta":9154,"Ġkeyra":9155,"Ġhiti":9156,"ĠliÃ°num":9157,"ĠsvipaÃ°":9158,"Ġtilraunir":9159,"ĠLoft":9160,"ÃŃas":9161,"Ã¦kt":9162,"Ġheitt":9163,"ĠtÃŃÃ°ni":9164,"skÃ¶punar":9165,"Ġsagan":9166,"ĠdagskrÃ¡r":9167,"ĠElÃŃs":9168,"ĠÃ¾ekktur":9169,"ĠÃģkvÃ¶rÃ°un":9170,"Ġsvart":9171,"ĠÃ¦vi":9172,"ĠMorgunblaÃ°sins":9173,"ĠÃ¡skil":9174,"ĠLS":9175,"Ġtakt":9176,"asamtÃ¶k":9177,"ĠÂ¦":9178,"ĠRagnheiÃ°ur":9179,"Ġmanninn":9180,"ĠrannsÃ³knarinnar":9181,"ĠviÃ°skiptavinum":9182,"ĠÃ³skaÃ°i":9183,"ĠHÃ¶fundur":9184,"extir":9185,"trÃ©":9186,"ĠsjÃ¡lfri":9187,"ĠrÃ©":9188,"atÃ¶ku":9189,"Ġofbeldis":9190,"47":9191,"ĠrekiÃ°":9192,"entu":9193,"ĠrÃ©ttum":9194,"ĠnotaÃ°i":9195,"ĠsÃ½ninguna":9196,"orÃ°iÃ°":9197,"Ġeinkunn":9198,"ĠskoÃ°anak":9199,"ĠSeÃ°labankans":9200,"rukk":9201,"ĠPageID":9202,"ĠHM":9203,"Ġorlof":9204,"Ġdra":9205,"stjÃ³rnun":9206,"Â²":9207,"ganga":9208,"ĠundirbÃºningi":9209,"ĠÃŀekk":9210,"jÃ¶ri":9211,"Ġyfirskrift":9212,"lyf":9213,"snesi":9214,"Ġsturtu":9215,"Ġtrufl":9216,"stofunni":9217,"Ġraunverulega":9218,"Ġklukkustund":9219,"Ġgeisla":9220,"ĠKÃ³r":9221,"ĠslÃ³":9222,"ĠfÃ¡ir":9223,"stÃ¶Ã°va":9224,"ĠThom":9225,"ĠVestmannaeyja":9226,"alandi":9227,"48":9228,"ĠafÃ¾rey":9229,"Ġ76":9230,"Ġvaxa":9231,"ĠstaÃ°ur":9232,"ĠumsÃ³knum":9233,"Ġtilkynnti":9234,"ĠgÃ¦slu":9235,"ĠSÃ½r":9236,"Ġka":9237,"ĠbÃ³kmennta":9238,"Ġtengt":9239,"ĠRÃºm":9240,"ĠBreiÃ°ab":9241,"ĠbandarÃŃsk":9242,"mu":9243,"eigenda":9244,"ĠlÃ¦rt":9245,"Ġgall":9246,"rÃ©ttindi":9247,"rur":9248,"legi":9249,"Ġspurningunni":9250,"ĠumhverfiÃ°":9251,"ĠverÃ°bÃ³lgu":9252,"ĠnÃ¦stunni":9253,"Ġfitu":9254,"Ġspeg":9255,"ĠDavid":9256,"ĠstefnumÃ³tun":9257,"ĠfordÃ³m":9258,"ĠpersÃ³nulega":9259,"ĠfÃ¦rslu":9260,"Ġfimmta":9261,"ĠstÃºlkur":9262,"Ġmarkviss":9263,"Ã¼":9264,"ĠviÃ°skiptavini":9265,"ĠmiÃ°ar":9266,"Ġfanga":9267,"atilkyn":9268,"snÃ¡m":9269,"jurnar":9270,"bergja":9271,"Ġkarlmenn":9272,"ee":9273,"ĠfljÃº":9274,"Ġdeiliskipulag":9275,"57":9276,"Ã¦ja":9277,"hafar":9278,"ĠvÃ¶ll":9279,"Ġ1988":9280,"ĠlandsbyggÃ°inni":9281,"ĠmÃŃnÃºt":9282,"Ã¡lk":9283,"Ġellef":9284,"Ġrosalega":9285,"endu":9286,"asa":9287,"Ġheimildum":9288,"jara":9289,"Ġhyggst":9290,"Ġbygging":9291,"atriÃ°um":9292,"ĠlegiÃ°":9293,"ĠspilaÃ°i":9294,"nap":9295,"ĠTom":9296,"ĠtÃºlkun":9297,"Ġheimildar":9298,"Ã¡lykt":9299,"ĠkÃ¦rÃ°i":9300,"Ġlung":9301,"Ġstefnir":9302,"ĠGrund":9303,"ĠstÃºdent":9304,"Ã¶s":9305,"39":9306,"ĠFjÃ¡rmÃ¡laeftirlitsins":9307,"ĠÃ¡gÃ¦tlega":9308,"ĠHilmar":9309,"Ġundanfarna":9310,"Ġveitinga":9311,"ĠlÃ½singu":9312,"nandi":9313,"ĠrÃ©ttu":9314,"kynhneig":9315,"ĠsÃ¦t":9316,"ekjur":9317,"Ġsaum":9318,"erÃ°a":9319,"ĠstÃ½ra":9320,"Ġflokkurinn":9321,"ĠNi":9322,"ĠsjÃ³manna":9323,"Ġneytenda":9324,"Ġgreiningar":9325,"ĠfjÃ¶lgaÃ°":9326,"ĠupplÃ½st":9327,"ĠKSÃį":9328,"ĠAndri":9329,"ĠInnan":9330,"ĠlÃŃkamanum":9331,"ĠsjÃ¡lfboÃ°aliÃ°":9332,"ĠvinsÃ¦la":9333,"ĠbÃŃlskÃºr":9334,"ĠEverton":9335,"Ġforsvar":9336,"burÃ°":9337,"afÃ©laga":9338,"ĠnÃ½s":9339,"ĠVestfir":9340,"ĠpÃº":9341,"ĠpersÃ³n":9342,"oÃ°um":9343,"ĠsÃ©rstakar":9344,"napp":9345,"ĠBS":9346,"ĠlÃ©tu":9347,"Ġheyrnar":9348,"alista":9349,"Ġskylda":9350,"burÃ°ur":9351,"ĠsvÃ¦Ã°isins":9352,"ĠÃ¾yngd":9353,"bba":9354,"ĠBA":9355,"ĠlÃ¶gunum":9356,"rÃºnu":9357,"nslu":9358,"ĠÃŀorgeir":9359,"Ġatvikum":9360,"ĠStrand":9361,"ĠmargvÃŃsleg":9362,"hlutverki":9363,"ĠÃ¶rlÃŃtiÃ°":9364,"ĠHelgu":9365,"ĠÃ³heimilt":9366,"ĠBandarÃŃkin":9367,"aleig":9368,"ĠskjÃ³ta":9369,"Ġeiganda":9370,"ING":9371,"Ġkyl":9372,"elsea":9373,"ĠBla":9374,"afundi":9375,"Ġpakk":9376,"Ġeitur":9377,"stÃ¦tt":9378,"ĠEva":9379,"ĠbensÃŃn":9380,"uss":9381,"ĠsamgÃ¶ngur":9382,"ĠkvÃŃÃ°a":9383,"hÃ³pa":9384,"Ġfyrirspurn":9385,"Ġflesta":9386,"sfjarÃ°ar":9387,"Ġkrydd":9388,"ĠvÃŃÃ°tÃ¦k":9389,"ferli":9390,"Ġfrumvarpi":9391,"ĠQu":9392,"Ġhlekk":9393,"virkjunar":9394,"ĠdÃ¦ma":9395,"Ġkonungur":9396,"feng":9397,"ĠTw":9398,"ĠglÃ¦":9399,"ĠÃ¡reiÃ°":9400,"osi":9401,"inue":9402,"ĠGÃŃsladÃ³ttir":9403,"ĠÃ³lÃŃkum":9404,"Ġrangt":9405,"ennandi":9406,"aldra":9407,"ĠsnjÃ³fl":9408,"ĠBolungarvÃŃkur":9409,"skÃ¶pun":9410,"iska":9411,"ĠYou":9412,"Ġlaust":9413,"ĠstÃ¡l":9414,"Ġendurgjald":9415,"Ã¾jÃ¡lfari":9416,"ĠÃįslendingum":9417,"ĠnÃ½skÃ¶pun":9418,"Ã¾Ã¶rf":9419,"ĠsmÃ¡m":9420,"TO":9421,"bjÃ¶r":9422,"ĠgrunnskÃ³lum":9423,"bik":9424,"Ġsjaldan":9425,"fari":9426,"ĠAÃ°alfundur":9427,"sly":9428,"Ã³ri":9429,"Ġskera":9430,"Ġungu":9431,"ĠtÃ³nleikum":9432,"bÃ¦ri":9433,"ĠfatlaÃ°ra":9434,"ĠviljaÃ°":9435,"Ġgefinn":9436,"ĠsjÃ³Ã°num":9437,"ĠfrumkvÃ¶Ã°":9438,"urn":9439,"ÃŃnver":9440,"ĠHR":9441,"atÃ¦kni":9442,"ĠPla":9443,"ĠlÃ¦ri":9444,"Ġglugga":9445,"Af":9446,"Ġofangreind":9447,"Ġkirkjunni":9448,"Ġir":9449,"ĠStofnun":9450,"ĠmÃ¡lsl":9451,"ĠPatrek":9452,"gjar":9453,"Ġsofa":9454,"ildir":9455,"ĠbÃ¦tist":9456,"ĠStÃ¦r":9457,"ĠgrÃ¦nna":9458,"Ġ1980":9459,"ĠnauÃ°synlegar":9460,"ĠLandssam":9461,"ĠSka":9462,"Ġ72":9463,"ĠBirnu":9464,"Ġgag":9465,"Ã¶guleik":9466,"ĠiÃ°k":9467,"Ġ1986":9468,"ĠpÃ¡ska":9469,"ĠGal":9470,"ĠÃ³viÃ°":9471,"ĠafleiÃ°ingum":9472,"ĠHol":9473,"blÃŃ":9474,"blÃ¡stur":9475,"ĠstÃ¦Ã°i":9476,"Ġmenntunar":9477,"ĠviÃ°miÃ°unar":9478,"afÃ©lagi":9479,"ĠlÃŃt":9480,"Ġlamb":9481,"ĠsÃ¶muleiÃ°is":9482,"ĠbÃ³lu":9483,"liÃ°ar":9484,"Ġfrumvarpsins":9485,"ĠÃ¦finga":9486,"Ġhaus":9487,"Ġskort":9488,"Ġtilheyrandi":9489,"ĠÃ¾ingmanna":9490,"ĠdÃ³s":9491,"ĠendurhÃ¦":9492,"Ġso":9493,"ĠlÃ¡nveit":9494,"ĠjÃ¡rn":9495,"Ġstand":9496,"ĠFag":9497,"Ġefnahagssv":9498,"Ġenska":9499,"ĠtÃŃmar":9500,"Ġandlega":9501,"ĠChelsea":9502,"helgi":9503,"ĠÃ¦v":9504,"Ġennfremur":9505,"Ġtilfelli":9506,"ĠUnivers":9507,"Ġalgengt":9508,"Ġborin":9509,"te":9510,"ĠÂķ":9511,"ĠbÃ³kum":9512,"ond":9513,"Ġkan":9514,"ĠKrÃ³":9515,"Ġendanum":9516,"ĠeinliÃ°aleik":9517,"Ġhringja":9518,"Ġsof":9519,"ĠFyrsti":9520,"Ġfjarri":9521,"andamÃ¡l":9522,"lli":9523,"Ġmerkt":9524,"ipp":9525,"Ġsj":9526,"ĠFylgi":9527,"ĠÃ¡rslok":9528,"ĠTe":9529,"Ġfesta":9530,"ĠendurskoÃ°a":9531,"Ġveitingar":9532,"ĠÃ¡kvÃ¶rÃ°unar":9533,"ĠgrunnskÃ³l":9534,"ĠEFTA":9535,"ĠsnÃºast":9536,"ĠAs":9537,"Ġveltir":9538,"Ġskar":9539,"ĠnÃ½veriÃ°":9540,"ĠArsen":9541,"ĠEfni":9542,"ĠHÃºsavÃŃk":9543,"ĠFrÃ©ttir":9544,"endingum":9545,"EI":9546,"unina":9547,"Ãºrslit":9548,"ano":9549,"ĠhlutaÃ°":9550,"ĠEnd":9551,"ux":9552,"andann":9553,"ĠVÃ¶r":9554,"Ġbarni":9555,"Ġsterka":9556,"les":9557,"ĠÃŀÃ³rarinsson":9558,"ĠflugvÃ©l":9559,"Ġsannleik":9560,"ĠÃģÃ¦tl":9561,"59":9562,"ĠÃ¾Ã¡tttakenda":9563,"Ġtog":9564,"Ã¶Ã°var":9565,"Ġkrepp":9566,"tarnir":9567,"ĠdÃ¶kk":9568,"ĠmÃ¡lin":9569,"ĠÃ¾Ã¡tttaka":9570,"ĠnÃ¡mskeiÃ°iÃ°":9571,"rÃ¦nna":9572,"Ġpassa":9573,"ĠNorÃ°urlandi":9574,"ĠSkÃºla":9575,"isti":9576,"Ġmyndarinnar":9577,"supp":9578,"ĠÃģl":9579,"ĠstundaÃ°":9580,"Ġlaunum":9581,"ĠjafnrÃ©tti":9582,"Ã¡riÃ°":9583,"skÃ³ga":9584,"ĠkallaÃ°ur":9585,"eyk":9586,"ĠkÃŃlÃ³metra":9587,"ĠsmÃŃÃ°":9588,"krafa":9589,"Ġgla":9590,"ĠÃºtsk":9591,"smat":9592,"ĠplÃ¶t":9593,"alyf":9594,"menntun":9595,"tarÃ¡Ã°":9596,"ation":9597,"Ġbratt":9598,"abet":9599,"Ġlitlar":9600,"ĠUmhverfisstofnun":9601,"sbÃ³k":9602,"ĠstjÃ³rnmÃ¡lamenn":9603,"Ġeigenda":9604,"ĠSelt":9605,"ĠÃŀjÃ³r":9606,"ĠframlÃ¶g":9607,"ĠheilsugÃ¦slu":9608,"ĠContinue":9609,"yngd":9610,"ĠVeit":9611,"Ġbirtir":9612,"ĠÃºtgÃ¡fa":9613,"ĠdÃ¶nsku":9614,"ĠsÃ³s":9615,"lÃ½st":9616,"ĠÃ¡varp":9617,"Ġfengi":9618,"tÃ¶lur":9619,"ĠrÃ¡Ã°gjafar":9620,"Ġlita":9621,"ĠÃ¾re":9622,"ĠmÃŃnÃºtum":9623,"ĠskuldabrÃ©f":9624,"ĠrÃŃkinu":9625,"ĠLitli":9626,"ĠÃĵmar":9627,"stefna":9628,"ĠÃ¡Ã¦tlaÃ°":9629,"sheiÃ°i":9630,"jÃºka":9631,"NÃº":9632,"Ġvakt":9633,"fyrir":9634,"ael":9635,"ign":9636,"sÃ¡Ã¦tl":9637,"Ġfinni":9638,"ĠhlaupiÃ°":9639,"ĠSÃ¦var":9640,"skrifstofu":9641,"ĠPers":9642,"svelli":9643,"dals":9644,"Ã¦Ã°in":9645,"Ġsilfur":9646,"gÃ¶gn":9647,"rÃ©ttur":9648,"yrkja":9649,"ĠEinstak":9650,"ect":9651,"ĠauÃ°veldara":9652,"eru":9653,"ino":9654,"ital":9655,"ĠFrek":9656,"rÃ©ttinda":9657,"BA":9658,"Ġminnast":9659,"ĠÃģstral":9660,"ĠmatarÃ¦Ã°i":9661,"ĠBald":9662,"Ġsr":9663,"ĠstjÃ³rnenda":9664,"Ġtapa":9665,"Ġ96":9666,"ĠsnÃºiÃ°":9667,"Ġdoll":9668,"ĠHildur":9669,"ĠÃºtgjÃ¶ld":9670,"lÃ¦knis":9671,"Ġne":9672,"ĠspÃ¦n":9673,"undurinn":9674,"ĠÃ¾orp":9675,"Ġbakter":9676,"Ġalgerlega":9677,"ĠaÃ°lÃ¶g":9678,"Ġ94":9679,"Ġsystk":9680,"alau":9681,"ĠHornafirÃ°i":9682,"ĠVerÃ°i":9683,"orÃ°i":9684,"ĠlÃ¶ggjÃ¶f":9685,"arfÃ©lagiÃ°":9686,"Ġho":9687,"Ġspjald":9688,"ĠÃ¾jÃ¡lfara":9689,"skarandi":9690,"ĠskipaÃ°":9691,"Ġalmenningur":9692,"Ġsamskipta":9693,"eb":9694,"nefnda":9695,"ĠnÃ½jasta":9696,"angar":9697,"ĠtÃ¦kja":9698,"ĠritstjÃ³ra":9699,"ĠsÃ©rhÃ¦f":9700,"ĠvirÃ°isaukaskatt":9701,"ĠFÃ¶stu":9702,"ĠauÃ°veldlega":9703,"Ġbiskup":9704,"ĠTra":9705,"skurÃ°ar":9706,"ĠÃļl":9707,"lÃŃfi":9708,"Ġtilteknum":9709,"ĠbrÃ¡Ã°abirgÃ°a":9710,"Ġsamningar":9711,"ĠAra":9712,"ĠdvÃ¶l":9713,"ĠrÃ©ttindum":9714,"ĠhugleiÃ°":9715,"ĠGrafar":9716,"ĠÃģstÃ¦Ã°an":9717,"bandiÃ°":9718,"ĠskilaÃ°i":9719,"ĠGarÃ°":9720,"lÃŃnis":9721,"ĠTillaga":9722,"ĠAfrÃŃku":9723,"ĠhrÃ¡efni":9724,"ĠfjÃ³rÃ°ung":9725,"olÃŃu":9726,"sveitir":9727,"ĠaÃ°gangur":9728,"reina":9729,"ĠLeikurinn":9730,"Ġ51":9731,"ĠÃ¾ekking":9732,"Ġkeppninni":9733,"ĠAndrÃ©":9734,"ĠGunnlaugsson":9735,"ĠGrÃ³":9736,"Ġsteik":9737,"ĠgÃ¶mlum":9738,"ĠsamanburÃ°ar":9739,"ĠGylfi":9740,"ĠMerk":9741,"EL":9742,"iliÃ°":9743,"ĠSjÃ¡lfstÃ¦Ã°isflokkurinn":9744,"ĠÃºtgerÃ°":9745,"rÃ½mi":9746,"ĠFreyr":9747,"ĠHvert":9748,"Ġfynd":9749,"ĠviÃ°urkenna":9750,"ofnanir":9751,"ĠklÃ¦Ã°a":9752,"ĠstjÃ³rnsÃ½":9753,"Ġverslanir":9754,"ĠkÃŃlÃ³":9755,"ĠHeiÃ°ar":9756,"svein":9757,"Ġlu":9758,"ĠFerÃ°a":9759,"tÃ¦kjum":9760,"ĠjÃ³kst":9761,"Ġopnunar":9762,"onan":9763,"ĠSmÃ¡ri":9764,"bÃ³":9765,"Ã¦Ã°ingar":9766,"ock":9767,"ĠArctic":9768,"KK":9769,"Ġhvetjum":9770,"igi":9771,"skylda":9772,"ĠsÃ¶l":9773,"jag":9774,"ĠNjarÃ°":9775,"sfor":9776,"bundna":9777,"Ġskipulagi":9778,"skaplega":9779,"jÃ¶kuls":9780,"ĠBand":9781,"ĠVilhjÃ¡lm":9782,"shÃ¶ll":9783,"Ġsafnsins":9784,"ĠstÃ¶Ã°ugleika":9785,"Ġminnk":9786,"ĠÃŀork":9787,"ĠÃ¡lyk":9788,"ĠmÃ¡lsmeÃ°ferÃ°":9789,"fÃ¶rum":9790,"farar":9791,"Ġsamningsins":9792,"ford":9793,"eistaramÃ³t":9794,"ĠÃŀÃ³ra":9795,"ĠAc":9796,"stÃ¶Ã°ina":9797,"ĠaÃ°alfund":9798,"ĠbÃºÃ°":9799,"ĠPark":9800,"vÃŃsindasviÃ°":9801,"seÃ°":9802,"Ġep":9803,"greiÃ°slur":9804,"ĠRÃ³ber":9805,"ĠÃ¡standiÃ°":9806,"ĠÃ¾rÃ¡Ã°":9807,"ĠÃįr":9808,"nr":9809,"ĠtiltekiÃ°":9810,"ĠJapan":9811,"OS":9812,"Ã¡kvÃ¦Ã°i":9813,"ĠmÃºsl":9814,"engsl":9815,"ferÃ°in":9816,"ldum":9817,"ĠbeinlÃŃnis":9818,"Ġstundar":9819,"arsal":9820,"ĠEinars":9821,"Ġskam":9822,"ĠNo":9823,"skort":9824,"Ġtryggingar":9825,"BR":9826,"Ġreynist":9827,"jÃ³lk":9828,"ĠÃ³vÃ¦nt":9829,"ĠSÃºÃ°a":9830,"gert":9831,"Ġveruleg":9832,"svegar":9833,"34":9834,"Ġklukkustundir":9835,"ĠNeÃ°":9836,"shÃ¡":9837,"tans":9838,"ĠArna":9839,"Ġskynsam":9840,"ega":9841,"ĠgÃŃtar":9842,"rÃ¦tÃ³":9843,"Ġburtu":9844,"Ġheimspeki":9845,"ĠstÃ³l":9846,"Ġ98":9847,"mikiÃ°":9848,"Ã³ru":9849,"ĠErtu":9850,"58":9851,"Ġeignum":9852,"ĠÃŀÃ³rÃ°ur":9853,"ĠSkÃ³grÃ¦kt":9854,"ĠKeflavÃŃkurflug":9855,"Ġfylgd":9856,"ĠfjarlÃ¦gja":9857,"Ġverkfall":9858,"ĠÃ¶l":9859,"Ġbruna":9860,"ĠbÃ¦jarstjÃ³ri":9861,"afrÃ¦Ã°ingur":9862,"Ġdanska":9863,"ĠsjÃ¡st":9864,"ĠTilkyn":9865,"ĠrÃ¡Ã°stafanir":9866,"Ġsamanstendur":9867,"ĠbÃ¦nda":9868,"ĠrÃ¶dd":9869,"Ġundar":9870,"ĠLund":9871,"Ġneinu":9872,"ĠjarÃ°veg":9873,"ĠreiknaÃ°":9874,"samninga":9875,"vek":9876,"Ġ02":9877,"ĠstjÃ³rnmÃ¡lum":9878,"nuÃ°um":9879,"ĠÃºrrÃ¦Ã°i":9880,"ĠrÃ¡Ã°ist":9881,"bÃŃla":9882,"ĠFax":9883,"Ġpart":9884,"ĠrÃ¡Ã°uneytisins":9885,"ĠsjÃ¡lfstÃ¦Ã°":9886,"ĠhÃ¡ttar":9887,"Ġvalinn":9888,"ĠfÃ¶g":9889,"Ġallavega":9890,"own":9891,"ĠSveitarstjÃ³rn":9892,"ĠuppÃ¡halds":9893,"eskaup":9894,"ĠÃŀÃ³rdÃŃs":9895,"eph":9896,"lita":9897,"ĠÃģher":9898,"neska":9899,"Ġarkitekt":9900,"der":9901,"iga":9902,"bÃ¦rt":9903,"arfÃ³lk":9904,"ĠskrÃ¡Ã°ir":9905,"ĠÃ¡t":9906,"ĠhlutaÃ°eigandi":9907,"safninu":9908,"ĠauglÃ½singu":9909,"ĠWorld":9910,"alegum":9911,"hÃ¦tt":9912,"Ġsettu":9913,"edÃŃ":9914,"ĠhÃºsnÃ¦Ã°is":9915,"Ġhau":9916,"ĠÃ³tal":9917,"Ġmikillar":9918,"veiÃ°ar":9919,"ĠÃŀiÃ°":9920,"ĠÃ³eÃ°l":9921,"ĠdÃ³ms":9922,"skÃ½":9923,"ĠbÃºi":9924,"Ãºf":9925,"ĠmÃŃnÃºtna":9926,"900":9927,"ĠVit":9928,"ĠRafn":9929,"elda":9930,"ĠbjÃ¶r":9931,"Ġskell":9932,"Ġ{":9933,"ler":9934,"Ã¶fum":9935,"Ġlokin":9936,"Ġ97":9937,"gÃ¶ngum":9938,"Ġbeinni":9939,"Ġraka":9940,"ĠJÃ³ni":9941,"Ġleiti":9942,"ĠnÃ¡ttÃºrunni":9943,"ĠViÃ°ar":9944,"use":9945,"Ġdreift":9946,"ĠforstjÃ³ra":9947,"Ġskora":9948,"kennt":9949,"Ġfallegu":9950,"ĠtÃŃminn":9951,"Ġtekna":9952,"Ġhaga":9953,"Ġmaka":9954,"Ã¦dd":9955,"ĠumsÃ¦kjandi":9956,"ĠÃ¡hugasam":9957,"Ġhreyfi":9958,"Ġkynntar":9959,"ĠsÃ©rfrÃ¦Ã°ingur":9960,"PA":9961,"eis":9962,"ĠtÃ¶lum":9963,"ĠSey":9964,"Ġskilgreina":9965,"ĠsÃ³t":9966,"Ġskrey":9967,"ĠÃ¾ykja":9968,"ĠSan":9969,"ĠskÃ³linn":9970,"lÃ¶ndum":9971,"âĢŀ":9972,"ĠStyrk":9973,"Ġeiginleika":9974,"Ġhitti":9975,"Ã¾Ã¡ttum":9976,"Ġ}":9977,"ĠJÃ³la":9978,"Ã°austur":9979,"ĠhÃ³pum":9980,"ĠÃºtfÃ¦r":9981,"hreins":9982,"ĠÃ¾jÃ³Ã°ir":9983,"EC":9984,"Ġbarnaverndar":9985,"Ġdrey":9986,"Ġfagnar":9987,"Ġsveita":9988,"ĠkallaÃ°i":9989,"skapar":9990,"Ġmannkyn":9991,"Ġumsagnar":9992,"ĠeruÃ°":9993,"Ġmisskil":9994,"ĠNeyt":9995,"ĠLoks":9996,"uÃ°ust":9997,"ĠÃ¾ingiÃ°":9998,"Ġfrumvarpinu":9999,"ĠBÃ¡rÃ°ar":10000,"ĠliÃ°um":10001,"Ġskipar":10002,"ĠstaÃ°festingu":10003,"ĠÃĵli":10004,"Ġmorgni":10005,"sjÃ³Ã°ur":10006,"Ġbrag":10007,"Ġnotast":10008,"ĠstofnuÃ°":10009,"part":10010,"ÃŃla":10011,"Ġspennu":10012,"ĠÃ³per":10013,"hvert":10014,"slegri":10015,"Ġreading":10016,"Ġneinn":10017,"ĠÃŀessu":10018,"ĠaÃ°alfundar":10019,"Ġsala":10020,"Ġendurupp":10021,"Ã³nÃŃu":10022,"ĠÃ¾unglyndi":10023,"ĠLoka":10024,"ĠmannrÃ©ttind":10025,"ĠMed":10026,"Ġblind":10027,"ĠtÃ³mstund":10028,"lausa":10029,"framleiÃ°":10030,"Ġfry":10031,"ĠNÃ½r":10032,"ĠboÃ°aÃ°":10033,"ĠSK":10034,"ĠupplÃ½sa":10035,"ĠkartÃ¶f":10036,"lÃ¡na":10037,"ĠKa":10038,"bÃºin":10039,"endinga":10040,"Ġherbergja":10041,"Ã¡ms":10042,"ĠstÃ¶Ã°una":10043,"Ġkald":10044,"ĠkÃ¦m":10045,"unniÃ°":10046,"ĠKal":10047,"ĠjÃ¶fn":10048,"ĠArsenal":10049,"eytiÃ°":10050,"ĠaldraÃ°":10051,"ĠfrÃ¡sÃ¶gn":10052,"ĠslitiÃ°":10053,"Ġsmekk":10054,"ĠerfÃ°":10055,"shlut":10056,"ĠstÃ³rar":10057,"aul":10058,"ĠHeilbrigÃ°is":10059,"byrÃ°i":10060,"Ġsnyrti":10061,"ĠrÃŃkisskatt":10062,"ĠmÃ¡lÃ¾ing":10063,"spr":10064,"Ġvakna":10065,"vÃŃn":10066,"ĠsÃ½nist":10067,"Ãºra":10068,"agram":10069,"ĠHen":10070,"Ã¶sku":10071,"ĠÃ³sam":10072,"ĠmÃ¦lingar":10073,"ĠsÃ©rfrÃ¦Ã°ingar":10074,"hvort":10075,"ĠhjÃ³lreiÃ°":10076,"ĠferÃ°um":10077,"olla":10078,"ĠAF":10079,"Ġkjallara":10080,"ĠGrand":10081,"greiÃ°a":10082,"ĠsÃ¦m":10083,"Ġgas":10084,"arfull":10085,"setja":10086,"ĠskoÃ°uÃ°":10087,"Ġflokknum":10088,"ĠÃŀÃ¡tttakendur":10089,"stirÃ©ttur":10090,"ĠfÃ³rnarl":10091,"huga":10092,"Ġteljum":10093,"jÃ³Ã°um":10094,"ĠÃ³tta":10095,"ĠfjÃ¡rmun":10096,"Ã¡t":10097,"ĠhÃ³psins":10098,"ĠkjÃ¶rdÃ¦m":10099,"Ġfluttur":10100,"ĠsÃ¶guna":10101,"Ġafhenda":10102,"fÃ©lÃ¶gum":10103,"Ġmetrar":10104,"ĠMarÃŃu":10105,"Ġsendar":10106,"gle":10107,"ĠaÃ°staÃ°a":10108,"ĠÃ¡kaf":10109,"Ġsami":10110,"Ġungmenni":10111,"Ġtakmarka":10112,"ĠHÃ¡skÃ³lann":10113,"rÃ¦nni":10114,"ensen":10115,"rÃ¦tt":10116,"ĠKaffi":10117,"ĠglÃŃm":10118,"ĠhÃ³fust":10119,"ĠhÃ¡deginu":10120,"Ġdreifingu":10121,"sstaÃ°a":10122,"ĠsvokallaÃ°a":10123,"ĠverÃ¶ld":10124,"Ġverkefnis":10125,"Ġsmell":10126,"ĠveiÃ°im":10127,"ĠstjÃ¶rn":10128,"ĠmiÃ°borg":10129,"Ġme":10130,"ĠkveÃ°ur":10131,"hljÃ³msveit":10132,"ÃŀÃº":10133,"ĠblaÃ°iÃ°":10134,"Ġdvelja":10135,"ĠljÃ³Ã°a":10136,"ĠstjÃ³rnarand":10137,"ĠBjÃ¶rgun":10138,"ĠValdimar":10139,"ĠUmsÃ³kn":10140,"ĠSÃ©rstaklega":10141,"Ġbjug":10142,"Ġkeppt":10143,"ĠtjÃ³ni":10144,"ĠbÃ³t":10145,"verur":10146,"uga":10147,"yndÃŃs":10148,"ĠÃ¾ingflokk":10149,"Ġpi":10150,"astjÃ³ri":10151,"ĠÃŃslenskan":10152,"Ġsvepp":10153,"sfram":10154,"ÃŃskur":10155,"ĠReyni":10156,"komin":10157,"ĠLaun":10158,"Ġsvefnherbergi":10159,"ĠGrindavÃŃkur":10160,"EA":10161,"Ġverkinu":10162,"ĠAtli":10163,"Ġkvar":10164,"ise":10165,"herja":10166,"ĠÃºtgerÃ°ar":10167,"ĠJu":10168,"slaust":10169,"ĠstaÃ°festir":10170,"ÃŃnur":10171,"Ġjur":10172,"andanum":10173,"ĠSaman":10174,"Ġlifir":10175,"ĠhÃ¦sta":10176,"Ġuppfyllt":10177,"Ġeftirspurn":10178,"ĠlÃŃfsst":10179,"Ġoss":10180,"Ġkrefjandi":10181,"Ġlo":10182,"Ġaukning":10183,"ĠbrÃºÃ°":10184,"Ġvonast":10185,"ĠlÃºta":10186,"Ġ62":10187,"ĠauglÃ½sa":10188,"ĠnÃ¡miÃ°":10189,"ĠSkÃ³":10190,"Ġeldra":10191,"Ġgefi":10192,"ĠfullyrÃ°":10193,"eldu":10194,"amÃ³tum":10195,"ĠUniversity":10196,"bann":10197,"Ġforrit":10198,"Ġnefndir":10199,"akir":10200,"erum":10201,"ĠÃ¾jÃ³Ã°a":10202,"ĠfjÃ¡rhagsÃ¡Ã¦tlun":10203,"ĠveÃ°riÃ°":10204,"verÃ°launa":10205,"Ġlosa":10206,"jÃ¶ldum":10207,"ĠSviss":10208,"ĠBrÃ©f":10209,"ĠMargar":10210,"virki":10211,"drykk":10212,"Ġsveigjan":10213,"ĠtilboÃ°i":10214,"ĠMichael":10215,"mynda":10216,"Ġnotum":10217,"Ã¾Ã¦ttir":10218,"Ġpall":10219,"Ġdrott":10220,"breytta":10221,"ĠÃ¾ingsÃ¡lykt":10222,"boga":10223,"gen":10224,"saga":10225,"eÃ°ferÃ°ar":10226,"nem":10227,"ĠÃŀÃ³runn":10228,"stjÃ³rnin":10229,"ĠorÃ°nir":10230,"ĠgildistÃ¶ku":10231,"ĠlangaÃ°i":10232,"ĠBoÃ°iÃ°":10233,"ĠnÃºtÃŃma":10234,"Ġ73":10235,"Ġaldurs":10236,"unandi":10237,"itter":10238,"ĠVerÃ°ur":10239,"Ġfacebook":10240,"ĠPa":10241,"sveitar":10242,"ĠNa":10243,"Ġumfangsmik":10244,"upplÃ½singar":10245,"ĠÃºrskurÃ°i":10246,"Ġtoga":10247,"Ġveislu":10248,"ĠvandrÃ¦Ã°um":10249,"ĠlÃ¶gfrÃ¦Ã°i":10250,"ĠSeltjarnar":10251,"ev":10252,"ssel":10253,"Ġrann":10254,"tis":10255,"ĠstaÃ°setningu":10256,"ĠhÃ¡tÃŃÃ°inni":10257,"ĠÃ¾akkar":10258,"Ġdaglegu":10259,"ĠÃ¦sku":10260,"Ġvert":10261,"skerfi":10262,"ĠgripiÃ°":10263,"ĠEmb":10264,"ĠÃŀrÃ¡":10265,"ĠÃ¦tluÃ°":10266,"ĠendurnÃ½jun":10267,"ĠskrÃŃ":10268,"ulÃŃf":10269,"aleyfi":10270,"Ġkynja":10271,"Ġmissti":10272,"amanns":10273,"ĠviÃ°rÃ¦Ã°ur":10274,"laginu":10275,"valdi":10276,"ĠbÃŃlinn":10277,"ĠstÃ¦rra":10278,"ĠÃ¡horfendur":10279,"ĠÃ¡nÃ¦gÃ°":10280,"atal":10281,"ĠfrjÃ³":10282,"ĠumhverfisÃ¡hrif":10283,"ĠEinarsdÃ³ttir":10284,"ĠviÃ°urkenningar":10285,"ĠritstjÃ³ri":10286,"ĠsamtÃ¶kin":10287,"afli":10288,"Ġfrels":10289,"ĠÃ¾jÃ³Ã°inni":10290,"ĠSmell":10291,"Ã¦f":10292,"tteg":10293,"bbi":10294,"ĠBlÃ¶ndu":10295,"ĠVak":10296,"ĠTÃ¦kni":10297,"MA":10298,"ĠÃ¦skulÃ½Ã°":10299,"ĠinnÃ¡":10300,"oogle":10301,"lurnar":10302,"ĠÃŃslenz":10303,"Ġreiknings":10304,"bÃºÃ°ar":10305,"alengd":10306,"ĠÃįÃ¾rÃ³tt":10307,"Ã¦mis":10308,"ĠbÃŃÃ°ur":10309,"ĠKÃ³m":10310,"Ġtegundum":10311,"ĠeinlÃ¦g":10312,"Ġaugun":10313,"ĠÃ¶rug":10314,"disk":10315,"ĠBaÃ°":10316,"Ã¶gulegt":10317,"ĠtÃ³bak":10318,"Ġ1984":10319,"viÃ°ur":10320,"Ġ186":10321,"ĠNoregs":10322,"ĠgrÃ¡Ã°u":10323,"vefnum":10324,"otu":10325,"Ġflugi":10326,"ĠBryndÃŃs":10327,"ĠfarÃ¾eg":10328,"ĠGra":10329,"ĠSF":10330,"ĠBak":10331,"ĠÃįrak":10332,"ruÃ°u":10333,"Ġreikninga":10334,"ĠSara":10335,"ĠkvaÃ°":10336,"vika":10337,"umÃ¡la":10338,"Ġgras":10339,"ĠEnda":10340,"ĠÃºtgÃ¡f":10341,"ĠaÃ°skil":10342,"ĠÃ¶rfÃ¡":10343,"Ġskulum":10344,"Ġertu":10345,"Ġhreyfing":10346,"Ġkannast":10347,"Ġsekt":10348,"ĠfrestaÃ°":10349,"Ġramm":10350,"Ġ03":10351,"brÃ©fi":10352,"ĠverÃ°iÃ°":10353,"ĠtÃŃmabiliÃ°":10354,"Ġunglingar":10355,"ĠfÃ¶tl":10356,"stÃ¶k":10357,"ĠSkoÃ°":10358,"ĠfrumvarpiÃ°":10359,"slÃ³Ã°":10360,"ĠSigurgeir":10361,"ĠWilli":10362,"ĠeÃ°lilega":10363,"ĠSnorri":10364,"ner":10365,"ĠÃįbÃºÃ°alÃ¡nasjÃ³Ã°s":10366,"Ġalmennra":10367,"ĠmÃ³tsins":10368,"ĠskapaÃ°":10369,"ĠsjÃºkrahÃºs":10370,"Ġstutta":10371,"Ġslas":10372,"ĠpÃ³litÃŃk":10373,"ington":10374,"ĠlÃ¦knar":10375,"Ġparket":10376,"Ġtryggir":10377,"ĠMatvÃ¦lastofnun":10378,"ĠÃºtilok":10379,"ĠRÃ¦tt":10380,"Ġendanlega":10381,"ela":10382,"ĠMikill":10383,"ĠNÃ½tt":10384,"Ġungs":10385,"ĠjÃ¡kvÃ¦tt":10386,"alof":10387,"ĠSuÃ°ureyri":10388,"miss":10389,"ĠFjar":10390,"ĠKenn":10391,"holts":10392,"ĠSteingrÃŃmur":10393,"Ġ91":10394,"Ġdreifa":10395,"afÃ³lki":10396,"ĠhÃ¦fileik":10397,"ĠumrÃ¦Ã°unni":10398,"ism":10399,"ents":10400,"ĠSteinunn":10401,"hÃ¶llinni":10402,"efa":10403,"ĠbrugÃ°ist":10404,"fjall":10405,"Ġleyst":10406,"Ã¶mb":10407,"ĠbeÃ°nir":10408,"Ġmillj":10409,"ĠLandhelgisgÃ¦slunnar":10410,"ĠUmsÃ³knar":10411,"grip":10412,"eifl":10413,"ĠBorgarnesi":10414,"eyrir":10415,"ĠstuÃ°ningur":10416,"Ġkennurum":10417,"ĠFrank":10418,"ĠvÃŃkja":10419,"Ġfyrirliggjandi":10420,"Ġte":10421,"ĠhÃ¦kkar":10422,"nam":10423,"bjÃ¶rnsson":10424,"ĠIV":10425,"frjÃ¡l":10426,"Ġstarfsleyfi":10427,"ĠgÃ¦Ã°um":10428,"Ġaacute":10429,"ĠÃĸl":10430,"avÃ©":10431,"ĠSÃŃÃ°ar":10432,"ĠfÃ©lagslega":10433,"ĠÃ¾vi":10434,"ĠÃ¾rÃ¶ng":10435,"Ġsamsvar":10436,"eypa":10437,"ĠSjÃ¡var":10438,"fist":10439,"isst":10440,"ĠPi":10441,"ĠskipulÃ¶g":10442,"sfl":10443,"araÃ¾":10444,"Ġframhaldinu":10445,"fanga":10446,"uninni":10447,"Ġag":10448,"ĠBretlands":10449,"nÃºmer":10450,"Â´":10451,"ĠsÃŃmi":10452,"breytingum":10453,"ĠÃĨt":10454,"spor":10455,"ĠaldraÃ°ra":10456,"Ġmagni":10457,"tÃŃÃ°in":10458,"ĠNorrÃ¦na":10459,"arleyfi":10460,"Ã¶flun":10461,"snes":10462,"ĠvaxiÃ°":10463,"ĠÃ½ta":10464,"ĠJÃ³nasson":10465,"Ġgengis":10466,"ĠmÃ¦lir":10467,"ĠEÃ°":10468,"ĠlÃ¶greglunni":10469,"Ġskugga":10470,"ĠhafnaÃ°i":10471,"asp":10472,"ĠloftiÃ°":10473,"Ġkonungs":10474,"ĠStofn":10475,"arkmiÃ°":10476,"Ġ700":10477,"Ġfyrirmyndar":10478,"Ġsinnir":10479,"ĠMer":10480,"ĠfrÃ©ttatilkyn":10481,"Ġhyl":10482,"ĠatriÃ°um":10483,"31":10484,"sÃ³tt":10485,"Ġferil":10486,"Ãºk":10487,"shrepp":10488,"ĠsÃ¦tiÃ°":10489,"yle":10490,"Ġhesta":10491,"Ġ1985":10492,"ĠÃĸllum":10493,"viss":10494,"ĠVI":10495,"ĠÃ¾ola":10496,"ĠSu":10497,"ĠmeÃ°fram":10498,"ĠMari":10499,"Ġlistamanna":10500,"ĠÃ¾riÃ°ji":10501,"yggja":10502,"ĠsÃ©rstakan":10503,"bjargar":10504,"ersen":10505,"Ġgegnir":10506,"ĠstjÃ³rnarfor":10507,"ĠfjÃ¶lskyldunni":10508,"ĠvÃ¶nd":10509,"ĠsÃ¡rs":10510,"Ġinnheimtu":10511,"Ġfullri":10512,"ĠsÃ¶fnun":10513,"Ġstundir":10514,"merkur":10515,"Ġreisa":10516,"ory":10517,"sir":10518,"ym":10519,"ĠÃ½msir":10520,"ĠMÃ¡liÃ°":10521,"ÃŃÃ³":10522,"Ã¶skuld":10523,"stÃ³la":10524,"ettu":10525,"Ġrusl":10526,"ĠdÃ¡lÃŃtiÃ°":10527,"ĠÃ¡kveÃ°nar":10528,"ssur":10529,"eisla":10530,"ĠskipaÃ°ur":10531,"ĠstjÃ³rnunar":10532,"ĠBarcel":10533,"ĠMiÃ°aÃ°":10534,"ĠgÃ¶nguleiÃ°":10535,"rad":10536,"Ġdekk":10537,"ĠBirk":10538,"Ġkalt":10539,"Til":10540,"ĠHit":10541,"edÃŃuleik":10542,"ban":10543,"Ġverslunum":10544,"jÃ³m":10545,"ĠframÃºrskarandi":10546,"Ġsamkynhneig":10547,"Ġtonnum":10548,"ĠummÃ¦li":10549,"Ġtungu":10550,"ĠdÃ¡nar":10551,"ĠskÃ³grÃ¦kt":10552,"Ġhandtekinn":10553,"ĠvirÃ°a":10554,"rÃ¡Ã°u":10555,"Ġrefsi":10556,"samningi":10557,"ĠÃ¾rÃ¦":10558,"Ġvarlega":10559,"ĠbÃ¶n":10560,"ĠSambands":10561,"ĠtilbÃºinn":10562,"Ġhreinsa":10563,"Ġsigurvegar":10564,"ĠaÃ°standendur":10565,"ĠrÃ¶kstuÃ°":10566,"ĠSlÃŃkt":10567,"Ġ79":10568,"ĠmiÃ°jum":10569,"ĠVeiÃ°":10570,"ĠPÃ³st":10571,"koman":10572,"Ġella":10573,"Ġfugl":10574,"onur":10575,"ĠfÃŃkniefna":10576,"nur":10577,"ĠÃ¡Ã¦t":10578,"ĠStykki":10579,"ĠHollandi":10580,"mundar":10581,"umenn":10582,"slaga":10583,"ĠlÃ¶gheimili":10584,"ĠhÃ¡tÃŃÃ°arinnar":10585,"astjÃ³rn":10586,"ĠNokkrir":10587,"ĠrÃ¡Ã°inn":10588,"Ġkeppnis":10589,"skekk":10590,"Ã³Ã°iÃ°":10591,"Ġmanninum":10592,"Ġskriflega":10593,"ĠfÃ¦Ã°i":10594,"Ġlistamann":10595,"ustan":10596,"Ġvinur":10597,"hjÃ¡lp":10598,"ĠTekiÃ°":10599,"indin":10600,"ĠeyÃ°i":10601,"Ġlosna":10602,"ĠFÃ©lagsheimilinu":10603,"bÃ³tar":10604,"Ġsafnast":10605,"rÃºnar":10606,"Ġaugnab":10607,"hliÃ°":10608,"Ġvelur":10609,"gÃ¦slu":10610,"ĠsveitarfÃ©lagiÃ°":10611,"ĠnetiÃ°":10612,"Ġkenningar":10613,"Ġleggjum":10614,"Ġsegjast":10615,"heilsu":10616,"fÃ¶ng":10617,"Ġhall":10618,"Ã¡lastofnun":10619,"Ġ180":10620,"ĠÃ¡frÃ½":10621,"ĠGamla":10622,"iÃ°a":10623,"ĠGuÃ°mundar":10624,"ÃŃskt":10625,"Ġskilur":10626,"ĠumsÃ¦kjanda":10627,"ĠUndanfar":10628,"skurÃ°":10629,"ĠEvrÃ³pusambandinu":10630,"ĠfyrirbÃ¦ri":10631,"ĠSkÃ½rsla":10632,"ĠAlmennt":10633,"Ġbyggingarf":10634,"ĠSpr":10635,"ĠgjaldskrÃ¡":10636,"dagskrÃ¡":10637,"ĠÃģrmann":10638,"ĠgÃŃfur":10639,"ĠlÃŃfsh":10640,"Ġnafninu":10641,"Ġmerkja":10642,"umar":10643,"ĠmÃ¡lflutning":10644,"ĠsÃŃld":10645,"ĠGunnars":10646,"ĠsafniÃ°":10647,"ĠKÃ³medÃŃuleik":10648,"Ġdagsett":10649,"Ġdi":10650,"xl":10651,"ĠjÃ¶fnu":10652,"ĠÃŃslensks":10653,"Ġsnil":10654,"ĠÃ¡nÃ¦gÃ°ur":10655,"ĠaÃ°gengileg":10656,"Ġreist":10657,"Ã¡Ã¦tlunar":10658,"Ãºtt":10659,"ĠvinsÃ¦l":10660,"ĠEurope":10661,"ĠvinnustaÃ°":10662,"ĠUppsÃ¶lum":10663,"ĠsÃ©rstÃ¶ku":10664,"aflug":10665,"juÃ°u":10666,"ĠmorÃ°":10667,"ĠReynir":10668,"ĠsÃ½r":10669,"ĠCity":10670,"Ġhentug":10671,"ĠVersl":10672,"ĠFimmtu":10673,"ĠRÃ³bert":10674,"ĠÃ¾reytt":10675,"ĠhÃ¶fÃ°i":10676,"Ã¾rÃ³unar":10677,"ĠviÃ°sta":10678,"Ġbikar":10679,"Ġhlust":10680,"Ġsnerta":10681,"Ġskuldbindingar":10682,"ĠskerÃ°":10683,"Ġtekjuskatt":10684,"slist":10685,"ĠÃ¦tlunin":10686,"ĠStykkishÃ³l":10687,"gÃ¶ngur":10688,"redit":10689,"Ġbankar":10690,"ĠFrumvarp":10691,"ĠHvar":10692,"ĠmÃ¡lefn":10693,"ĠÃºtbÃºa":10694,"ĠSteinar":10695,"ĠfÃ¡tÃ¦ktar":10696,"Ġbakv":10697,"vellinum":10698,"arfjarÃ°ar":10699,"ĠsÃ¦l":10700,"ĠFjallaÃ°":10701,"Ġhrygg":10702,"hrun":10703,"ĠHveragerÃ°i":10704,"Ġsveif":10705,"ĠÃ¡stÃ¦Ã°an":10706,"ĠSiglufirÃ°i":10707,"ĠvÃ¦gi":10708,"KÃ³re":10709,"con":10710,"slau":10711,"ĠhÃ¦ttir":10712,"ĠfjÃ¶lskyldan":10713,"ĠsamanburÃ°i":10714,"Ġser":10715,"Ã¶Ã°ur":10716,"Ġeinasta":10717,"ĠFinnlandi":10718,"ĠstrandveiÃ°":10719,"sÃ¡tt":10720,"Ġgar":10721,"ĠNik":10722,"Ġsams":10723,"ĠJÃºlÃŃus":10724,"Ġut":10725,"Ġalmennar":10726,"Ġ61":10727,"Ġforgang":10728,"Ġstefnanda":10729,"tengd":10730,"ĠStutt":10731,"ĠverksmiÃ°":10732,"spÃ¡":10733,"ĠSV":10734,"ĠsÃ³tarinn":10735,"byggingar":10736,"ĠbarÃ¡ttunni":10737,"ĠmarkmiÃ°iÃ°":10738,"ĠÃįslandsbanka":10739,"mt":10740,"vÃ¶rÃ°ur":10741,"eginum":10742,"ĠlÃŃkamann":10743,"ĠBenediktsdÃ³ttir":10744,"bÃ¡ta":10745,"agl":10746,"Ġskildi":10747,"ĠRÃ³s":10748,"ĠBÃºiÃ°":10749,"vÃŃsinda":10750,"vatns":10751,"sjÃºkdÃ³ma":10752,"Ġtilviki":10753,"Ġpru":10754,"ĠpÃ³l":10755,"ks":10756,"ĠlÃŃkindum":10757,"ĠhryÃ°juverk":10758,"ĠmyndbÃ¶nd":10759,"ĠPro":10760,"oup":10761,"kvÃŃ":10762,"ĠblaÃ°amann":10763,"ĠÃįslandsmÃ³ti":10764,"Ġkjarasamninga":10765,"ĠSetjiÃ°":10766,"Ġmeina":10767,"ĠBet":10768,"ĠnÃ½st":10769,"ĠmiÃ°nÃ¦tti":10770,"blÃ¶nd":10771,"ĠglÃŃma":10772,"sÃ³knara":10773,"ÃįS":10774,"heima":10775,"ĠValgeir":10776,"ĠÃ³Ã¾ekk":10777,"ĠBrynjÃ³l":10778,"Ġtaug":10779,"stofur":10780,"Ġ%":10781,"lÃ¦kni":10782,"Ġellefu":10783,"auta":10784,"amun":10785,"shl":10786,"ĠafstaÃ°a":10787,"ĠrÃ¦ktun":10788,"ĠbÃºsettur":10789,"ĠNes":10790,"ĠsjaldgÃ¦":10791,"tunum":10792,"stÃ³r":10793,"skju":10794,"ĠhÃºÃ°ina":10795,"ĠKer":10796,"ĠÃ¾Ã¡verandi":10797,"vÃ¶rp":10798,"Ġverksins":10799,"ĠrannsÃ³knarnefnd":10800,"ĠTakk":10801,"ĠritaÃ°i":10802,"drÃ¦tti":10803,"hyr":10804,"Ġmamma":10805,"ĠEyÃ¾Ã³r":10806,"ĠfiÃ°":10807,"Ġ04":10808,"ĠÃģstralÃŃu":10809,"ĠlÃŃm":10810,"ĠHÃ¦stirÃ©ttur":10811,"arÃ¡Ã°uneytisins":10812,"argjald":10813,"Ġteikni":10814,"ĠbÃŃlum":10815,"ĠbrÃ¡Ã°skemmt":10816,"ĠÃ¾jÃ³Ã°garÃ°":10817,"ĠhÃ½s":10818,"ĠAxel":10819,"ĠbrÃ³Ã°ir":10820,"ĠvarÃ°i":10821,"ĠAuÃ°ur":10822,"prÃ³fi":10823,"ĠumrÃ¦dd":10824,"ĠmÃ¶guleiki":10825,"Ġfelast":10826,"Ġbankinn":10827,"ĠgÃ¶tur":10828,"Ã¦fingar":10829,"blaÃ°inu":10830,"Ġhjartan":10831,"ĠÃ¾jÃ³n":10832,"ĠMac":10833,"sÃŃm":10834,"ĠRÃºsslandi":10835,"ĠFjalla":10836,"sÃ½ning":10837,"ĠhÃ¦lisleit":10838,"ÃŃus":10839,"Ġsumars":10840,"ĠnÃ¡lgun":10841,"ĠÃ¡kaflega":10842,"Ġjar":10843,"ĠÃ¡kÃ¦ru":10844,"unarkerfi":10845,"ĠCa":10846,"Ġskapar":10847,"ĠaflaÃ°":10848,"Ġnokkurs":10849,"Ġkn":10850,"ĠlÃ¡ti":10851,"Ġmikilla":10852,"eymi":10853,"ĠGreiÃ°":10854,"ĠÃ¾ekkta":10855,"ĠÃŀessa":10856,"ĠMyndir":10857,"ĠlifaÃ°":10858,"ĠÃ¾Ã¦ttinum":10859,"aÃ°gerÃ°ir":10860,"ĠmÃ¶guleg":10861,"Ġerlendir":10862,"Ġpil":10863,"Ã³su":10864,"atÃŃm":10865,"Ġallsherjar":10866,"ĠÃģrnes":10867,"ĠKA":10868,"konur":10869,"ĠglÃ¶g":10870,"ĠklukkutÃŃma":10871,"ĠkÃŃkja":10872,"ĠNauÃ°":10873,"ĠSveins":10874,"ĠÃ¾ekkir":10875,"Ġleikir":10876,"ĠfrÃŃtt":10877,"Ġeytt":10878,"Ġpipar":10879,"pera":10880,"slaug":10881,"Ġskiptast":10882,"ĠhugmyndafrÃ¦Ã°i":10883,"ĠRg":10884,"ĠJames":10885,"ĠErla":10886,"ĠstaÃ°festingar":10887,"Ġhelming":10888,"ĠGengiÃ°":10889,"taliÃ°":10890,"ĠerfiÃ°leikum":10891,"ĠskriÃ°":10892,"hvarf":10893,"ĠstofnaÃ°ur":10894,"ĠBank":10895,"ĠGagn":10896,"Ġvirkja":10897,"ĠVeriÃ°":10898,"ĠmÃ½":10899,"Ġytri":10900,"ĠendurgreiÃ°slu":10901,"32":10902,"asÃ¶m":10903,"ĠblaÃ°inu":10904,"ĠkvÃ¶ldi":10905,"ĠPo":10906,"ungum":10907,"ĠrÃºmum":10908,"veÃ°":10909,"ĠskotiÃ°":10910,"Ġtilheyra":10911,"ĠsjÃ¡lfkrafa":10912,"fs":10913,"Ġvarpa":10914,"ugur":10915,"Ã°unar":10916,"ĠNordi":10917,"ĠreiÃ°u":10918,"ĠlÃ³Ã°ar":10919,"ĠdÃ³":10920,"ĠAron":10921,"ĠOrÃ°":10922,"ĠalÃ¾jÃ³Ã°legu":10923,"ĠlÃ¦rÃ°i":10924,"ĠFrÃ©ttablaÃ°inu":10925,"ary":10926,"Ã¦ka":10927,"ĠÃ¦fingu":10928,"ĠkÃ¶r":10929,"Ġheyrir":10930,"ÃŃur":10931,"ĠÃĿms":10932,"Ġungur":10933,"Ġmyrk":10934,"svif":10935,"Ġstyttri":10936,"ĠBrussel":10937,"ĠsÃ¶gÃ°":10938,"ĠannaÃ°hvort":10939,"Ġvettvangur":10940,"Ġstrey":10941,"Ġeindreg":10942,"Ġdvalar":10943,"ĠlÃ½Ã°veld":10944,"hann":10945,"ĠMÃ¶rg":10946,"Ġbankanum":10947,"ĠFyrri":10948,"gjÃ¶rÃ°":10949,"ĠVÃŃsinda":10950,"eisl":10951,"ĠSkar":10952,"Ġendar":10953,"ĠsÃ©um":10954,"verÃ°launin":10955,"ĠStefnt":10956,"endast":10957,"Ġhlutina":10958,"Ġle":10959,"ĠStar":10960,"ĠhlÃŃÃ°ar":10961,"ĠkrÃ³nu":10962,"ĠendurskoÃ°unar":10963,"ĠstyÃ°ur":10964,"ĠmÃ³tun":10965,"ĠGoogle":10966,"Ġpopp":10967,"Ġ1970":10968,"ĠnÃ¡grann":10969,"ĠrÃŃkjandi":10970,"ĠAngel":10971,"ĠHaust":10972,"ĠskÃŃÃ°a":10973,"Ġhvoru":10974,"ĠKald":10975,"Ġheimilinu":10976,"verÃ°ir":10977,"Ġkomm":10978,"Ġ110":10979,"ĠÃŀrÃŃr":10980,"ĠTorf":10981,"Ġstyrkur":10982,"ĠbÃºnaÃ°i":10983,"indar":10984,"ĠframkvÃ¦mdum":10985,"hy":10986,"ĠÃĸg":10987,"ĠReglugerÃ°":10988,"ĠÃŀriÃ°ju":10989,"eip":10990,"Ġloftslags":10991,"Ġnyt":10992,"ĠGarÃ°abÃ¦jar":10993,"Ġ130":10994,"ĠAusturlands":10995,"ingunum":10996,"sÃ¦i":10997,"fag":10998,"ĠfÃ©llu":10999,"osti":11000,"agerÃ°arinnar":11001,"har":11002,"ĠfljÃºga":11003,"dalur":11004,"ĠAD":11005,"synlegt":11006,"Ġfullkomlega":11007,"dan":11008,"urÃ°ar":11009,"ĠLandsvirkjun":11010,"ĠfjÃ¡rhagslega":11011,"ĠNafn":11012,"Ġkrabbameins":11013,"ĠEmil":11014,"ĠfjÃ¶lskylduna":11015,"ĠÃ¡byr":11016,"ĠdÃ¡sam":11017,"ĠDom":11018,"Ġhreyfingar":11019,"Amer":11020,"Ġhverfi":11021,"Ġmerkir":11022,"ĠÃģsdÃŃs":11023,"ight":11024,"Ġbreidd":11025,"Ġhlutdeild":11026,"Ġvali":11027,"ĠvÃŃsit":11028,"Ġeftirt":11029,"ĠbrÃ³Ã°ur":11030,"Ġvitnesk":11031,"ĠJÃ³nssonar":11032,"Ġsamningnum":11033,"ĠgjaldÃ¾rota":11034,"ĠmatvÃ¦li":11035,"Ġgen":11036,"ĠSÃŃmi":11037,"Ġhlutu":11038,"ĠjafnaÃ°ar":11039,"ĠÃĸnnu":11040,"bÃºum":11041,"Ġï":11042,"heimildir":11043,"han":11044,"Ġtilvil":11045,"ĠsiÃ°ferÃ°i":11046,"ĠstÃ¦kka":11047,"ĠÃŀÃ³rhall":11048,"ĠÃ¶rork":11049,"Ġhagsmunum":11050,"ĠfjÃ¶lmiÃ°lar":11051,"OW":11052,"ĠlÃŃtinn":11053,"ib":11054,"ĠFann":11055,"Ġfarnir":11056,"Ġformanni":11057,"ĠArnÃ³r":11058,"jÃ¶rnum":11059,"ĠsmiÃ°":11060,"ĠFR":11061,"Ġfundust":11062,"ĠSport":11063,"Ġframvegis":11064,"ÃĿ":11065,"amennsku":11066,"ĠtapaÃ°i":11067,"Ġeinstakt":11068,"Ġberg":11069,"ĠrÃ¡Ã°i":11070,"ĠtÃºlka":11071,"2016":11072,"ĠundirritaÃ°ur":11073,"ĠGuÃ°i":11074,"Ġsor":11075,"efs":11076,"lÃºbb":11077,"ĠHonum":11078,"ĠhÃ¦fileika":11079,"ĠMÃ³tiÃ°":11080,"ĠVet":11081,"ĠsÃ©rstakri":11082,"ĠBÃ¦nd":11083,"Ġgisti":11084,"ĠÃºtvarps":11085,"ĠAtlant":11086,"ĠatkvÃ¦Ã°um":11087,"Ġaukinn":11088,"ĠsjÃ¡i":11089,"ĠBragi":11090,"ĠmÃ¦lst":11091,"ĠLogi":11092,"hÃ¶ld":11093,"ĠrÃºmar":11094,"Ġwith":11095,"ĠMiÃ°viku":11096,"ĠÃ¾rif":11097,"ĠStÃ¦rÃ°":11098,"Ġlitum":11099,"ĠÃ¾ekkjum":11100,"ĠNÃ¦sta":11101,"frÃ¦":11102,"Ġlestur":11103,"Ã¾Ã¡tta":11104,"ĠrÃ¡Ã°uneyti":11105,"ĠBor":11106,"ĠsÃ¡st":11107,"Ġvatninu":11108,"ĠlÃ¡gu":11109,"ĠÃ¾jÃ³na":11110,"Ġungra":11111,"Ġbana":11112,"ĠrÃ¡Ã°herrar":11113,"Ġit":11114,"ĠFundar":11115,"fylg":11116,"starfinu":11117,"Ġminnkar":11118,"ĠhljÃ³p":11119,"sprÃ³f":11120,"sstyr":11121,"ĠkÃ³k":11122,"ĠÃŀÃ³rs":11123,"ĠSly":11124,"ĠsÃ³lin":11125,"ĠKring":11126,"afone":11127,"ĠfÃ¦rir":11128,"Ġleigja":11129,"Ġstilla":11130,"ĠMosfellsbÃ¦":11131,"ĠlÃ¡tinn":11132,"ĠhrÃº":11133,"shÃ¶fn":11134,"Ġnotenda":11135,"Ã¾Ã¡ttur":11136,"ĠiP":11137,"ĠhÃ¶fuÃ°borgarsvÃ¦Ã°isins":11138,"ĠÃ¾akkir":11139,"ĠSamfylkingin":11140,"Ã½sti":11141,"ĠEim":11142,"Ã¾jÃ³n":11143,"ĠskÃ³lag":11144,"ĠÃºtskÃ½ra":11145,"mÃ¡liÃ°":11146,"ĠÃ³lÃŃkar":11147,"Ġvinnuveit":11148,"lau":11149,"gerÃ°i":11150,"ĠFiskist":11151,"istan":11152,"ĠgoÃ°":11153,"ĠÃŀÃ³rarinsdÃ³ttir":11154,"stoÃ°":11155,"ĠrÃŃflega":11156,"ĠspÃ¡Ã°":11157,"Ġsetningu":11158,"ĠlÃ¦rdÃ³m":11159,"ĠsÃŃÃ°astliÃ°num":11160,"Ġbirtingu":11161,"ony":11162,"ĠfyrirtÃ¦kis":11163,"ĠÃįsrael":11164,"Ġefsta":11165,"Ġheimilum":11166,"ĠinnleiÃ°ingu":11167,"ĠstÃ¶Ã°var":11168,"ĠÃįslandsmÃ³t":11169,"ĠskÃ¡ta":11170,"grÃ¦Ã°slu":11171,"Ã¦tta":11172,"ĠsÃ©ra":11173,"Ġvirkan":11174,"ĠLey":11175,"rÃ©ttum":11176,"ĠFulltrÃºar":11177,"ĠEnnfremur":11178,"slÃ¶greglu":11179,"ĠStrandabyggÃ°ar":11180,"ND":11181,"kraf":11182,"ĠnÃ¡ttÃºrulega":11183,"ĠMatthÃŃas":11184,"Ġstarfinu":11185,"ĠSw":11186,"ĠSÃ¶kum":11187,"Ġgjaldker":11188,"flokki":11189,"Ġhugtak":11190,"ĠUpphaf":11191,"ldir":11192,"runum":11193,"Ġeignarhald":11194,"anÃ³tt":11195,"Ġnemend":11196,"ĠhÃ³par":11197,"bundnum":11198,"Ġuppeldis":11199,"Ġbeinum":11200,"Ġgreinina":11201,"hÃ¡ttar":11202,"ĠframmistÃ¶Ã°u":11203,"Ġverra":11204,"ĠliÃ°inn":11205,"ĠNokkur":11206,"ĠÃ³tt":11207,"ĠViss":11208,"efnan":11209,"ĠÃ³vissu":11210,"ofb":11211,"Ġ93":11212,"ĠMeiri":11213,"ĠAlgeng":11214,"Ġvaran":11215,"ĠnÃ¡mu":11216,"Ġkjarna":11217,"ĠStarfsfÃ³lk":11218,"ĠÃ¾inni":11219,"ĠinnÃŃ":11220,"Ġeiningar":11221,"Ġtrom":11222,"ĠfjÃ¶lbreytni":11223,"ĠniÃ°urstaÃ°an":11224,"stÃ¶rfum":11225,"Ġreglna":11226,"Ġfim":11227,"Ġverri":11228,"svÃ¦Ã°um":11229,"ĠblaÃ°sins":11230,"ĠSagÃ°i":11231,"ĠundanÃ¾Ã¡gu":11232,"ĠbÃ¦jarrÃ¡Ã°s":11233,"drif":11234,"ĠkÃŃnver":11235,"ĠÃĵlÃ¶f":11236,"arsÃ½":11237,"ĠtÃ¦kjum":11238,"Ġrauninni":11239,"ĠVod":11240,"ĠhÃ¡lft":11241,"77":11242,"arfrÃŃ":11243,"rÃ¶nd":11244,"Ġfunda":11245,"ĠMagnÃºss":11246,"lynd":11247,"Ġkaupum":11248,"Ġafskaplega":11249,"ĠinnsÃ½n":11250,"Ġklipp":11251,"agan":11252,"ĠSy":11253,"irkjan":11254,"ĠmÃ¡nuÃ°ir":11255,"essi":11256,"het":11257,"ĠmeÃ°gÃ¶ngu":11258,"tekjur":11259,"Ġvestfir":11260,"ĠLyk":11261,"hvÃŃ":11262,"ĠmÃŃnir":11263,"ĠMargt":11264,"51":11265,"80":11266,"Ġby":11267,"Ġdatt":11268,"boriÃ°":11269,"ĠslÃ¦mt":11270,"ĠstaÃ°festi":11271,"ĠÃŀjÃ³Ã°leik":11272,"GA":11273,"Ġdrukk":11274,"Ġfylgist":11275,"firÃ°ingar":11276,"Ġmsk":11277,"Ã¶gun":11278,"ĠGK":11279,"Ġsyngur":11280,"ĠSagan":11281,"ĠleiÃ°i":11282,"Ġendurheim":11283,"Ġkrafta":11284,"ĠfrÃ¡s":11285,"ĠmÃ¦likv":11286,"ĠhjÃ³nin":11287,"wood":11288,"ĠÃ¾Ã½ska":11289,"ĠHalla":11290,"bergs":11291,"Ġskipum":11292,"ĠeilÃŃf":11293,"Ġcom":11294,"ĠÃ³lÃŃklegt":11295,"Ġdeilt":11296,"Ġsamstarfsverkefni":11297,"ĠFrÃ©tt":11298,"ĠtÃºn":11299,"ĠGa":11300,"ĠErlend":11301,"Ġbarninu":11302,"ĠlÃ©tta":11303,"flutt":11304,"ĠslÃ³Ã°um":11305,"skoÃ°unar":11306,"alandsliÃ°":11307,"asar":11308,"Ġuppfylli":11309,"Ġstolt":11310,"ĠHeildar":11311,"ĠBreiÃ°ablik":11312,"ĠÃŃtarlega":11313,"ĠMet":11314,"Ġuppbyggingar":11315,"ĠupptÃ¶ku":11316,"ĠHlyn":11317,"ĠlÃŃfsstÃŃl":11318,"ĠDonald":11319,"Ġreyni":11320,"ĠBest":11321,"ĠlÃ¶gregla":11322,"ĠfullorÃ°na":11323,"eppi":11324,"ĠbÃŃlar":11325,"ÃŃÃ¾rÃ³tt":11326,"ĠSÃ³tt":11327,"ĠsvigrÃºm":11328,"jana":11329,"ĠTvÃ¦r":11330,"ĠrithÃ¶fundur":11331,"ĠSÃŃÃ°ustu":11332,"Ġdeig":11333,"unnur":11334,"ĠgÃ¦tir":11335,"ĠsjÃ¶tta":11336,"ĠAldrei":11337,"TH":11338,"ĠHB":11339,"ĠÃĸssur":11340,"ĠLÃ¦kjar":11341,"smanni":11342,"ĠmÃ¡lefna":11343,"ĠnÃ½ir":11344,"ement":11345,"turnar":11346,"ĠhÃ¡v":11347,"ĠVinsamlegast":11348,"ĠnjÃ³ti":11349,"Ġhet":11350,"ĠÃģhrif":11351,"ots":11352,"ĠFish":11353,"ustofu":11354,"ĠsÃ½ndar":11355,"asamtaka":11356,"sfjÃ¶l":11357,"Ġkoll":11358,"ĠsvariÃ°":11359,"ĠFleiri":11360,"RAM":11361,"Ã¾rÃ¡":11362,"ĠkÃŃk":11363,"ĠErindi":11364,"ĠtÃ©":11365,"ĠnÃ½liÃ°":11366,"mennta":11367,"slita":11368,"ĠMil":11369,"ĠvÃ¦ntingar":11370,"Ã¶ss":11371,"ofnana":11372,"ĠstjÃ³rnskip":11373,"ĠBreta":11374,"Ġsetjast":11375,"ĠflÃº":11376,"ĠReyndar":11377,"ĠTill":11378,"rasil":11379,"Ġrektor":11380,"Ġrof":11381,"ĠsÃ¡lfrÃ¦Ã°i":11382,"ugar":11383,"ose":11384,"verkefnum":11385,"ĠHjalti":11386,"rausta":11387,"Ġbekkjar":11388,"Ġfulla":11389,"ĠSlÃ¶kk":11390,"bolt":11391,"Ġfermingar":11392,"ĠFjarÃ°a":11393,"54":11394,"Ġumgengni":11395,"Ġfresta":11396,"freÃ°":11397,"ĠPri":11398,"ĠViÃ°reisn":11399,"Ġvextir":11400,"Ã¦rt":11401,"ĠKÃ³medÃŃuleikhÃºsiÃ°":11402,"pÃ³st":11403,"ĠljÃ³sm":11404,"ice":11405,"Ġtilvist":11406,"ĠSvart":11407,"Ġgjalda":11408,"Ġdeiliskipulagi":11409,"spar":11410,"ĠUmboÃ°":11411,"Ġforsenda":11412,"fli":11413,"mundsson":11414,"ĠLÃŃkt":11415,"ĠkÃ¶flum":11416,"ĠÃ¶rorku":11417,"Ġeinkenna":11418,"bÃ¦nda":11419,"ĠstjÃ³rnin":11420,"ĠfjÃ¶lmÃ¶rgum":11421,"ĠÃºtbreiÃ°slu":11422,"ĠFÃ³r":11423,"Ġbirtingar":11424,"Ġfengist":11425,"Ġrokk":11426,"aupp":11427,"arfram":11428,"ĠverÃ°lag":11429,"ĠÃ¦tÃŃÃ°":11430,"Ġvestra":11431,"Ã¶rum":11432,"andic":11433,"spjall":11434,"prent":11435,"Ġregn":11436,"ĠBarcelona":11437,"exÃŃk":11438,"iÃ°i":11439,"'s":11440,"Ã¦lu":11441,"ssveit":11442,"ĠkvaÃ°st":11443,"ĠstÃŃf":11444,"Ġungum":11445,"Ġmisjafn":11446,"Ġsendur":11447,"ĠfÃ©lagsf":11448,"ĠrÃ©ttlÃ¦ti":11449,"sÃŃÃ¾rÃ³tta":11450,"100":11451,"ĠVodafone":11452,"kerfis":11453,"ĠGetur":11454,"slitak":11455,"mmu":11456,"ĠSamt":11457,"Ġvikuna":11458,"Ġsamninginn":11459,"afrumvarp":11460,"arflug":11461,"Ġteknir":11462,"ĠlÃ¶gfrÃ¦Ã°ingur":11463,"ĠlÃ¡ni":11464,"HÃ©r":11465,"Ġtakk":11466,"Ġhval":11467,"verksmiÃ°ju":11468,"asonar":11469,"rÃ³fi":11470,"ĠÃįsafjarÃ°arbÃ¦":11471,"ĠNorÃ°urlÃ¶ndunum":11472,"ĠkÃ¶rfub":11473,"ĠkvÃ¶ldin":11474,"Ġrisa":11475,"Ġalvarleg":11476,"nsla":11477,"ĠbakiÃ°":11478,"ĠgrÃ³Ã°urhÃºs":11479,"ulla":11480,"Ġiacute":11481,"ĠÃ¦ttum":11482,"ĠstÃ¦kk":11483,"Ġdeyja":11484,"Ġsamkeppnis":11485,"ĠnÃ¡granna":11486,"Ġten":11487,"ĠMin":11488,"jÃºkrun":11489,"Ã¦Ã°ra":11490,"ĠVegagerÃ°arinnar":11491,"ask":11492,"Ġsterkari":11493,"ĠnÃ¡ttÃºrunnar":11494,"ĠsjÃ¶unda":11495,"ĠLÃ½Ã°":11496,"ĠbÃ³kstaf":11497,"ĠÃģkveÃ°iÃ°":11498,"hand":11499,"ĠvÃŃsbendingar":11500,"ĠNe":11501,"ĠrÃ¡Ã°um":11502,"ĠnÃ½tast":11503,"arkost":11504,"ĠgrÃŃn":11505,"garÃ°i":11506,"Ã¦lingar":11507,"ĠReykjanesbÃ¦":11508,"ĠsÃ³kn":11509,"ĠumboÃ°smanns":11510,"ĠDes":11511,"ĠbÃ³ndi":11512,"ĠvinsÃ¦lda":11513,"verÃ°an":11514,"ĠjÃ¶rÃ°u":11515,"Ġtvennt":11516,"Ġvaxtar":11517,"Ġfyrstur":11518,"skipa":11519,"za":11520,"ĠLeiÃ°bein":11521,"fars":11522,"ĠeyÃ°ileg":11523,"ellu":11524,"ĠHest":11525,"phÃ©Ã°":11526,"ĠÃ¾vag":11527,"ĠRangÃ¡r":11528,"Ġkvart":11529,"ĠfjÃ¶lbreytta":11530,"Ġleggi":11531,"hlÃ©":11532,"ĠStund":11533,"ĠIsl":11534,"Ġqu":11535,"ĠÃ³gn":11536,"ĠÃ¾Ã³k":11537,"ĠrjÃ³ma":11538,"ĠmÃºs":11539,"Ġ1983":11540,"Ġfluttu":11541,"ĠfjÃ¡rmÃ¡lafyrirtÃ¦ki":11542,"gildandi":11543,"ĠgÃ¦Ã°":11544,"gjalda":11545,"Ġhreinu":11546,"ĠsjÃ¡lfsmynd":11547,"amiÃ°stÃ¶Ã°":11548,"Ġvinnuna":11549,"arfÃ©lagsins":11550,"ifr":11551,"ĠhÃ¡tÃŃÃ°lega":11552,"Ã¶kun":11553,"via":11554,"Ġskortur":11555,"ĠStÃ³ra":11556,"ĠLitla":11557,"Ãºb":11558,"annsÃ³knir":11559,"Ġrekin":11560,"sfer":11561,"slÃ³":11562,"Ġleggjast":11563,"brauta":11564,"reka":11565,"ĠjÃ³lag":11566,"ĠhÃ¡ttaÃ°":11567,"ĠborÃ°i":11568,"Ġbjuggu":11569,"ĠJÃ¶k":11570,"ĠkvennafrÃŃ":11571,"jÃ³slega":11572,"Ãŀetta":11573,"ĠRich":11574,"ĠhannaÃ°":11575,"ĠÃ¦Ã°a":11576,"Ġalltof":11577,"ĠÃ¶ruggt":11578,"ĠmÃ¶mmu":11579,"ĠÃ¡bendingu":11580,"otni":11581,"ĠslÃ©tt":11582,"ĠglÃ¦silega":11583,"ĠGrÃ©tar":11584,"Ġstakk":11585,"Ġsamantekt":11586,"atriÃ°":11587,"Ġleikk":11588,"ĠPrÃ³f":11589,"ĠfÃ©lagsmÃ¶nnum":11590,"eistarar":11591,"naÃ°urinn":11592,"ross":11593,"ĠskÃ³lastjÃ³ri":11594,"ome":11595,"verksmiÃ°":11596,"ĠBiblÃŃ":11597,"ĠSkarphÃ©Ã°":11598,"ĠhÃ¶funda":11599,"ĠHanna":11600,"ĠdÃ½rum":11601,"slys":11602,"rÃ³nu":11603,"ĠlÃŃkamlega":11604,"sÃ½ningar":11605,"ĠdÃ³mstÃ³la":11606,"Ġallskonar":11607,"ĠEyrarbakka":11608,"arsvÃ¦Ã°i":11609,"ĠaugljÃ³st":11610,"ÃŃsil":11611,"ĠÃ¾rett":11612,"Ġnefnir":11613,"lausir":11614,"ĠKomiÃ°":11615,"Ġleikja":11616,"ĠflÃ³kiÃ°":11617,"ĠUmsÃ¦k":11618,"ĠJÃºlÃŃu":11619,"aÃ°ferÃ°ir":11620,"ĠKe":11621,"ĠNÃ½skÃ¶punar":11622,"ĠrÃ©ttinda":11623,"janlegt":11624,"Ġmengun":11625,"ĠsparisjÃ³Ã°sins":11626,"Ġmore":11627,"ĠÃ¡skrif":11628,"ĠskÃ¶punar":11629,"ones":11630,"43":11631,"ĠKet":11632,"liÃ°iÃ°":11633,"ĠDavÃŃÃ°s":11634,"gn":11635,"ĠInstagram":11636,"ĠfegurÃ°":11637,"ĠTex":11638,"ĠfortÃŃÃ°":11639,"ĠrÃ¦kta":11640,"Ġhorm":11641,"ĠaÃ°stÃ¦Ã°":11642,"Ġkennir":11643,"INN":11644,"ĠbannaÃ°":11645,"ĠblaÃ°s":11646,"ĠEgilsstÃ¶Ã°um":11647,"ĠTvÃ¶":11648,"ĠBrÃº":11649,"ĠRak":11650,"ĠRut":11651,"sveg":11652,"ĠhÃ¶fÃ°um":11653,"ĠnotaÃ°ir":11654,"sÃ½ningu":11655,"Ġfjarskip":11656,"Al":11657,"ĠSi":11658,"ĠreiÃ°i":11659,"ĠKi":11660,"ĠhliÃ°ina":11661,"Ġhollustu":11662,"skila":11663,"ĠskÃ³lar":11664,"bundinn":11665,"ĠAtvinn":11666,"seti":11667,"tÃºn":11668,"ĠLjÃ³s":11669,"Ġsnert":11670,"breyting":11671,"shrey":11672,"Ã¾jÃ³nustan":11673,"sÃ¶m":11674,"ĠsjÃ³Ã°a":11675,"Ġbinda":11676,"ĠPaul":11677,"ĠvÃ¶rslu":11678,"inm":11679,"ĠmannrÃ©ttinda":11680,"ĠBal":11681,"Ġsettir":11682,"ĠeyÃ°u":11683,"ĠÃ¦vintÃ½ri":11684,"stÃ©tt":11685,"Ġpistli":11686,"Ġveidd":11687,"ĠrÃ½m":11688,"ĠKristinsson":11689,"Ġelsk":11690,"ĠÃ¡skorun":11691,"angt":11692,"greinar":11693,"Ġfyrirbygg":11694,"ĠSamband":11695,"Ġ365":11696,"Ġbros":11697,"Ġ71":11698,"ĠbÃ¦jarstjÃ³ra":11699,"AND":11700,"breytingu":11701,"jÃ³Ã°urinn":11702,"Ã¾jÃ³Ã°ar":11703,"ĠÃ¦vintÃ½ralegu":11704,"ĠmÃ¡ta":11705,"Ġuppsker":11706,"ĠFrekari":11707,"hÃ¶nnun":11708,"ĠRann":11709,"Ġhittast":11710,"bit":11711,"Ġerlendu":11712,"ĠrÃ¶kstu":11713,"Ġfoss":11714,"Ġborgina":11715,"ĠsambÃ¦rileg":11716,"ĠhrÃ¦Ã°":11717,"orth":11718,"ĠsvipuÃ°um":11719,"ĠNorÃ°urlÃ¶ndum":11720,"60":11721,"ĠbÃ¡Ã°a":11722,"Ġvellinum":11723,"ĠLÃ¡g":11724,"ytt":11725,"bifreiÃ°":11726,"hÃ¡tÃŃÃ°inni":11727,"Ġban":11728,"ĠsamÃ¾ykktum":11729,"bro":11730,"ĠMÃ¡nu":11731,"ĠmÃ¶guleikar":11732,"ĠbÃ¦j":11733,"ĠÃĨtl":11734,"Ã¡byrgÃ°":11735,"byrjun":11736,"skÃŃrteini":11737,"ĠfrÃ©ttatilkynningu":11738,"stefnan":11739,"ĠLÃº":11740,"ĠBaldvin":11741,"Ã³tek":11742,"ventu":11743,"ĠHÃ¡skÃ³lanum":11744,"aradÃŃs":11745,"aÃ°stoÃ°":11746,"ĠSmÃ¡ra":11747,"vins":11748,"skarÃ°":11749,"Ã³peru":11750,"ĠVinnum":11751,"ĠNATO":11752,"ĠÃ¶flugt":11753,"Ġstemm":11754,"ĠKo":11755,"Ġ82":11756,"mÃ³ti":11757,"ĠGo":11758,"Ġeitthvert":11759,"ĠLandsvirkjunar":11760,"Ġveikindi":11761,"Ġ170":11762,"ĠHjÃ¡lmar":11763,"Ã¶flu":11764,"ĠmyndavÃ©l":11765,"ĠsÃ¦tt":11766,"vitund":11767,"Ġskemmtun":11768,"strey":11769,"rÃ¦nar":11770,"ĠljÃ³sa":11771,"lendi":11772,"sÃ½ki":11773,"ĠverÃ°launin":11774,"ĠVerkefni":11775,"Ġeinfalda":11776,"Ġhitastig":11777,"Ġvinnunni":11778,"Ġ1982":11779,"ĠhÃ¡lfa":11780,"ĠjÃ¶kulinn":11781,"Ġind":11782,"Sc":11783,"ĠMÃ¦":11784,"shlu":11785,"ĠÃ¾ingsÃ¡lyktunar":11786,"ĠfeÃ°":11787,"Ġvonir":11788,"ĠSveinbjÃ¶rnsdÃ³ttir":11789,"veitingar":11790,"Ġbrattar":11791,"ĠtÃ¦m":11792,"ĠEvrÃ³pur":11793,"ĠskÃ½rsla":11794,"ĠLÃ¡ra":11795,"ĠljÃ³smyndir":11796,"Ġskipan":11797,"ĠÃ¡vax":11798,"kennd":11799,"ĠfjÃ¶lskyldunnar":11800,"ĠPersÃ³nu":11801,"ĠÃ¾arfnast":11802,"ĠKrists":11803,"valdiÃ°":11804,"ĠTryggvi":11805,"ĠFA":11806,"ĠÃįB":11807,"ĠÃŀÃ³rarinn":11808,"Ġstreitu":11809,"ĠÃŀÃ³ri":11810,"ĠMeistara":11811,"deildarinnar":11812,"Ġtilkomu":11813,"Ġ1981":11814,"Ġsterkt":11815,"ĠskjÃ³":11816,"ĠsÃ©rstÃ¶Ã°u":11817,"Ġsameiginleg":11818,"orka":11819,"ĠÃ¡heyr":11820,"ĠhÃ¶ldum":11821,"Ġytra":11822,"brigÃ°um":11823,"ĠKolbrÃºn":11824,"Ġskilgreint":11825,"ĠHulda":11826,"fin":11827,"Ġfremstu":11828,"ĠBjÃ¶rgunarfÃ©lagi":11829,"sonar":11830,"aflutning":11831,"Ġkap":11832,"ĠnÃ¡mskeiÃ°i":11833,"ĠAlexander":11834,"Ġveir":11835,"Ġauknu":11836,"ĠÃ¡rangursrÃŃk":11837,"ĠAlbert":11838,"ette":11839,"Ġdu":11840,"Ġalheim":11841,"53":11842,"kaupa":11843,"Ã¶tun":11844,"ĠMÃº":11845,"ĠMak":11846,"Ġpakka":11847,"lÃ½singum":11848,"tustu":11849,"ĠbrÃ¡Ã°skemmtilegu":11850,"ĠÃ¡ratugnum":11851,"ĠmiÃ°ja":11852,"Ġfylk":11853,"ĠsÃ¶gum":11854,"ĠfÃ¡tÃ¦kt":11855,"heilbrigÃ°i":11856,"fingin":11857,"anem":11858,"nauÃ°":11859,"ĠferÃ°amÃ¶nnum":11860,"NN":11861,"Ġmerkingar":11862,"hÃº":11863,"Ġ83":11864,"Ġsettum":11865,"Ġstem":11866,"listarf":11867,"Ġmil":11868,"ĠBjÃ¶rnsdÃ³ttir":11869,"slunefnd":11870,"ĠbÃºum":11871,"Ġgamalt":11872,"frÃŃÃ°ur":11873,"ĠErling":11874,"Ã¡rdal":11875,"ĠfljÃ³":11876,"sÃ¶ng":11877,"Ġdal":11878,"ĠleikskÃ³l":11879,"ĠEngar":11880,"tÃŃmann":11881,"ĠÃ¾jÃ¡lfa":11882,"greitt":11883,"ĠframkvÃ¦mdastjÃ³rnar":11884,"ĠtilbÃºiÃ°":11885,"ĠBlÃ¶ndal":11886,"ĠÃºtrÃ½":11887,"ĠeÃ°lileg":11888,"ĠVeÃ°urstofu":11889,"Ġvarir":11890,"afulltrÃºi":11891,"hÃ³pnum":11892,"ĠÃĨsk":11893,"ĠÃįA":11894,"irkom":11895,"ĠhÃ¶ggum":11896,"Ġhorfir":11897,"ĠjÃ¶rÃ°ina":11898,"Ġinternet":11899,"ĠÃĵpera":11900,"ĠElÃŃsabet":11901,"Ġtengdum":11902,"ĠvarÃ°veitt":11903,"ĠSeÃ°labankinn":11904,"ĠsmÃ¦rri":11905,"ĠAtvinnu":11906,"Ġtengi":11907,"dÃ³mstÃ³l":11908,"ĠnÃ¡mskeiÃ°um":11909,"ĠfatlaÃ°s":11910,"jÃ¡kvÃ¦m":11911,"Ġheimamenn":11912,"ĠStokkhÃ³l":11913,"ĠSÃ¶m":11914,"ls":11915,"Ġsvik":11916,"gangurinn":11917,"ĠbÃ³ginn":11918,"keppninni":11919,"Ã¡ta":11920,"ĠStra":11921,"ats":11922,"ĠÃ¾jÃ³nar":11923,"ĠGylfa":11924,"ingarnir":11925,"ĠbÃŃlastÃ¦Ã°i":11926,"Ġvinning":11927,"Ġ160":11928,"Ã°uÃ°u":11929,"ĠeiginfjÃ¡r":11930,"vÃ©la":11931,"torgi":11932,"ĠgÃ¦sluvarÃ°":11933,"Ġhrogn":11934,"ĠHrey":11935,"Ġgamli":11936,"ĠVonandi":11937,"Ġ105":11938,"ĠBergl":11939,"Ġnett":11940,"Ġskella":11941,"Ġskaut":11942,"ĠrÃ©ttlÃ¦":11943,"ĠtÃ³nskÃ¡ld":11944,"Ġjafntefli":11945,"ĠBjÃ¶rt":11946,"PS":11947,"ĠflÃ³ttamanna":11948,"ĠrÃ¡Ã°stÃ¶fun":11949,"Ġbreytir":11950,"IV":11951,"legustu":11952,"ĠSÃ³lveig":11953,"Ġmatur":11954,"ĠkjÃ¶rinn":11955,"ĠBlaÃ°":11956,"Ġafrit":11957,"ĠTo":11958,"ĠPan":11959,"irkomulag":11960,"ĠbÃ³khald":11961,"ĠspurÃ°ur":11962,"ikvÃ³ta":11963,"virÃ°":11964,"leggja":11965,"amÃ³ta":11966,"Ġnemanda":11967,"ĠÃ¡hugaverÃ°":11968,"Ġflokkar":11969,"engingu":11970,"Ġkynning":11971,"ĠhÃ¦star":11972,"Ã¾yngd":11973,"Ã½singu":11974,"ĠSamstarf":11975,"Ġstelpur":11976,"frÃ¦Ã°ileg":11977,"ĠÃºtskrifaÃ°ist":11978,"ĠmeÃ°hÃ¶ndlun":11979,"ĠÃŀjÃ³rsÃ¡r":11980,"Ġleyfir":11981,"ĠrÃ¡Ã°stefnunni":11982,"Ġ1974":11983,"rausti":11984,"lipp":11985,"exÃŃkÃ³":11986,"ĠnÃ³t":11987,"vÃ¦Ã°ingu":11988,"ĠhÃºm":11989,"ĠbarnaÃ³peru":11990,"ĠVo":11991,"grund":11992,"ĠStjÃ³rnin":11993,"Ã¾ekkingu":11994,"anÃ¡mi":11995,"cy":11996,"ĠÂ´":11997,"ĠminnkaÃ°":11998,"Ġull":11999,"oth":12000,"ĠlÃ¡tin":12001,"ĠstÃ½rir":12002,"ĠLos":12003,"ĠlÃŃnur":12004,"ĠfÃ³lkinu":12005,"ĠSÃ¶l":12006,"ĠhugtakiÃ°":12007,"ĠblÃ³Ã°i":12008,"astÃ¶Ã°um":12009,"jÃºpa":12010,"ĠfÃ¦rÃ°u":12011,"ĠleiÃ°ar":12012,"Ġsnertir":12013,"Ġeinna":12014,"Ġ81":12015,"auÃ°l":12016,"ĠCl":12017,"ĠsvÃ¶rum":12018,"ĠÃºrskurÃ°arnefnd":12019,"Ġnefndi":12020,"ĠÃ¦fingum":12021,"ĠÃ¾risvar":12022,"vexti":12023,"ĠhefÃ°um":12024,"aster":12025,"Ġafhenti":12026,"Ġtimbur":12027,"eÃ°ja":12028,"ĠhugsaÃ°i":12029,"stil":12030,"ĠAlmen":12031,"Ġdeginum":12032,"ĠÃģrnadÃ³ttir":12033,"Ġatvinnugrein":12034,"ĠAtla":12035,"df":12036,"Ġ1960":12037,"bÃ¶ndum":12038,"ĠPen":12039,"ĠHÃ¡lf":12040,"ĠVopn":12041,"ĠhraÃ°ar":12042,"Ġmisseri":12043,"Ġstaddur":12044,"Ġhlutur":12045,"Ġ1979":12046,"hÃ¶fum":12047,"ĠskoÃ°unum":12048,"drÃ¡ttur":12049,"IT":12050,"erÃ°arinnar":12051,"ĠkjÃ¶rtÃŃmabil":12052,"ĠEftirlit":12053,"Ġhversdag":12054,"ĠsvokÃ¶lluÃ°":12055,"ĠSuÃ°":12056,"Ġundankeppni":12057,"ĠÃ¡rek":12058,"ĠtÃ¦kifÃ¦riÃ°":12059,"Ġsafninu":12060,"Ġ1978":12061,"ĠVestfirÃ°inga":12062,"Ġtaldir":12063,"Ġsumrin":12064,"ĠstundaÃ°i":12065,"innu":12066,"ĠnÃ¡Ã°ist":12067,"ĠTwitter":12068,"ĠflÃ³Ã°":12069,"Ġborgarf":12070,"renn":12071,"are":12072,"yra":12073,"ĠdÃ³mar":12074,"ĠPatreksfirÃ°i":12075,"Ġnorska":12076,"ĠNey":12077,"ĠlÃŃtra":12078,"ĠWest":12079,"ĠÃ¾Ã¶kkum":12080,"Ġumtalsvert":12081,"ĠmikilvÃ¦gu":12082,"Ġneina":12083,"Ġvegur":12084,"ĠTryggva":12085,"ĠguÃ°s":12086,"ĠhvÃŃtlauk":12087,"mÃ¡last":12088,"ĠfyrirhugaÃ°":12089,"mennirnir":12090,"sstaÃ°":12091,"ĠHeils":12092,"ĠprÃ³fi":12093,"Ġneytendur":12094,"ĠmiÃ°lun":12095,"Ġgistingu":12096,"tÃ¦ka":12097,"ccia":12098,"ĠhvaÃ°an":12099,"hÃ³pi":12100,"frÃ¡":12101,"Ã³si":12102,"Ġteljist":12103,"ĠÃ¡kvarÃ°":12104,"Ġ140":12105,"stjÃ³rans":12106,"ĠÃ¾urftu":12107,"ĠmÃ³tmÃ¦la":12108,"ĠfÃ³Ã°ur":12109,"ĠseiÃ°a":12110,"lagrÃŃm":12111,"breytinga":12112,"che":12113,"ĠvarÃ°veita":12114,"isma":12115,"Ã¦gur":12116,"ĠÃ¾jÃ³Ã°erni":12117,"Ġbardag":12118,"ĠferÃ°ina":12119,"ĠVesturlands":12120,"ĠÃ³Ã¡nÃ¦g":12121,"Ġhugann":12122,"ĠÃ¡reitni":12123,"ĠklÃ³":12124,"ĠÃ¾jÃ³Ã°fÃ©lag":12125,"Ġkrem":12126,"Ġframar":12127,"ĠRE":12128,"Ġskiptingu":12129,"52":12130,"ĠÃŃÃ¾rÃ³ttum":12131,"Ġraunveruleg":12132,"ĠvÃ¡trygging":12133,"ĠÃ¾rau":12134,"varn":12135,"Ġalmennri":12136,"ĠStraum":12137,"ĠðŁĻ":12138,"slÃ¦k":12139,"enter":12140,"Ġhart":12141,"ĠAÃ°spur":12142,"ĠÃ¶nn":12143,"ĠleikhÃºs":12144,"Ġafkomu":12145,"ĠÃ³gl":12146,"ĠhlaÃ°":12147,"Ġmanneskja":12148,"utÃŃm":12149,"ĠUmsÃ³knarfrestur":12150,"ĠsamanboriÃ°":12151,"horni":12152,"ĠundirbÃºningur":12153,"vÃ¶rnum":12154,"Ã¾ingsins":12155,"frÃ¦Ã°ilega":12156,"Ġboccia":12157,"ĠlÃ¡gt":12158,"frey":12159,"agarÃ°":12160,"ritum":12161,"undsson":12162,"ĠlÃŃkamsrÃ¦kt":12163,"ĠBreytingar":12164,"Ġgjafa":12165,"ĠKK":12166,"ĠÃ¡rsfjÃ³rÃ°ung":12167,"ika":12168,"ĠsjÃ¡lfbÃ¦rni":12169,"Ġhenda":12170,"amÃ³ti":12171,"ĠKla":12172,"Ġkir":12173,"ĠlÃ¶ggjafar":12174,"ĠGranda":12175,"ĠlÃŃfeyrissjÃ³Ã°a":12176,"ĠafsÃ¶kunar":12177,"ĠHrÃº":12178,"Ġtalist":12179,"ĠÃģrs":12180,"ĠJÃ³hÃ¶nnu":12181,"ĠorÃ°alag":12182,"ĠChrist":12183,"hreppur":12184,"vall":12185,"iÃ°ju":12186,"eftirlits":12187,"vur":12188,"fyll":12189,"Ġgir":12190,"vÃŃsa":12191,"ĠstrandveiÃ°ikvÃ³ta":12192,"rÃ¡n":12193,"Ġbjarg":12194,"ĠlangtÃŃm":12195,"ica":12196,"ĠvÃŃÃ°svegar":12197,"ĠHvÃŃt":12198,"Ġfersk":12199,"ĠstigagerÃ°ar":12200,"mars":12201,"Ġsameina":12202,"ĠTryggingastofnun":12203,"ĠAL":12204,"ĠhÃºsn":12205,"ĠleikverkiÃ°":12206,"ĠnÃ³ttina":12207,"urr":12208,"ĠKosning":12209,"ĠrÃ¡Ã°legg":12210,"ĠÃºtboÃ°sg":12211,"ĠÃºrslitak":12212,"issur":12213,"ĠÃŀingeyri":12214,"mÃŃ":12215,"ĠAÃ°gangur":12216,"ĠÃĵla":12217,"ĠEldhÃºs":12218,"ĠDo":12219,"puÃ°u":12220,"ĠmikilvÃ¦ga":12221,"orÃ°um":12222,"ĠPl":12223,"ĠskÃ½rslur":12224,"bjÃ¶rgu":12225,"vanda":12226,"aleigu":12227,"ĠbÃ¦jarf":12228,"Ġforse":12229,"tryggingar":12230,"tugs":12231,"skjÃ¶l":12232,"ĠsÃ³larhringinn":12233,"ĠHÃ³la":12234,"ĠleikskÃ³lanum":12235,"ĠhÃºsum":12236,"Ġelsta":12237,"Ġfallist":12238,"ĠfÃ¦Ã°ingarorlof":12239,"ĠSjÃºkratrygginga":12240,"indur":12241,"ĠaugljÃ³slega":12242,"ĠÃĵlympÃŃ":12243,"Ġ1975":12244,"tandi":12245,"ĠstÃ¶Ã°ug":12246,"Ġlistanum":12247,"bÃŃu":12248,"Ġpo":12249,"ĠFÃ¦reyjum":12250,"fsson":12251,"ĠAp":12252,"Ġvelti":12253,"ĠfÃŃnt":12254,"ĠhjÃºkrunarfrÃ¦Ã°inga":12255,"frelsi":12256,"gÃ³Ã°":12257,"ĠUmsjÃ³n":12258,"Ġduga":12259,"aken":12260,"ĠrÃ¡Ã°uneytiÃ°":12261,"Ġdregin":12262,"framlag":12263,"Ġskaltu":12264,"ĠÃ³skÃ¶p":12265,"ĠMatthildur":12266,"kunum":12267,"ire":12268,"Ġheimsstyr":12269,"ĠmÃ¡lsgrein":12270,"ĠÃ³skil":12271,"ĠÃ³hef":12272,"Ġveikinda":12273,"straum":12274,"Ġfagur":12275,"ĠhÃ¦kkaÃ°i":12276,"Ġhun":12277,"ĠÃ¡fall":12278,"istjÃ³rn":12279,"ĠheimiliÃ°":12280,"Ġhveiti":12281,"tive":12282,"brota":12283,"Ġtilkynning":12284,"Ġpeningum":12285,"ĠrannsÃ³kninni":12286,"Ġhugar":12287,"Ã¶skun":12288,"Ġforeldri":12289,"ĠvÃ¦ntanlegar":12290,"ĠTrÃº":12291,"ĠhefÃ°bundnum":12292,"Ġmynt":12293,"ĠlÃŃkar":12294,"Ġskorti":12295,"ĠviÃ°skiptarÃ¡Ã°":12296,"Ġleikmanna":12297,"ĠfriÃ°ar":12298,"ĠvÃ¶Ã°v":12299,"Ġumsvif":12300,"ĠvÃ¶rÃ°":12301,"ĠeldhÃºsi":12302,"ĠÃ¡liti":12303,"veri":12304,"Ġ112":12305,"tala":12306,"Ġathugun":12307,"ĠumboÃ°smaÃ°ur":12308,"istrygg":12309,"Ġsendu":12310,"se":12311,"ĠlangtÃŃma":12312,"stÃ¶Ã°v":12313,"ĠRobert":12314,"kan":12315,"ĠjarÃ°hita":12316,"ĠMarkaÃ°s":12317,"seyri":12318,"ĠLif":12319,"ĠIcelandic":12320,"ĠKast":12321,"Ġtilnefningar":12322,"ĠEimskip":12323,"eÃ°slu":12324,"ĠupplifaÃ°":12325,"ĠÃŃbÃºÃ°arhÃºsnÃ¦Ã°i":12326,"Ã¾roska":12327,"ĠaÃ°stÃ¦Ã°na":12328,"ĠbrÃ¦Ã°":12329,"Ġhafist":12330,"pla":12331,"vÃ¶rn":12332,"ÃŃÃ°una":12333,"taker":12334,"Ġsa":12335,"ĠferÃ°aÃ¾jÃ³nustunnar":12336,"AmerÃŃku":12337,"stÃŃg":12338,"ĠFM":12339,"veginn":12340,"hlutum":12341,"Ġskyndilega":12342,"ĠbÃ½Ã°":12343,"ĠuppboÃ°":12344,"ĠlÃ¦knisfrÃ¦Ã°":12345,"alegar":12346,"eigna":12347,"Ġtilrauna":12348,"andur":12349,"ĠtÃ¶k":12350,"ĠsamfÃ©lagsmiÃ°lum":12351,"ĠsjÃ¡lfvirk":12352,"hyl":12353,"Ġfem":12354,"slynd":12355,"ĠJÃ³hannsdÃ³ttir":12356,"ĠSjÃ³nvarp":12357,"Ġbekkur":12358,"Ġspurningin":12359,"ĠJafnvel":12360,"ĠVegagerÃ°in":12361,"ĠfjÃ¶lmen":12362,"ĠÃ¡ratuga":12363,"ĠFreyja":12364,"afull":12365,"jÃ³rinn":12366,"ĠupplÃ½singatÃ¦kni":12367,"doktor":12368,"Ġem":12369,"ĠlÃ³":12370,"Ġbirk":12371,"ĠÃŀjÃ¡lf":12372,"ĠÃ¾Ã½Ã°ingar":12373,"FC":12374,"Ġmo":12375,"eppninni":12376,"ĠBjÃ¶rgunar":12377,"Ġmarkvisst":12378,"ĠEv":12379,"gjum":12380,"ssp":12381,"ĠÃ³hjÃ¡kvÃ¦m":12382,"Ġkynjanna":12383,"Ġleyndar":12384,"ĠbrÃ¦Ã°ur":12385,"ĠmÃ³tor":12386,"ĠLandsnet":12387,"ĠSkÃºli":12388,"ĠgagnrÃ½na":12389,"Ġbita":12390,"ĠauglÃ½sir":12391,"ĠgÃ¶ngum":12392,"ĠFÃį":12393,"ĠVen":12394,"ane":12395,"Ġtreyst":12396,"ĠkvennafrÃŃdaginn":12397,"Ã¡rÃ¡s":12398,"ĠBara":12399,"sÃ³knum":12400,"eftirlitiÃ°":12401,"Ġfasteignasala":12402,"Ġ123":12403,"gjur":12404,"ĠðŁĻĤ":12405,"aÃ°staÃ°a":12406,"ĠGerÃ°":12407,"stundir":12408,"ĠÃ¡rst":12409,"bÃ³lgu":12410,"ĠÃ¡hyggjum":12411,"Ġrist":12412,"ĠtrÃºverÃ°u":12413,"ĠHÃ¶fÃ°a":12414,"Ġstang":12415,"ÃŃns":12416,"42":12417,"Ġvegfar":12418,"Ġveittur":12419,"uknattleik":12420,"Ġdollara":12421,"ĠTBR":12422,"ĠtÃ³kum":12423,"Ġ!!!":12424,"ĠBandalag":12425,"Ġgegnt":12426,"ĠtÃ³nleikar":12427,"ĠtilvaliÃ°":12428,"nus":12429,"ĠHÃ³purinn":12430,"ĠsÃŃt":12431,"ĠbarÃ¡ttuanda":12432,"ĠviÃ°bragÃ°":12433,"ĠVol":12434,"NÃ½":12435,"ĠFra":12436,"ĠstÃºlku":12437,"barn":12438,"ĠHugs":12439,"sstÃ¶Ã°um":12440,"ĠMe":12441,"ĠHald":12442,"ĠVR":12443,"ĠfjÃ¶lskylda":12444,"ĠFRAM":12445,"Ġbardaga":12446,"vig":12447,"ĠbrÃºÃ°kaup":12448,"ĠhÃ¦gra":12449,"ĠPressunni":12450,"ĠGef":12451,"ĠCan":12452,"rÃŃÃ°i":12453,"skÃ³g":12454,"eypu":12455,"ĠfÃ©lagsrÃ¡Ã°":12456,"Ġsamtaka":12457,"ĠrÃ³lega":12458,"ĠÃ¦skilegt":12459,"Ġkirkjan":12460,"ĠfimmtÃ¡n":12461,"ĠleiÃ°toga":12462,"Ġax":12463,"Ġsumri":12464,"ĠleitaÃ°i":12465,"ĠÃŀorvaldur":12466,"him":12467,"hÃ³li":12468,"bÃºinn":12469,"konan":12470,"brauÃ°":12471,"Ġnefndur":12472,"Ġbisku":12473,"Ġforeldr":12474,"akstur":12475,"by":12476,"ĠblandaÃ°":12477,"brekku":12478,"Ġbanna":12479,"Ġsamvi":12480,"ĠFyrr":12481,"bundnar":12482,"Ġfyrirlestra":12483,"Ġleikrit":12484,"samnings":12485,"Ġlestrar":12486,"leifur":12487,"Ġpant":12488,"ĠPortÃºg":12489,"Ġveig":12490,"Ġkalk":12491,"ĠhÃ¶fn":12492,"ĠviÃ°skiptal":12493,"Ġskipinu":12494,"Ġelstu":12495,"ĠÃ¾Ã¡tttakendum":12496,"ĠÃ¡lagi":12497,"risti":12498,"ĠvellÃŃÃ°an":12499,"ĠtÃŃÃ°um":12500,"ĠKven":12501,"ĠÃŃbÃºÃ°um":12502,"orÃ°a":12503,"ĠÃŀÃ³rir":12504,"vop":12505,"ĠÃ¶sku":12506,"ĠbÃºist":12507,"eck":12508,"ĠÃŃÃ¾rÃ³ttafÃ©lagiÃ°":12509,"ĠlÃ¡gmarks":12510,"ĠÃ¶fl":12511,"Ġfellt":12512,"ĠfyrirmÃ¦li":12513,"ura":12514,"alÃ¡n":12515,"Ġgestur":12516,"ĠUN":12517,"ĠCarl":12518,"ĠsÃ½ningin":12519,"frÃ¦Ã°ings":12520,"Ġtaldar":12521,"Ġfasta":12522,"pok":12523,"ĠHA":12524,"ĠkÃ¶rlum":12525,"ĠUngl":12526,"Ġgefnar":12527,"ĠatburÃ°ar":12528,"ĠhÃ¡t":12529,"Ġlandsmenn":12530,"Ġkennd":12531,"yÃ°ja":12532,"Ġeldgos":12533,"ĠTÃ³nlist":12534,"Ġumhugs":12535,"Ġblas":12536,"ĠvantaÃ°i":12537,"Ġalmennu":12538,"ĠhryÃ°juverka":12539,"lic":12540,"ĠStjÃ¶rn":12541,"ĠAÃ°rar":12542,"Ġgreinarinnar":12543,"yfirvalda":12544,"Ġeinkennum":12545,"afjÃ¶rÃ°":12546,"unkt":12547,"ĠfjÃ¶lmÃ¶rg":12548,"ruÃ°um":12549,"ĠkÃ¡":12550,"ĠslÃ¡tur":12551,"out":12552,"svÃ¶r":12553,"ĠVÃ©l":12554,"ĠLÃ½sing":12555,"ĠdÃ³ma":12556,"ĠÃģhersla":12557,"ĠBerlÃŃn":12558,"ĠSigurjÃ³nsson":12559,"Ġfallegum":12560,"ĠsÃŃÃ°asti":12561,"arnar":12562,"Ġblekk":12563,"vindu":12564,"ĠKostnaÃ°ur":12565,"myndum":12566,"ĠrafrÃ¦nt":12567,"tog":12568,"ĠveiÃ°um":12569,"ĠLÃŃklega":12570,"Ã¶nskum":12571,"ĠkÃ¶k":12572,"arfsemi":12573,"Ġolli":12574,"ille":12575,"slegur":12576,"Ġlistaverk":12577,"90":12578,"ĠÃ¡hyggju":12579,"Ã³leik":12580,"hÃ½s":12581,"ĠGuÃ°bjÃ¶rg":12582,"Ġboltann":12583,"ĠDanmerkur":12584,"Ã¡her":12585,"Ġskilvirk":12586,"ĠmarkaÃ°ssetningu":12587,"ĠÃ¡ttunda":12588,"Ġvefinn":12589,"launum":12590,"mÃ¦t":12591,"ĠmannrÃ©ttindi":12592,"sendingar":12593,"ĠsÃ©rstakur":12594,"eymsla":12595,"ĠÃºtboÃ°smÃ¡la":12596,"ĠBÃ¶rnin":12597,"Ġsyni":12598,"ĠmannauÃ°":12599,"ĠDani":12600,"fÃ³lks":12601,"Ãºa":12602,"ĠRagnarsson":12603,"Ġreit":12604,"ĠVII":12605,"ĠstÃ¦kkun":12606,"ĠHÃ¶nnunar":12607,"ĠdÃ³mari":12608,"afÃ©laginu":12609,"Ġskemmtilegar":12610,"ĠklÃ¦Ã°":12611,"menntunar":12612,"ĠGlitnis":12613,"ĠBBC":12614,"ĠhÃ³telinu":12615,"Ġhreyfa":12616,"ĠskoraÃ°":12617,"Ġafrak":12618,"ĠLÃį":12619,"Ġannarrar":12620,"skrifstofa":12621,"atar":12622,"ĠDu":12623,"Ġskraut":12624,"ĠinngÃ¶ngu":12625,"ĠorsÃ¶k":12626,"ĠviÃ°skiptavinir":12627,"Ġbyggjast":12628,"reint":12629,"ynni":12630,"rÃ¡k":12631,"ĠskoriÃ°":12632,"chat":12633,"ĠVÃŃsir":12634,"Ġhill":12635,"ĠleiÃ°um":12636,"ĠÃĸrygg":12637,"ĠrÃŃkissjÃ³Ã°i":12638,"Ġkolvet":12639,"ĠÃ¡nÃ¦gjulegt":12640,"Ġskipi":12641,"ĠPÃ¡ls":12642,"ĠLandbÃºnaÃ°ar":12643,"ĠBÃ¡rÃ°arb":12644,"erÃ°ur":12645,"ĠÃºtveg":12646,"ĠTÃ¦k":12647,"Ġad":12648,"Ġstundu":12649,"Ġrafhl":12650,"Ġhugmynda":12651,"ĠorÃ°ast":12652,"papp":12653,"Ġvafa":12654,"ĠslÃŃkur":12655,"ĠkjÃ³senda":12656,"ĠÃºtsetningu":12657,"ĠbÃ¡ru":12658,"Ġsameinast":12659,"Ġmunurinn":12660,"ĠumsÃ¦kjendur":12661,"Ġhvol":12662,"ĠAlmenn":12663,"ĠsjÃºkraf":12664,"ros":12665,"ĠSjÃ¶":12666,"ottiÃ°":12667,"ĠfrÃŃstunda":12668,"Ġkjarnorku":12669,"beina":12670,"enu":12671,"Ġhlutinn":12672,"mÃ¶rkun":12673,"Ġhey":12674,"ĠlÃ½tur":12675,"Ġskilgreiningu":12676,"Ã¡lag":12677,"Ġul":12678,"vinir":12679,"ĠsamkeppnishÃ¦":12680,"ĠThomas":12681,"Ġinnilega":12682,"ĠNjarÃ°vÃŃk":12683,"ĠNeskaup":12684,"Ġstofnunar":12685,"ĠburÃ°ar":12686,"Ġkasta":12687,"ĠÃļti":12688,"ĠkjÃ³sendur":12689,"ĠvÃ¶xtum":12690,"ĠloÃ°nu":12691,"Ġtilheyrir":12692,"lagiÃ°":12693,"ĠsambandiÃ°":12694,"ĠstÃºlkna":12695,"dik":12696,"borÃ°iÃ°":12697,"sfulltrÃºa":12698,"ĠljÃºf":12699,"drott":12700,"Ġuppfyllir":12701,"ĠLof":12702,"ĠÃºtfÃ¦rslu":12703,"Ġ1973":12704,"TS":12705,"vÃŃst":12706,"ĠlÃŃkaminn":12707,"Ġfing":12708,"ĠÃ¡lits":12709,"ssvÃ¦Ã°i":12710,"ĠhÃ¶fund":12711,"hÃ¦ft":12712,"ĠfiskveiÃ°i":12713,"ĠlÃ¶ggil":12714,"ĠvarÃ°veislu":12715,"ĠsÃ¦r":12716,"ĠWOW":12717,"ĠOddsson":12718,"afer":12719,"Ġskili":12720,"lÃ¶gÃ°":12721,"Ġspennt":12722,"Ġkt":12723,"ĠtryggÃ°":12724,"Ġfangelsis":12725,"ĠvÃ¶Ã°va":12726,"Ġlykt":12727,"ĠdrÃ¡ttar":12728,"ĠstofnaÃ°i":12729,"ĠHeilsu":12730,"ĠEdda":12731,"ĠSim":12732,"Ġbrun":12733,"ĠRÃ¡s":12734,"Ġtilskipun":12735,"ĠNÃ¡ttÃºrufrÃ¦Ã°i":12736,"wa":12737,"ĠSex":12738,"Ġumhverfinu":12739,"ĠDÃ½rafirÃ°i":12740,"safnsins":12741,"Ġ900":12742,"kostnaÃ°":12743,"Ã¾yn":12744,"ĠstÃ¶Ã°unni":12745,"ĠAsÃŃu":12746,"ĠHaraldsson":12747,"Ġhverrar":12748,"ĠWash":12749,"Ãŀegar":12750,"ya":12751,"Ġstafar":12752,"ĠGuÃ°mundi":12753,"nattspyrnu":12754,"slista":12755,"ĠnÃ¡Ã°st":12756,"ĠÃĵskarsson":12757,"RO":12758,"ĠnÃ¡minu":12759,"41":12760,"ĠÃŀorstein":12761,"Ġskyldum":12762,"Ġmanneskju":12763,"ĠDÃ¶gg":12764,"ĠerfiÃ°ara":12765,"ze":12766,"Ġleir":12767,"angri":12768,"ĠHringbraut":12769,"ĠskrÃ¡Ã°ur":12770,"ĠbÃ¡ta":12771,"mikil":12772,"tÃ¦kt":12773,"Ġvitnis":12774,"ĠHljÃ³Ã°":12775,"ĠendurupptÃ¶ku":12776,"ĠVir":12777,"ĠauglÃ½singa":12778,"ĠlÃ¶greglumenn":12779,"ĠGissur":12780,"ĠKlukk":12781,"angan":12782,"ĠbÃŃÃ³":12783,"sjÃºkra":12784,"Ġvatna":12785,"ĠSM":12786,"ĠTung":12787,"ĠBandarÃŃkja":12788,"margir":12789,"ĠBlÃ¡skÃ³ga":12790,"arfl":12791,"ĠfÃ¦rÃ°i":12792,"ĠNauÃ°synlegt":12793,"asson":12794,"eÃ°ju":12795,"Ġdem":12796,"ĠFljÃ³tsdal":12797,"Ġkorn":12798,"ĠIsa":12799,"Ġkeppti":12800,"ĠkjÃºkling":12801,"66":12802,"ĠÃ¡hÃ¶fn":12803,"Ġheilsufar":12804,"ĠsÃ½ningarinnar":12805,"leikarnir":12806,"ĠÃºtboÃ°s":12807,"Ġgervi":12808,"ĠmÃ¦lum":12809,"ĠhÃ¶fuÃ°iÃ°":12810,"Ġ1972":12811,"Ġfermetra":12812,"Ġafskekk":12813,"jÃ³lkur":12814,"Ġmisserum":12815,"Ġtsk":12816,"ĠritaÃ°":12817,"lausum":12818,"Ġtengingu":12819,"gunar":12820,"Ã¾Ã¡tttÃ¶ku":12821,"ĠfyrirmÃ¦lum":12822,"ĠÃ¾Ã½Ã°a":12823,"ĠHafrannsÃ³k":12824,"ĠatvinnulÃŃfinu":12825,"Ġharm":12826,"ĠfrÃº":12827,"stÃ¶Ã°una":12828,"Ġaukningu":12829,"ĠsamtÃŃmis":12830,"leit":12831,"ĠKarlsson":12832,"ektir":12833,"ĠsÃ½nis":12834,"Ġherra":12835,"ĠFrÃ¡bÃ¦r":12836,"ĠfÃ³tum":12837,"Ġholu":12838,"ĠSuÃ°urnesja":12839,"ĠinnanrÃŃkisrÃ¡Ã°herra":12840,"ĠfrÃ¶nsku":12841,"Ġveginum":12842,"ĠHarpa":12843,"Ġaugnablik":12844,"ĠsÃ³larhr":12845,"bog":12846,"ĠSnap":12847,"ĠlandbÃºnaÃ°":12848,"Ġblasir":12849,"Ġkant":12850,"ĠSS":12851,"Ġmannan":12852,"janlega":12853,"ĠkviÃ°":12854,"heimilinu":12855,"ĠUtan":12856,"ĠtÃ¶flu":12857,"ĠÃºtsendingu":12858,"asemdir":12859,"Ġbundin":12860,"ĠSamtal":12861,"ĠskoÃ°anakÃ¶nnun":12862,"Ġflutningi":12863,"ĠCost":12864,"ĠÃ¡lÃŃka":12865,"arfar":12866,"Ġbren":12867,"vrÃ³pu":12868,"ĠhagfrÃ¦Ã°i":12869,"ĠheilbrigÃ°isrÃ¡Ã°herra":12870,"ĠsvokÃ¶lluÃ°u":12871,"ĠiÃ°ju":12872,"................":12873,"ĠfrÃ¡bÃ¦ru":12874,"ĠTryggingastofnunar":12875,"88":12876,"Ġtafar":12877,"ĠSigurÃ°ardÃ³ttur":12878,"Ġlesendum":12879,"ĠÃ³mÃ¶gulegt":12880,"Ġatvinnuleysi":12881,"ĠHor":12882,"Ġfyrirgef":12883,"ĠtÃ¡":12884,"Ġritari":12885,"Ġfylgdu":12886,"Ġgufu":12887,"ĠsuÃ°a":12888,"Ġlendir":12889,"ĠSol":12890,"CO":12891,"eignir":12892,"retta":12893,"ĠmÃ¡ltÃŃÃ°":12894,"ĠskrifuÃ°":12895,"ily":12896,"Ġmiklir":12897,"Ġspara":12898,"assa":12899,"ĠheiÃ°urs":12900,"ric":12901,"ĠleikskÃ³lum":12902,"ĠvÃŃta":12903,"ĠHarÃ°ardÃ³ttir":12904,"poka":12905,"stofum":12906,"ĠvÃ¶xt":12907,"ÃºtgÃ¡fu":12908,"Ġversta":12909,"skiptingu":12910,"ĠSkor":12911,"ĠhÃ¦stu":12912,"ĠByggÃ°ar":12913,"ÃŃki":12914,"takerfi":12915,"ĠHvor":12916,"ĠfÃ¦Ã°a":12917,"ĠKjÃ³s":12918,"ĠÃ³bein":12919,"frÃ¦Ã°ingurinn":12920,"Ġflestra":12921,"ĠtilbÃºnir":12922,"ĠvÃ¦nta":12923,"Ġhverjar":12924,"ĠsjÃºklingar":12925,"engun":12926,"een":12927,"ĠSif":12928,"ĠlÃ¡num":12929,"ĠÃ¾rjÃ¡tÃŃu":12930,"Ġkosningabar":12931,"Ã¡lastofnunar":12932,"ĠstaÃ°ir":12933,"Ġtungl":12934,"ĠStÃºd":12935,"Ġkrakkar":12936,"ennur":12937,"osningum":12938,"ĠSÃ³k":12939,"ĠGen":12940,"gerÃ°arinnar":12941,"TV":12942,"ĠSÃ¡l":12943,"skipiÃ°":12944,"Ġbirtu":12945,"jaÃ°i":12946,"ĠBH":12947,"ĠatburÃ°i":12948,"ĠnÃºtÃŃmans":12949,"sagt":12950,"Ã¥":12951,"ĠlÃŃfsgÃ¦Ã°i":12952,"Ġilm":12953,"Ġmyndun":12954,"vinnsla":12955,"Ġhleyp":12956,"nasta":12957,"ĠKjarn":12958,"ameistari":12959,"Ġkaupanda":12960,"ĠmarkaÃ°num":12961,"Ġsleppt":12962,"ilsins":12963,"arfor":12964,"tul":12965,"ĠlÃ½singar":12966,"Ġskemmtilegur":12967,"ĠtÃŃmaset":12968,"Ġuppeldi":12969,"Ġ92":12970,"ĠÃ¦tlast":12971,"ĠVestfirska":12972,"ĠNÃ³":12973,"ĠIm":12974,"ĠPol":12975,"Ġhinsegin":12976,"Ġdrepa":12977,"ĠsÃºrefni":12978,"tÃŃmabili":12979,"ĠIl":12980,"ĠstofnfjÃ¡r":12981,"ĠÃ³trÃºlegt":12982,"Ġmannvirki":12983,"ĠPeter":12984,"uliÃ°":12985,"Ã¶ndin":12986,"ĠsÃ¶fn":12987,"Ġungir":12988,"ÃŃski":12989,"ĠBjarnadÃ³ttir":12990,"ĠÃģgÃº":12991,"ĠUmhverfisstofnunar":12992,"samningur":12993,"ĠHauka":12994,"ĠBlu":12995,"ĠÃŀarf":12996,"ĠbrÃ½nt":12997,"Ġsnar":12998,"Ġeiginkonu":12999,"lÃ¡tur":13000,"ĠtÃŃÃ°ar":13001,"ĠFramleiÃ°":13002,"viÃ°miÃ°":13003,"ĠnumiÃ°":13004,"ĠBess":13005,"arÃ¡Ã°uneytinu":13006,"Ġkaupir":13007,"Ġstefndi":13008,"ĠVoru":13009,"Ġrug":13010,"ĠÃŀjÃ³Ã°minja":13011,"ĠvÃ¦ntanleg":13012,"Ġfrom":13013,"ĠJack":13014,"ĠLÃ¡n":13015,"bÃºi":13016,"Ġ108":13017,"ĠHversu":13018,"Ġumdeild":13019,"ĠÃ¾jÃ³Ã°ina":13020,"afelli":13021,"Ġsigra":13022,"Ġstuttum":13023,"mal":13024,"ĠAss":13025,"ĠÃ¶rn":13026,"Ġ510":13027,"ĠframhaldsskÃ³l":13028,"ĠÃ¾okk":13029,"ĠSigfÃºsson":13030,"ĠfÃ¦kkaÃ°":13031,"ĠÃ¡nÃ¦gÃ°ir":13032,"ĠvegabrÃ©f":13033,"Ġevru":13034,"viÃ°rÃ¦Ã°ur":13035,"Ġundansk":13036,"Ġhir":13037,"Ġhold":13038,"ĠBein":13039,"ĠhlutabrÃ©fa":13040,"ower":13041,"Ġefast":13042,"einingar":13043,"ĠdÃ³msmÃ¡larÃ¡Ã°herra":13044,"Ġfjarskipta":13045,"Ġgrunur":13046,"Ã¡liÃ°":13047,"ĠJÃ³nsdÃ³ttur":13048,"ĠHÃ¶fuÃ°":13049,"Ġhegningar":13050,"ĠSigfÃºs":13051,"ĠHÃºna":13052,"ĠNÃ¡ms":13053,"ĠyÃ°ar":13054,"Ġfiskur":13055,"ĠinnrÃ©ttingu":13056,"vestan":13057,"ĠmÃ¦tast":13058,"Ã³lit":13059,"Ġgagnagr":13060,"Ġfley":13061,"ĠinnblÃ¡stur":13062,"varÃ°ar":13063,"grunni":13064,"hÃ³lum":13065,"ĠAkraness":13066,"ĠHjalta":13067,"luna":13068,"Ġpok":13069,"ĠskjÃ³lstÃ¦Ã°":13070,"ĠsjÃ³Ã°urinn":13071,"ĠHafÃ°u":13072,"Ġmengunar":13073,"Ġlak":13074,"ĠsÃ©rfrÃ¦Ã°i":13075,"ĠFriÃ°riksson":13076,"banda":13077,"ĠÃ³nÃ½":13078,"ĠhÃ³fu":13079,"aflokkur":13080,"ĠjÃ³labÃ³k":13081,"Ã¶ryggis":13082,"ĠSÃŃÃ°asta":13083,"cal":13084,"raÃ°ir":13085,"ĠkvÃ¶ldsins":13086,"Ġkenndi":13087,"ĠumhverfisrÃ¡Ã°herra":13088,"ĠÃģsgrÃŃm":13089,"ĠWashington":13090,"smark":13091,"ĠbundiÃ°":13092,"Ġvopn":13093,"ĠrÃ¡Ã°ningu":13094,"Ġlyfjum":13095,"ĠAmerÃŃku":13096,"ĠmenntamÃ¡larÃ¡Ã°herra":13097,"ekta":13098,"igur":13099,"ĠjÃ¡kvÃ¦Ã°a":13100,"ĠbjÃ¶rgunarsveit":13101,"Ġsma":13102,"ĠMic":13103,"Ġvant":13104,"Ġmismunun":13105,"ĠÃļtlendingastofnun":13106,"ĠReykhÃ³lahrepps":13107,"ĠÃ¡kvÃ¡Ã°u":13108,"ĠeindregiÃ°":13109,"Ġkun":13110,"einkunn":13111,"sala":13112,"usar":13113,"RI":13114,"Ġafgreidd":13115,"ĠMor":13116,"unir":13117,"Ġga":13118,"ĠblaÃ°amaÃ°ur":13119,"ĠKeflavÃŃkurflugvelli":13120,"bundnu":13121,"Ġtilnefndur":13122,"nÃ¦m":13123,"nastofnun":13124,"ĠtÃ¶ku":13125,"ĠkÃ½s":13126,"ĠFS":13127,"Ġbyrjunar":13128,"kirkjunnar":13129,"Ġbylt":13130,"ĠhorfÃ°i":13131,"ĠVatnajÃ¶kuls":13132,"ĠstrÃŃÃ°a":13133,"cher":13134,"ĠHrÃ¶nn":13135,"Ġtogar":13136,"aloftteg":13137,"Ġstrong":13138,"ĠlandsliÃ°s":13139,"Ġinnlendum":13140,"Ġforsetak":13141,"Ġbakgrunn":13142,"ĠtÃ¶lvuleik":13143,"aranum":13144,"me":13145,"ĠOpen":13146,"ĠIngÃ³lfsson":13147,"ĠstjÃ³rnarskrÃ¡rinnar":13148,"Ġskyr":13149,"ĠGrÃ¦nlands":13150,"Ġsamtal":13151,"ĠslÃ³Ã°":13152,"Ġhur":13153,"ĠLÃ³Ã°":13154,"ĠviÃ°urkennd":13155,"ĠApple":13156,"igh":13157,"efndar":13158,"Ġalvarlegt":13159,"Ġvelkomin":13160,"ĠÃºrskurÃ°arnefndar":13161,"ĠBÃºnaÃ°ar":13162,"ĠÃ¡skilur":13163,"ĠrÃ¡Ã°herr":13164,"ĠViktor":13165,"ĠÃ³r":13166,"estum":13167,"ĠerfiÃ°ar":13168,"ĠKos":13169,"Ġyfirgefa":13170,"greinum":13171,"ĠBjarki":13172,"punkti":13173,"ĠBjÃ¶rns":13174,"ĠStefÃ¡nsdÃ³ttir":13175,"ĠskrÃº":13176,"Ġheimilanna":13177,"Ġ1976":13178,"bekk":13179,"drei":13180,"srÃ©tt":13181,"ĠleiÃ°ina":13182,"frÃ¦Ã°in":13183,"ĠlaunagreiÃ°":13184,"ĠKaupÃ¾ings":13185,"ĠÃ¡tÃ¶k":13186,"ĠÃŃÃ¾rÃ³ttir":13187,"Ġtonna":13188,"ĠstjÃ³rnsÃ½slulaga":13189,"ĠsvÃ¦Ã°a":13190,"Ġframleitt":13191,"akeppni":13192,"ĠgreiÃ°i":13193,"ĠBrjÃ¡n":13194,"Ġafhendingu":13195,"ĠsjÃ³nvarpi":13196,"infÃ³nÃŃu":13197,"eu":13198,"hrauni":13199,"Ġsnilld":13200,"70":13201,"ĠsÃ¶kk":13202,"ĠverkfrÃ¦Ã°i":13203,"Ġstrik":13204,"yrirtÃ¦kja":13205,"ĠLandspÃŃtalans":13206,"ĠVerkiÃ°":13207,"ĠÃļlf":13208,"bÃŃÃ³i":13209,"Ġpabbi":13210,"Hann":13211,"ĠleikskÃ³lans":13212,"bÃºÃ°a":13213,"komum":13214,"hÃ¶fundur":13215,"ĠÃ³sann":13216,"KÃ³reu":13217,"ĠÃºthlutunar":13218,"ĠjÃ³ga":13219,"Ġvinni":13220,"ĠBli":13221,"Ġskemmri":13222,"skurÃ°ur":13223,"ĠvÃ¶l":13224,"Ġtra":13225,"Ġkrakkarnir":13226,"ĠflÃŃsar":13227,"auki":13228,"ĠSteph":13229,"shÃ¡tÃŃÃ°":13230,"Ġhjart":13231,"ĠtilboÃ°um":13232,"arfrÃ¦Ã°i":13233,"yrkju":13234,"etum":13235,"anÃ¡mskeiÃ°":13236,"rÃ³t":13237,"ĠHugmyndin":13238,"ĠÃ³full":13239,"standandi":13240,"Ġhausti":13241,"Ġvitneskju":13242,"pers":13243,"ĠBrasil":13244,"Ġfaglega":13245,"pappÃŃr":13246,"Ġafli":13247,"ĠTungu":13248,"Ġ2020":13249,"ĠAÃ°ferÃ°":13250,"Ġengir":13251,"ĠÃ¡gÃ¦tis":13252,"veldi":13253,"bÃŃlum":13254,"ĠEs":13255,"ĠlÃŃklegast":13256,"ĠviÃ°burÃ°":13257,"Ġmerkilegt":13258,"Ã°ari":13259,"ĠHjÃ¡lpar":13260,"arÃ¶Ã°inni":13261,"Ġskelf":13262,"ĠundanÃºrslit":13263,"Ġelda":13264,"ĠnÃ¡lÃ¦g":13265,"Ġdettur":13266,"ĠFri":13267,"ĠÃ¾Ã©ttbÃ½li":13268,"bjarnar":13269,"Ġforyst":13270,"gÃ¦ti":13271,"ĠOG":13272,"issa":13273,"bygging":13274,"Ġraunin":13275,"ĠÃ¾urrk":13276,"ĠgreiÃ°ist":13277,"Ġveittar":13278,"srÃŃk":13279,"ĠborgarstjÃ³rnar":13280,"Ġappels":13281,"Ġmess":13282,"2001":13283,"Ġhlutar":13284,"Ġins":13285,"samtaka":13286,"ĠGroup":13287,"okkur":13288,"seta":13289,"Ġeldsv":13290,"afjÃ¶lda":13291,"ameÃ°ferÃ°":13292,"ĠslÃŃkan":13293,"ĠdjÃºpt":13294,"Ã¡lkn":13295,"Ã¶guleika":13296,"Ġskygg":13297,"ĠskÃ³lastjÃ³ra":13298,"Ġstofnuninni":13299,"Ġdvalarleyfi":13300,"ĠÃ¾ingmann":13301,"Ġvissum":13302,"Ġleyft":13303,"bÃ³kum":13304,"ĠSovÃ©":13305,"ĠMay":13306,"Ã¾orp":13307,"ĠskÃ³lastarfi":13308,"ĠHvann":13309,"Ġhelmingi":13310,"amÃ¶rk":13311,"Ġtilgangur":13312,"Ġryk":13313,"ĠGrÃ¦nlandi":13314,"ĠhÃ¦Ã°um":13315,"ĠnÃ¡ttÃºruna":13316,"abyggÃ°":13317,"ĠÃ¾jÃ³Ã°aratkvÃ¦Ã°agreiÃ°slu":13318,"fulltrÃºi":13319,"Ãºrum":13320,"lÃŃna":13321,"Ġopnu":13322,"Ġinnlegg":13323,"ĠBÃ¡rÃ°arbungu":13324,"ĠstarfrÃ¦kt":13325,"Ġsneri":13326,"ĠÃºrvinnslu":13327,"ĠfjÃ¡rlÃ¶gum":13328,"ĠsveitarfÃ©lÃ¶gin":13329,"ĠgrÃ³Ã°urhÃºsaloftteg":13330,"ĠhagrÃ¦Ã°":13331,"ÃŃan":13332,"ĠleiÃ°sÃ¶gum":13333,"stÃŃ":13334,"chen":13335,"jÃ¶ldin":13336,"Ar":13337,"Ġatvinnuleysis":13338,"ĠTjarnar":13339,"Ġvelt":13340,"ĠbÃ¦ri":13341,"ĠVetrar":13342,"ĠsmÃŃÃ°a":13343,"ĠrÃ¦ktunar":13344,"rÃ¶Ã°un":13345,"ĠuppgÃ¶tv":13346,"ĠNÃ½lega":13347,"ĠÃ¾Ã½sku":13348,"ĠrÃŃka":13349,"ĠÃ¶mmu":13350,"Ġjepp":13351,"Ġeystra":13352,"ĠBelg":13353,"ĠyfirmaÃ°ur":13354,"bÃ³kar":13355,"ĠSkÃ³linn":13356,"fla":13357,"sÃ³knari":13358,"ile":13359,"ĠAk":13360,"Ġheildina":13361,"ĠsjÃ³narmiÃ°um":13362,"ue":13363,"ĠstuÃ°lar":13364,"skostnaÃ°":13365,"Ġkvikmyndir":13366,"Ġpir":13367,"Ġbrenna":13368,"Ġflokkun":13369,"hraÃ°a":13370,"plan":13371,"ÃŃslen":13372,"landiÃ°":13373,"ĠÃ³lÃŃkt":13374,"ĠleiÃ°rÃ©tta":13375,"mÃ¡lar":13376,"skyldur":13377,"aldir":13378,"ĠfullyrÃ°a":13379,"GS":13380,"asv":13381,"hÃ¶nnu":13382,"landa":13383,"ĠÃŃtal":13384,"ĠDanska":13385,"tugur":13386,"Ġhagsmunir":13387,"Ġathafna":13388,"del":13389,"iÃ°naÃ°":13390,"ĠbrjÃ³sti":13391,"aldast":13392,"Ġgatn":13393,"ĠCam":13394,"ĠstÃ³rir":13395,"ĠElÃŃas":13396,"gÃ¦Ã°a":13397,"ĠOb":13398,"samtÃ¶k":13399,"ĠlÃ©n":13400,"Ġgeymsla":13401,"ĠfjÃ¡rmÃ¡lafyrirtÃ¦kja":13402,"ĠrÃŃkisskattstjÃ³ra":13403,"ĠgÃ³Ã°ra":13404,"ĠstjÃ³rnarformaÃ°ur":13405,"Ġhlaupi":13406,"ĠFerÃ°amÃ¡la":13407,"Ã¶lur":13408,"ĠfaÃ°":13409,"bÃ½lishÃºs":13410,"ĠhÃ¦starÃ©ttar":13411,"ĠsambÃºÃ°":13412,"ĠAlla":13413,"ĠandstÃ¶Ã°u":13414,"ĠBÃŃl":13415,"Ġfleirum":13416,"Ġtauga":13417,"Ġreyndu":13418,"Ġ1500":13419,"eing":13420,"Ġ126":13421,"ĠstjÃ³rnarmenn":13422,"Ġforlaginu":13423,"ĠhnÃ©":13424,"ĠrÃ³tt":13425,"alegri":13426,"ĠHelgadÃ³ttir":13427,"ĠlandbÃºnaÃ°arrÃ¡Ã°herra":13428,"Ġstelpurnar":13429,"kkaÃ°i":13430,"Ġhlakka":13431,"magni":13432,"ĠSÃģ":13433,"ĠÃŃslands":13434,"ĠSamkeppnis":13435,"Ġdrag":13436,"ĠSP":13437,"ĠÂľ":13438,"Ġbro":13439,"ĠfyrirtÃ¦kin":13440,"ĠsendirÃ¡Ã°":13441,"ĠVÃŃkur":13442,"ĠbÃ³kmennt":13443,"ĠMis":13444,"ĠRÃ³sa":13445,"aflÃ³Ã°iÃ°":13446,"ĠHljÃ³msveit":13447,"Ġskjala":13448,"Ġnudd":13449,"esen":13450,"Ġvaldir":13451,"ĠCharl":13452,"Ġhelsti":13453,"ĠgrundvÃ¶llur":13454,"tinu":13455,"ath":13456,"ĠPep":13457,"ĠTryggv":13458,"nef":13459,"Ã½mi":13460,"ĠJer":13461,"ĠStaÃ°an":13462,"ĠsvokallaÃ°":13463,"Ġvagn":13464,"einkenni":13465,"Ġhlutfallslega":13466,"ĠfÃ©lagsmÃ¡l":13467,"ĠsamÃ¾ykktir":13468,"abyggÃ°ar":13469,"Ġstefnda":13470,"ĠseÃ°labanka":13471,"ĠAlfreÃ°":13472,"ĠÃĸrÃ¦":13473,"eistarati":13474,"Ġdrif":13475,"Ġopnir":13476,"ĠmarkiÃ°":13477,"ĠframleiÃ°ir":13478,"ĠHalldÃ³rsdÃ³ttir":13479,"skuldbind":13480,"Ġfranska":13481,"ĠÃ¡rangurinn":13482,"Ġskipulagt":13483,"hlÃŃ":13484,"ĠbandarÃŃsku":13485,"Ġgo":13486,"ĠpÃ¶nnu":13487,"ĠsjÃ¡lfstraust":13488,"tions":13489,"ĠÃºrslitaleik":13490,"ĠpÃŃanÃ³":13491,"breidd":13492,"ĠrafrÃ¦n":13493,"ĠafurÃ°a":13494,"Ã¶nt":13495,"ĠBretar":13496,"araÃ¾on":13497,"ĠÃįsafjarÃ°ard":13498,"bel":13499,"mÃ¡linu":13500,"ĠsÃ¦tta":13501,"ĠÃ¡gÃ¦tt":13502,"heiminum":13503,"ĠglÃ¦sileg":13504,"Ġstimp":13505,"ĠbÃ¦tast":13506,"ĠfrjÃ¡lst":13507,"ĠgyÃ°":13508,"ninginn":13509,"ÃŃskar":13510,"ĠÃºrslita":13511,"Ġdagurinn":13512,"ĠhurÃ°":13513,"nana":13514,"ĠLandsbankinn":13515,"MeÃ°":13516,"ĠvaramaÃ°ur":13517,"Ġtiltekin":13518,"ĠFjÃ³rÃ°ung":13519,"Ġet":13520,"ĠFit":13521,"ĠfÃ©lagsmiÃ°":13522,"hÃ³ps":13523,"ĠÃŀjÃ³Ã°skrÃ¡":13524,"Ã¾yr":13525,"nefndu":13526,"Ã¦kkun":13527,"ĠathyglisverÃ°a":13528,"Ġmyndas":13529,"Ġkosningu":13530,"amÃ³tin":13531,"kostnaÃ°ur":13532,"ĠbifreiÃ°ar":13533,"ĠrÃ¡Ã°ning":13534,"ĠfriÃ°i":13535,"ĠfjÃ¶lbreyttum":13536,"Ġmundu":13537,"hlaÃ°":13538,"jÃ¡rhÃ¦Ã°":13539,"Ã°irnar":13540,"ĠAuglÃ½sing":13541,"Ġkak":13542,"vitar":13543,"Ġ1940":13544,"ĠLeifs":13545,"ĠÃįBV":13546,"Ġstik":13547,"viÃ°ri":13548,"Ġ1971":13549,"ĠviÃ°urkennt":13550,"ĠHeklu":13551,"Ġskamms":13552,"ssÃ½slu":13553,"ĠÃļkra":13554,"ĠSkagafirÃ°i":13555,"ĠRun":13556,"ĠrÃ©Ã°":13557,"verum":13558,"ĠWat":13559,"Ġframfyl":13560,"ĠheilbrigÃ°isst":13561,"Ã¡rinu":13562,"Ġstress":13563,"Ġofl":13564,"Ġkennsla":13565,"Ġaukinnar":13566,"slegan":13567,"Ġvitund":13568,"ĠÃ¡hugamÃ¡l":13569,"ĠNorÃ°urlands":13570,"Ġuppbygging":13571,"Ġtegunda":13572,"Ġfir":13573,"ĠGuÃ°laugur":13574,"Ġkal":13575,"ĠWe":13576,"ĠPÃ©turs":13577,"arfÃ©lÃ¶gum":13578,"ĠauglÃ½sing":13579,"ĠVÃŃn":13580,"Ġmisk":13581,"Ġafnot":13582,"Ġsameign":13583,"Ġsvalir":13584,"ĠsvipuÃ°":13585,"Ġregla":13586,"ĠfjÃ¡rfesting":13587,"Ġsteyp":13588,"Ã¦lir":13589,"reiÃ°ar":13590,"ĠValgerÃ°ur":13591,"ingnum":13592,"Ġsvak":13593,"vÃŃsit":13594,"ĠSilfur":13595,"ĠfÃ³Ã°":13596,"Ã¡stand":13597,"Ġflot":13598,"Ġdeilda":13599,"ĠbjargaÃ°":13600,"bikar":13601,"Ġ125":13602,"stjÃ³rnir":13603,"ult":13604,"nefndin":13605,"ĠfrumsÃ½nd":13606,"ĠKjal":13607,"ĠmatvÃ¶ru":13608,"vina":13609,"rekk":13610,"ĠeignaÃ°ist":13611,"ĠhljÃ³Ã°fÃ¦r":13612,"ĠfjÃ¡rmagna":13613,"arÃŃ":13614,"alegur":13615,"ĠVesturlandi":13616,"bux":13617,"Ġmessu":13618,"svettvang":13619,"mats":13620,"ĠHarÃ°arson":13621,"ĠKatrÃŃ":13622,"ĠJakobsdÃ³ttir":13623,"ĠFyll":13624,"ĠsjÃºklingum":13625,"greint":13626,"Ġpizz":13627,"ĠvarnaraÃ°ila":13628,"ĠÃŀver":13629,"ĠMÃ½vatn":13630,"fra":13631,"ĠgrunaÃ°ur":13632,"Ġneinar":13633,"lna":13634,"Ġvelli":13635,"aferÃ°ir":13636,"ĠforrÃ¡Ã°amenn":13637,"hÃ¶gg":13638,"ĠkÃ¶tt":13639,"ĠleikmÃ¶nnum":13640,"ĠfullorÃ°ins":13641,"ĠÃ¶kutÃ¦ki":13642,"agar":13643,"ĠumgjÃ¶rÃ°":13644,"hÃ¡tÃŃÃ°in":13645,"ĠheimsÃ³tti":13646,"ĠnÃ¡iÃ°":13647,"anlegu":13648,"ĠVÃŃÃ°a":13649,"ĠTÃ¡lkn":13650,"Ġhlutfalli":13651,"Ġsnyrt":13652,"Ġfinnist":13653,"stÃ¦Ã°ar":13654,"Ġprestur":13655,"ĠsÃ©reignar":13656,"ĠJÃ³s":13657,"ĠHeimild":13658,"io":13659,"ĠOrkust":13660,"ĠStaÃ°setning":13661,"Ġlab":13662,"Ġgrafa":13663,"Ġ2019":13664,"ĠstjÃ³rnaÃ°":13665,"valdsins":13666,"ĠsÃŃÃ°astliÃ°in":13667,"ĠViÃ°reisnar":13668,"ĠLauf":13669,"Ġrifja":13670,"Ġunnar":13671,"ĠÃŀjÃ³":13672,"ĠÃ¾jÃ³Ã°fÃ©laginu":13673,"Ġskrifum":13674,"ĠhvÃŃlir":13675,"ĠmiÃ°ri":13676,"ĠviÃ°gerÃ°":13677,"ĠGraf":13678,"flokkarnir":13679,"anlegri":13680,"ĠrÃ¦Ã°st":13681,"Ġtor":13682,"horf":13683,"ĠaÃ°ildarrÃŃki":13684,"kÃ³":13685,"Ġsess":13686,"olding":13687,"ĠrÃºst":13688,"ĠSvefn":13689,"Ġprins":13690,"tÃ¶lum":13691,"ĠSlysa":13692,"Ġlog":13693,"ĠGy":13694,"ĠSverrir":13695,"nasonar":13696,"hÃ¦fni":13697,"ĠLÃŃfeyriss":13698,
[...]
